#include "tiny_efficientnet_mnist_int8_model_data.h"
alignas(16) const unsigned char tiny_efficientnet_mnist_int8_model_data[] = {
  0x20, 0x00, 0x00, 0x00, 0x54, 0x46, 0x4c, 0x33, 0x00, 0x00, 0x00, 0x00,
  0x14, 0x00, 0x20, 0x00, 0x1c, 0x00, 0x18, 0x00, 0x14, 0x00, 0x10, 0x00,
  0x0c, 0x00, 0x00, 0x00, 0x08, 0x00, 0x04, 0x00, 0x14, 0x00, 0x00, 0x00,
  0x1c, 0x00, 0x00, 0x00, 0x88, 0x00, 0x00, 0x00, 0xe0, 0x00, 0x00, 0x00,
  0xf0, 0x1e, 0x00, 0x00, 0x00, 0x1f, 0x00, 0x00, 0x1c, 0x86, 0x00, 0x00,
  0x03, 0x00, 0x00, 0x00, 0x01, 0x00, 0x00, 0x00, 0x04, 0x00, 0x00, 0x00,
  0x5e, 0xd6, 0xff, 0xff, 0x0c, 0x00, 0x00, 0x00, 0x1c, 0x00, 0x00, 0x00,
  0x3c, 0x00, 0x00, 0x00, 0x0f, 0x00, 0x00, 0x00, 0x73, 0x65, 0x72, 0x76,
  0x69, 0x6e, 0x67, 0x5f, 0x64, 0x65, 0x66, 0x61, 0x75, 0x6c, 0x74, 0x00,
  0x01, 0x00, 0x00, 0x00, 0x04, 0x00, 0x00, 0x00, 0x94, 0xff, 0xff, 0xff,
  0x5d, 0x00, 0x00, 0x00, 0x04, 0x00, 0x00, 0x00, 0x08, 0x00, 0x00, 0x00,
  0x6f, 0x75, 0x74, 0x70, 0x75, 0x74, 0x5f, 0x30, 0x00, 0x00, 0x00, 0x00,
  0x01, 0x00, 0x00, 0x00, 0x04, 0x00, 0x00, 0x00, 0x2a, 0xe0, 0xff, 0xff,
  0x04, 0x00, 0x00, 0x00, 0x0b, 0x00, 0x00, 0x00, 0x69, 0x6e, 0x70, 0x75,
  0x74, 0x5f, 0x6c, 0x61, 0x79, 0x65, 0x72, 0x00, 0x02, 0x00, 0x00, 0x00,
  0x34, 0x00, 0x00, 0x00, 0x04, 0x00, 0x00, 0x00, 0xdc, 0xff, 0xff, 0xff,
  0x60, 0x00, 0x00, 0x00, 0x04, 0x00, 0x00, 0x00, 0x13, 0x00, 0x00, 0x00,
  0x43, 0x4f, 0x4e, 0x56, 0x45, 0x52, 0x53, 0x49, 0x4f, 0x4e, 0x5f, 0x4d,
  0x45, 0x54, 0x41, 0x44, 0x41, 0x54, 0x41, 0x00, 0x08, 0x00, 0x0c, 0x00,
  0x08, 0x00, 0x04, 0x00, 0x08, 0x00, 0x00, 0x00, 0x5f, 0x00, 0x00, 0x00,
  0x04, 0x00, 0x00, 0x00, 0x13, 0x00, 0x00, 0x00, 0x6d, 0x69, 0x6e, 0x5f,
  0x72, 0x75, 0x6e, 0x74, 0x69, 0x6d, 0x65, 0x5f, 0x76, 0x65, 0x72, 0x73,
  0x69, 0x6f, 0x6e, 0x00, 0x61, 0x00, 0x00, 0x00, 0x0c, 0x1e, 0x00, 0x00,
  0x04, 0x1e, 0x00, 0x00, 0xec, 0x1d, 0x00, 0x00, 0xb4, 0x1d, 0x00, 0x00,
  0x64, 0x1c, 0x00, 0x00, 0xd4, 0x1b, 0x00, 0x00, 0xc4, 0x19, 0x00, 0x00,
  0x74, 0x19, 0x00, 0x00, 0x64, 0x17, 0x00, 0x00, 0xd4, 0x16, 0x00, 0x00,
  0xa4, 0x15, 0x00, 0x00, 0x14, 0x15, 0x00, 0x00, 0x04, 0x13, 0x00, 0x00,
  0xb4, 0x12, 0x00, 0x00, 0x24, 0x11, 0x00, 0x00, 0xb4, 0x10, 0x00, 0x00,
  0xcc, 0x0f, 0x00, 0x00, 0x5c, 0x0f, 0x00, 0x00, 0x2c, 0x0e, 0x00, 0x00,
  0xec, 0x0d, 0x00, 0x00, 0xbc, 0x0c, 0x00, 0x00, 0x4c, 0x0c, 0x00, 0x00,
  0x64, 0x0b, 0x00, 0x00, 0xf4, 0x0a, 0x00, 0x00, 0xc4, 0x09, 0x00, 0x00,
  0x84, 0x09, 0x00, 0x00, 0xb4, 0x08, 0x00, 0x00, 0x64, 0x08, 0x00, 0x00,
  0xc4, 0x07, 0x00, 0x00, 0x74, 0x07, 0x00, 0x00, 0xe4, 0x06, 0x00, 0x00,
  0xb4, 0x06, 0x00, 0x00, 0x24, 0x06, 0x00, 0x00, 0xd4, 0x05, 0x00, 0x00,
  0x34, 0x05, 0x00, 0x00, 0xe4, 0x04, 0x00, 0x00, 0x54, 0x04, 0x00, 0x00,
  0x24, 0x04, 0x00, 0x00, 0xd4, 0x03, 0x00, 0x00, 0xa4, 0x03, 0x00, 0x00,
  0x4c, 0x03, 0x00, 0x00, 0x1c, 0x03, 0x00, 0x00, 0x34, 0x02, 0x00, 0x00,
  0x2c, 0x02, 0x00, 0x00, 0x24, 0x02, 0x00, 0x00, 0x1c, 0x02, 0x00, 0x00,
  0x14, 0x02, 0x00, 0x00, 0x0c, 0x02, 0x00, 0x00, 0x04, 0x02, 0x00, 0x00,
  0xfc, 0x01, 0x00, 0x00, 0xf4, 0x01, 0x00, 0x00, 0xec, 0x01, 0x00, 0x00,
  0xe4, 0x01, 0x00, 0x00, 0xdc, 0x01, 0x00, 0x00, 0xd4, 0x01, 0x00, 0x00,
  0xcc, 0x01, 0x00, 0x00, 0xc4, 0x01, 0x00, 0x00, 0xbc, 0x01, 0x00, 0x00,
  0xb4, 0x01, 0x00, 0x00, 0xac, 0x01, 0x00, 0x00, 0xa4, 0x01, 0x00, 0x00,
  0x9c, 0x01, 0x00, 0x00, 0x94, 0x01, 0x00, 0x00, 0x8c, 0x01, 0x00, 0x00,
  0x84, 0x01, 0x00, 0x00, 0x7c, 0x01, 0x00, 0x00, 0x74, 0x01, 0x00, 0x00,
  0x6c, 0x01, 0x00, 0x00, 0x64, 0x01, 0x00, 0x00, 0x5c, 0x01, 0x00, 0x00,
  0x54, 0x01, 0x00, 0x00, 0x4c, 0x01, 0x00, 0x00, 0x44, 0x01, 0x00, 0x00,
  0x3c, 0x01, 0x00, 0x00, 0x34, 0x01, 0x00, 0x00, 0x2c, 0x01, 0x00, 0x00,
  0x24, 0x01, 0x00, 0x00, 0x1c, 0x01, 0x00, 0x00, 0x14, 0x01, 0x00, 0x00,
  0x0c, 0x01, 0x00, 0x00, 0x04, 0x01, 0x00, 0x00, 0xfc, 0x00, 0x00, 0x00,
  0xf4, 0x00, 0x00, 0x00, 0xec, 0x00, 0x00, 0x00, 0xe4, 0x00, 0x00, 0x00,
  0xdc, 0x00, 0x00, 0x00, 0xd4, 0x00, 0x00, 0x00, 0xcc, 0x00, 0x00, 0x00,
  0xc4, 0x00, 0x00, 0x00, 0xbc, 0x00, 0x00, 0x00, 0xb4, 0x00, 0x00, 0x00,
  0xac, 0x00, 0x00, 0x00, 0xa4, 0x00, 0x00, 0x00, 0x9c, 0x00, 0x00, 0x00,
  0x94, 0x00, 0x00, 0x00, 0x74, 0x00, 0x00, 0x00, 0x04, 0x00, 0x00, 0x00,
  0x26, 0xe2, 0xff, 0xff, 0x04, 0x00, 0x00, 0x00, 0x60, 0x00, 0x00, 0x00,
  0x0c, 0x00, 0x00, 0x00, 0x08, 0x00, 0x0e, 0x00, 0x08, 0x00, 0x04, 0x00,
  0x08, 0x00, 0x00, 0x00, 0x10, 0x00, 0x00, 0x00, 0x28, 0x00, 0x00, 0x00,
  0x00, 0x00, 0x06, 0x00, 0x08, 0x00, 0x04, 0x00, 0x06, 0x00, 0x00, 0x00,
  0x04, 0x00, 0x00, 0x00, 0x01, 0x00, 0x00, 0x00, 0xeb, 0x03, 0x00, 0x00,
  0x0c, 0x00, 0x18, 0x00, 0x14, 0x00, 0x10, 0x00, 0x0c, 0x00, 0x04, 0x00,
  0x0c, 0x00, 0x00, 0x00, 0x61, 0x09, 0xaa, 0x56, 0xba, 0xd9, 0x74, 0x51,
  0x02, 0x00, 0x00, 0x00, 0x02, 0x00, 0x00, 0x00, 0x04, 0x00, 0x00, 0x00,
  0x06, 0x00, 0x00, 0x00, 0x32, 0x2e, 0x32, 0x30, 0x2e, 0x30, 0x00, 0x00,
  0x92, 0xe2, 0xff, 0xff, 0x04, 0x00, 0x00, 0x00, 0x10, 0x00, 0x00, 0x00,
  0x31, 0x2e, 0x31, 0x34, 0x2e, 0x30, 0x00, 0x00, 0x00, 0x00, 0x00, 0x00,
  0x00, 0x00, 0x00, 0x00, 0xa0, 0x7d, 0xff, 0xff, 0xa4, 0x7d, 0xff, 0xff,
  0xa8, 0x7d, 0xff, 0xff, 0xac, 0x7d, 0xff, 0xff, 0xb0, 0x7d, 0xff, 0xff,
  0xb4, 0x7d, 0xff, 0xff, 0xb8, 0x7d, 0xff, 0xff, 0xbc, 0x7d, 0xff, 0xff,
  0xc0, 0x7d, 0xff, 0xff, 0xc4, 0x7d, 0xff, 0xff, 0xc8, 0x7d, 0xff, 0xff,
  0xcc, 0x7d, 0xff, 0xff, 0xd0, 0x7d, 0xff, 0xff, 0xd4, 0x7d, 0xff, 0xff,
  0xd8, 0x7d, 0xff, 0xff, 0xdc, 0x7d, 0xff, 0xff, 0xe0, 0x7d, 0xff, 0xff,
  0xe4, 0x7d, 0xff, 0xff, 0xe8, 0x7d, 0xff, 0xff, 0xec, 0x7d, 0xff, 0xff,
  0xf0, 0x7d, 0xff, 0xff, 0xf4, 0x7d, 0xff, 0xff, 0xf8, 0x7d, 0xff, 0xff,
  0xfc, 0x7d, 0xff, 0xff, 0x00, 0x7e, 0xff, 0xff, 0x04, 0x7e, 0xff, 0xff,
  0x08, 0x7e, 0xff, 0xff, 0x0c, 0x7e, 0xff, 0xff, 0x10, 0x7e, 0xff, 0xff,
  0x14, 0x7e, 0xff, 0xff, 0x18, 0x7e, 0xff, 0xff, 0x1c, 0x7e, 0xff, 0xff,
  0x20, 0x7e, 0xff, 0xff, 0x24, 0x7e, 0xff, 0xff, 0x28, 0x7e, 0xff, 0xff,
  0x2c, 0x7e, 0xff, 0xff, 0x30, 0x7e, 0xff, 0xff, 0x34, 0x7e, 0xff, 0xff,
  0x38, 0x7e, 0xff, 0xff, 0x3c, 0x7e, 0xff, 0xff, 0x40, 0x7e, 0xff, 0xff,
  0x44, 0x7e, 0xff, 0xff, 0x48, 0x7e, 0xff, 0xff, 0x4c, 0x7e, 0xff, 0xff,
  0x50, 0x7e, 0xff, 0xff, 0x54, 0x7e, 0xff, 0xff, 0x58, 0x7e, 0xff, 0xff,
  0x5c, 0x7e, 0xff, 0xff, 0x60, 0x7e, 0xff, 0xff, 0x64, 0x7e, 0xff, 0xff,
  0x68, 0x7e, 0xff, 0xff, 0x6c, 0x7e, 0xff, 0xff, 0x7e, 0xe3, 0xff, 0xff,
  0x04, 0x00, 0x00, 0x00, 0xd8, 0x00, 0x00, 0x00, 0x78, 0x6f, 0xea, 0x55,
  0x9f, 0x7f, 0x35, 0xcb, 0x89, 0xa5, 0x72, 0x64, 0x31, 0xda, 0x50, 0x36,
  0x4e, 0x0a, 0x18, 0xea, 0xd5, 0x39, 0x02, 0xee, 0x60, 0xf7, 0xed, 0x06,
  0x3e, 0x28, 0xa6, 0xb0, 0xe0, 0xe0, 0xa5, 0x0b, 0x0f, 0xcd, 0xee, 0xc7,
  0xb2, 0x69, 0x81, 0x24, 0xba, 0xa1, 0x53, 0x47, 0x50, 0xfa, 0xf5, 0xc0,
  0x00, 0x2d, 0x2c, 0x42, 0x58, 0xad, 0xd8, 0x1b, 0x25, 0xc6, 0xcf, 0x37,
  0x5a, 0x50, 0x61, 0xc4, 0x1b, 0x81, 0x53, 0x2c, 0xa9, 0x1a, 0xd8, 0x06,
  0x7d, 0xb6, 0x28, 0xff, 0xb4, 0xdb, 0xf7, 0x84, 0xa0, 0xff, 0xca, 0x8f,
  0x7a, 0xef, 0xb9, 0xcf, 0xe5, 0x6e, 0x48, 0xb5, 0x48, 0xa1, 0x40, 0xd5,
  0x81, 0x29, 0xb7, 0xe4, 0x9b, 0x13, 0x93, 0xd4, 0x21, 0x07, 0xb9, 0x61,
  0x3a, 0xd7, 0xde, 0x7f, 0x39, 0x91, 0x2e, 0xcf, 0x72, 0x4d, 0xa8, 0x46,
  0x23, 0xfc, 0x8c, 0x4f, 0x56, 0xbb, 0xc6, 0xa6, 0x1a, 0x91, 0xcb, 0xd6,
  0x04, 0x64, 0xe4, 0xbd, 0x4f, 0x89, 0xd8, 0xf9, 0xcc, 0xf6, 0x18, 0x66,
  0xa5, 0x32, 0x96, 0x17, 0xff, 0x69, 0x7f, 0x59, 0x0a, 0xd5, 0xbf, 0x35,
  0x56, 0x43, 0x7b, 0x5e, 0x48, 0x2f, 0x01, 0x66, 0xd3, 0x96, 0x36, 0x81,
  0xe7, 0xbd, 0x78, 0x38, 0xc6, 0xda, 0x0e, 0x8d, 0x3c, 0x12, 0xfd, 0x9e,
  0xce, 0x47, 0x97, 0xfa, 0x2c, 0x66, 0xaa, 0xd0, 0xed, 0xac, 0x62, 0xde,
  0xe7, 0xfa, 0x48, 0xe6, 0x72, 0xb1, 0x4e, 0x02, 0x1f, 0x28, 0xb5, 0x67,
  0x1b, 0x7f, 0x55, 0xaa, 0x94, 0xd2, 0xfd, 0xbe, 0x62, 0xe4, 0xff, 0xff,
  0x04, 0x00, 0x00, 0x00, 0x20, 0x00, 0x00, 0x00, 0x93, 0xb4, 0xff, 0xff,
  0x04, 0x27, 0x00, 0x00, 0x93, 0xde, 0xff, 0xff, 0x78, 0x64, 0x00, 0x00,
  0xb9, 0x06, 0x00, 0x00, 0xc8, 0xe2, 0xff, 0xff, 0xa3, 0xf6, 0xff, 0xff,
  0x43, 0xf3, 0xff, 0xff, 0x8e, 0xe4, 0xff, 0xff, 0x04, 0x00, 0x00, 0x00,
  0x48, 0x00, 0x00, 0x00, 0x93, 0x40, 0xd8, 0x2c, 0xbe, 0xb3, 0xb0, 0x9b,
  0x75, 0x34, 0x2f, 0xd0, 0x8a, 0xe8, 0xdb, 0x59, 0xca, 0x81, 0xfb, 0x9f,
  0x4b, 0xcc, 0x01, 0xef, 0x30, 0xda, 0x9b, 0x81, 0x7f, 0xeb, 0xc0, 0xc4,
  0x56, 0xec, 0xb6, 0xd9, 0xe0, 0xf3, 0xbf, 0x2b, 0x7f, 0xb2, 0x56, 0x6b,
  0x6a, 0xef, 0xbe, 0xff, 0x2e, 0xcf, 0x4c, 0x08, 0x37, 0x23, 0x28, 0xda,
  0x89, 0xf2, 0x7f, 0x8e, 0x0b, 0x81, 0x7f, 0x7f, 0xa2, 0x8c, 0x32, 0x02,
  0x3c, 0xc3, 0xed, 0x58, 0xe2, 0xe4, 0xff, 0xff, 0x04, 0x00, 0x00, 0x00,
  0x20, 0x00, 0x00, 0x00, 0x21, 0xff, 0xff, 0xff, 0xe3, 0x06, 0x00, 0x00,
  0xa8, 0xfc, 0xff, 0xff, 0x4e, 0x08, 0x00, 0x00, 0x82, 0xfa, 0xff, 0xff,
  0x45, 0x0c, 0x00, 0x00, 0x38, 0x03, 0x00, 0x00, 0xa9, 0xfe, 0xff, 0xff,
  0x0e, 0xe5, 0xff, 0xff, 0x04, 0x00, 0x00, 0x00, 0x40, 0x00, 0x00, 0x00,
  0x04, 0x24, 0xc2, 0xb4, 0x81, 0x42, 0x73, 0x5b, 0xbb, 0x2e, 0x13, 0x51,
  0x1d, 0x45, 0x81, 0x56, 0xa8, 0x7f, 0xbc, 0xab, 0x6c, 0x15, 0x52, 0xe1,
  0x16, 0xb9, 0xd8, 0x8f, 0x70, 0x7a, 0x7f, 0xcf, 0xdb, 0x37, 0xa4, 0x45,
  0x53, 0xe0, 0xe8, 0x7f, 0x91, 0xac, 0x81, 0x5c, 0x8d, 0x87, 0xc3, 0x1a,
  0x8f, 0xf7, 0x39, 0x5d, 0xb0, 0x81, 0xab, 0xff, 0xb9, 0x0e, 0x57, 0xe2,
  0x7f, 0xcf, 0x62, 0x35, 0x5a, 0xe5, 0xff, 0xff, 0x04, 0x00, 0x00, 0x00,
  0x20, 0x00, 0x00, 0x00, 0xc5, 0xff, 0xff, 0xff, 0xb2, 0xfb, 0xff, 0xff,
  0x23, 0xff, 0xff, 0xff, 0xe0, 0xfe, 0xff, 0xff, 0x35, 0xfd, 0xff, 0xff,
  0x58, 0x09, 0x00, 0x00, 0x50, 0x05, 0x00, 0x00, 0x0a, 0xfd, 0xff, 0xff,
  0x86, 0xe5, 0xff, 0xff, 0x04, 0x00, 0x00, 0x00, 0x80, 0x00, 0x00, 0x00,
  0x04, 0xdb, 0x6f, 0x81, 0x60, 0x9e, 0xac, 0xa5, 0x7f, 0xd7, 0xa2, 0xcf,
  0x0b, 0xbc, 0x05, 0x82, 0x89, 0xc7, 0xa8, 0x04, 0xe9, 0x61, 0x11, 0x81,
  0x69, 0x7f, 0x0d, 0xdd, 0x35, 0x21, 0xcf, 0x37, 0x89, 0x20, 0x7f, 0x50,
  0xd9, 0x60, 0xec, 0x22, 0xda, 0xfa, 0x7f, 0xb2, 0xd1, 0x55, 0xc1, 0x02,
  0xd8, 0x77, 0xef, 0x1b, 0x81, 0xc6, 0xf6, 0xf0, 0x51, 0xc9, 0x14, 0x81,
  0x65, 0xc9, 0x6d, 0xe3, 0x7f, 0xe7, 0x17, 0x60, 0x7e, 0x79, 0xd7, 0xb6,
  0xe5, 0xee, 0x10, 0x7f, 0xd0, 0x45, 0x16, 0xc0, 0x48, 0x44, 0xfe, 0x81,
  0x22, 0xa0, 0x6e, 0xfd, 0x73, 0xb7, 0x7f, 0xfa, 0xb6, 0xe0, 0xe2, 0x1f,
  0x2d, 0x41, 0xb1, 0x5a, 0xc2, 0xbb, 0x7f, 0xb8, 0x33, 0xc6, 0xe9, 0xa4,
  0xeb, 0x7f, 0x2d, 0x35, 0x66, 0xdd, 0x61, 0x96, 0x44, 0x98, 0x95, 0x7f,
  0x7f, 0x5f, 0x4b, 0xe3, 0x46, 0x98, 0xcb, 0x34, 0x12, 0xe6, 0xff, 0xff,
  0x04, 0x00, 0x00, 0x00, 0x40, 0x00, 0x00, 0x00, 0xc4, 0x03, 0x00, 0x00,
  0x6a, 0x01, 0x00, 0x00, 0x94, 0x01, 0x00, 0x00, 0x3e, 0xff, 0xff, 0xff,
  0x3c, 0xfe, 0xff, 0xff, 0x9a, 0x00, 0x00, 0x00, 0x43, 0x03, 0x00, 0x00,
  0x81, 0x01, 0x00, 0x00, 0xbf, 0xfa, 0xff, 0xff, 0x7a, 0x00, 0x00, 0x00,
  0xa2, 0xff, 0xff, 0xff, 0x3d, 0xff, 0xff, 0xff, 0xf9, 0x00, 0x00, 0x00,
  0x97, 0xfe, 0xff, 0xff, 0x9b, 0x00, 0x00, 0x00, 0xfb, 0xfe, 0xff, 0xff,
  0x5e, 0xe6, 0xff, 0xff, 0x04, 0x00, 0x00, 0x00, 0x90, 0x00, 0x00, 0x00,
  0x7d, 0x28, 0x37, 0x1b, 0x8e, 0x65, 0xaf, 0x7f, 0x1e, 0xc6, 0xef, 0x3a,
  0xbc, 0x46, 0x13, 0x81, 0x81, 0x01, 0x28, 0x03, 0xb1, 0x27, 0xe0, 0x25,
  0x50, 0x40, 0x5f, 0x81, 0xcd, 0x60, 0x3d, 0xbe, 0x9d, 0x7f, 0xd9, 0xb0,
  0x7f, 0xd5, 0x91, 0xcb, 0x68, 0xee, 0xde, 0x4a, 0xf4, 0xfa, 0x06, 0x8d,
  0x56, 0x2c, 0x62, 0xdc, 0x7c, 0x33, 0xe9, 0x11, 0xca, 0x60, 0x4b, 0x4d,
  0x15, 0x01, 0x04, 0x33, 0x3c, 0x04, 0xb8, 0x23, 0x14, 0x68, 0xe9, 0x31,
  0xe8, 0x01, 0x2f, 0xcd, 0xe0, 0xfc, 0x32, 0xe6, 0x7b, 0x50, 0xd6, 0xac,
  0x02, 0x15, 0x1e, 0xbf, 0x6b, 0x5a, 0x71, 0xe5, 0x04, 0x81, 0x7f, 0xd4,
  0xd5, 0xf3, 0xc4, 0x20, 0x7d, 0x7f, 0x0b, 0x02, 0x82, 0xef, 0x7f, 0xc7,
  0xf7, 0x24, 0xa3, 0xed, 0x42, 0xc7, 0x7f, 0x3f, 0x76, 0x7a, 0x7f, 0xce,
  0x81, 0xbe, 0x1f, 0x4a, 0x81, 0x03, 0x0c, 0x9d, 0xaf, 0x0f, 0xca, 0x7f,
  0xab, 0xa0, 0xd8, 0xc4, 0xfd, 0x81, 0x3c, 0xee, 0x89, 0x44, 0x6f, 0xc3,
  0xfa, 0xe6, 0xff, 0xff, 0x04, 0x00, 0x00, 0x00, 0x40, 0x00, 0x00, 0x00,
  0xd0, 0xfe, 0xff, 0xff, 0x15, 0xfc, 0xff, 0xff, 0xe1, 0xfe, 0xff, 0xff,
  0xea, 0xfd, 0xff, 0xff, 0xe6, 0xfe, 0xff, 0xff, 0x6f, 0xfe, 0xff, 0xff,
  0x96, 0x03, 0x00, 0x00, 0x46, 0xfe, 0xff, 0xff, 0xf8, 0xff, 0xff, 0xff,
  0x16, 0x01, 0x00, 0x00, 0xc1, 0xf6, 0xff, 0xff, 0xaa, 0xfe, 0xff, 0xff,
  0x2b, 0x08, 0x00, 0x00, 0xa5, 0xfd, 0xff, 0xff, 0x44, 0xfc, 0xff, 0xff,
  0x47, 0x0e, 0x00, 0x00, 0x46, 0xe7, 0xff, 0xff, 0x04, 0x00, 0x00, 0x00,
  0x80, 0x00, 0x00, 0x00, 0x27, 0xb6, 0x82, 0x8f, 0x22, 0x1c, 0xf1, 0xb1,
  0x48, 0xa7, 0x00, 0x0c, 0xce, 0x7e, 0x81, 0x20, 0x50, 0x20, 0x59, 0x34,
  0xab, 0x57, 0xdd, 0x71, 0xfe, 0x0f, 0x4a, 0x0b, 0x01, 0xcb, 0xfe, 0x81,
  0xeb, 0xf5, 0x23, 0x41, 0xf0, 0x00, 0xd9, 0x7f, 0x0d, 0xb4, 0x72, 0x9a,
  0x9a, 0xd1, 0x12, 0x70, 0x3d, 0x23, 0xdc, 0x61, 0x28, 0x5c, 0x59, 0x6e,
  0x2d, 0xd5, 0x7f, 0x53, 0x15, 0x5d, 0xc9, 0xb3, 0x47, 0x18, 0xd3, 0x17,
  0x3a, 0x7f, 0x53, 0xa9, 0xca, 0xe5, 0xdc, 0x3c, 0xdd, 0xb8, 0x38, 0x02,
  0x12, 0xbf, 0x56, 0x5b, 0x87, 0xfe, 0xcb, 0x8c, 0x2d, 0x3d, 0x3a, 0xe9,
  0x5a, 0xa2, 0x81, 0xd3, 0xb1, 0xa0, 0x62, 0x2f, 0x16, 0x7f, 0x6f, 0x96,
  0xbf, 0x1d, 0x87, 0xe7, 0x2d, 0x57, 0x25, 0xc6, 0x9d, 0x81, 0x92, 0x6b,
  0xcb, 0x3a, 0x10, 0xb3, 0x81, 0x53, 0x0e, 0xde, 0xd6, 0x02, 0xf3, 0x01,
  0xd2, 0xe7, 0xff, 0xff, 0x04, 0x00, 0x00, 0x00, 0x20, 0x00, 0x00, 0x00,
  0x93, 0x04, 0x00, 0x00, 0x53, 0xfe, 0xff, 0xff, 0x67, 0xfe, 0xff, 0xff,
  0x26, 0xf9, 0xff, 0xff, 0x76, 0xfd, 0xff, 0xff, 0x84, 0x02, 0x00, 0x00,
  0x8b, 0xfd, 0xff, 0xff, 0x81, 0x01, 0x00, 0x00, 0xfe, 0xe7, 0xff, 0xff,
  0x04, 0x00, 0x00, 0x00, 0x80, 0x00, 0x00, 0x00, 0x81, 0x03, 0x92, 0x99,
  0x1c, 0xc8, 0xd5, 0xab, 0x34, 0xa8, 0xfd, 0xba, 0x1d, 0x7f, 0x4a, 0x7e,
  0xf4, 0xd0, 0xd7, 0x66, 0x47, 0x45, 0x7f, 0x43, 0x01, 0x7a, 0xce, 0x3c,
  0x2d, 0x7f, 0xf8, 0x88, 0x04, 0xe8, 0x7c, 0x7f, 0x9f, 0x1d, 0xa1, 0xc7,
  0x7f, 0x1e, 0x50, 0x31, 0xb7, 0x2d, 0xf4, 0xd7, 0x6f, 0x7f, 0x1b, 0x2d,
  0x09, 0xba, 0x15, 0xd5, 0xea, 0x81, 0x0f, 0x8c, 0x0e, 0xee, 0x5d, 0x37,
  0xd4, 0x19, 0xec, 0x1e, 0x4e, 0x81, 0x6d, 0x0d, 0x2b, 0x7f, 0x38, 0x02,
  0xf6, 0xbe, 0xfa, 0x36, 0xdd, 0x2f, 0x7f, 0x0b, 0xb6, 0xeb, 0x07, 0x5e,
  0x77, 0x7f, 0x3f, 0x6d, 0x98, 0xec, 0x45, 0x5c, 0xeb, 0xd3, 0x81, 0xc4,
  0xdc, 0x56, 0x4e, 0xf7, 0xae, 0x7f, 0x1c, 0xf0, 0xc5, 0x43, 0x1d, 0x86,
  0xbf, 0xad, 0xd5, 0x2e, 0x66, 0x81, 0x51, 0x23, 0xe8, 0xa9, 0xd3, 0x9b,
  0x81, 0x2f, 0xed, 0xf1, 0x8a, 0xe8, 0xff, 0xff, 0x04, 0x00, 0x00, 0x00,
  0x40, 0x00, 0x00, 0x00, 0xf2, 0x03, 0x00, 0x00, 0x05, 0x01, 0x00, 0x00,
  0x60, 0xff, 0xff, 0xff, 0x23, 0x00, 0x00, 0x00, 0x34, 0x00, 0x00, 0x00,
  0x71, 0xff, 0xff, 0xff, 0x21, 0xff, 0xff, 0xff, 0x1e, 0x00, 0x00, 0x00,
  0xcd, 0xff, 0xff, 0xff, 0xcf, 0xff, 0xff, 0xff, 0x39, 0x00, 0x00, 0x00,
  0xb5, 0xfb, 0xff, 0xff, 0xfd, 0xff, 0xff, 0xff, 0xe5, 0x00, 0x00, 0x00,
  0x1d, 0x02, 0x00, 0x00, 0xc3, 0x05, 0x00, 0x00, 0xd6, 0xe8, 0xff, 0xff,
  0x04, 0x00, 0x00, 0x00, 0x90, 0x00, 0x00, 0x00, 0x28, 0x81, 0x03, 0x14,
  0x1f, 0xa1, 0xff, 0xe0, 0x42, 0xd4, 0x42, 0x43, 0x56, 0x5e, 0x14, 0x81,
  0xb7, 0x95, 0xfe, 0x4f, 0xa2, 0x06, 0x7f, 0xf1, 0x05, 0x66, 0x50, 0x59,
  0x42, 0x7f, 0xde, 0xaf, 0x81, 0xe1, 0xb4, 0x3c, 0xba, 0xf3, 0x61, 0x28,
  0x64, 0xf7, 0x04, 0x2c, 0x3d, 0x38, 0x04, 0x06, 0xcb, 0xda, 0xf8, 0x4e,
  0x06, 0xe1, 0x49, 0xdb, 0xe1, 0x6f, 0x12, 0x6d, 0x3d, 0x01, 0x25, 0x1f,
  0x32, 0xd3, 0x0e, 0x76, 0x81, 0x9b, 0x23, 0xce, 0x18, 0x22, 0x60, 0x59,
  0x66, 0x5f, 0x4a, 0xb4, 0xd9, 0x06, 0xf2, 0x33, 0xd8, 0xfc, 0xe5, 0x28,
  0x0a, 0xf7, 0x7f, 0xd4, 0x7f, 0x60, 0x26, 0x32, 0xad, 0x4d, 0x7f, 0x08,
  0x03, 0x81, 0xf9, 0x81, 0xcf, 0x7f, 0x44, 0x7f, 0x05, 0x35, 0x7f, 0x5b,
  0xf6, 0x43, 0x24, 0x67, 0x88, 0xbd, 0xd6, 0xb3, 0x6b, 0x02, 0x4d, 0x59,
  0x3a, 0xfa, 0xfd, 0x50, 0x38, 0xfa, 0x50, 0x7f, 0x10, 0x2c, 0xb9, 0xff,
  0x7f, 0xa9, 0x3e, 0x67, 0x68, 0xe5, 0x34, 0x0b, 0x72, 0xe9, 0xff, 0xff,
  0x04, 0x00, 0x00, 0x00, 0x40, 0x00, 0x00, 0x00, 0x98, 0x05, 0x00, 0x00,
  0x20, 0x06, 0x00, 0x00, 0xb2, 0xfb, 0xff, 0xff, 0x98, 0xf4, 0xff, 0xff,
  0x60, 0x06, 0x00, 0x00, 0xd6, 0x09, 0x00, 0x00, 0x1e, 0xfe, 0xff, 0xff,
  0x9a, 0x05, 0x00, 0x00, 0x95, 0xfb, 0xff, 0xff, 0x4f, 0xfb, 0xff, 0xff,
  0x7a, 0xf8, 0xff, 0xff, 0x3c, 0xfb, 0xff, 0xff, 0x41, 0xfc, 0xff, 0xff,
  0x8d, 0xf4, 0xff, 0xff, 0xac, 0xfb, 0xff, 0xff, 0xc7, 0x01, 0x00, 0x00,
  0xbe, 0xe9, 0xff, 0xff, 0x04, 0x00, 0x00, 0x00, 0xc0, 0x00, 0x00, 0x00,
  0xe4, 0xf8, 0x4f, 0xfb, 0x0b, 0xa8, 0x12, 0x0a, 0x25, 0x4a, 0x06, 0xaa,
  0xaa, 0x7f, 0x4e, 0x2b, 0xb6, 0x96, 0x28, 0xe1, 0xfc, 0x52, 0xec, 0x2a,
  0x8e, 0x38, 0xcc, 0x65, 0x81, 0x3f, 0x5b, 0x0d, 0xde, 0x81, 0xa4, 0x00,
  0x54, 0xd9, 0xa7, 0x3c, 0xd2, 0x29, 0xc0, 0xcc, 0x37, 0xb1, 0xfa, 0xe6,
  0x41, 0x81, 0xd5, 0xc9, 0x2f, 0xda, 0xe8, 0x2b, 0xae, 0x0d, 0x77, 0x6c,
  0xa7, 0x95, 0x72, 0x10, 0xba, 0x36, 0xa9, 0x52, 0xf1, 0x9b, 0xb0, 0xdd,
  0xaa, 0x12, 0xcf, 0x81, 0xb3, 0x67, 0xf3, 0x26, 0x5d, 0x37, 0xda, 0x81,
  0xd9, 0xab, 0x50, 0xcd, 0xfe, 0xcf, 0xc5, 0x29, 0x02, 0x1c, 0x30, 0x09,
  0x00, 0xc8, 0xe0, 0xd0, 0x66, 0x1d, 0xc6, 0x01, 0x64, 0xf8, 0xd8, 0x81,
  0xfe, 0xfa, 0x38, 0x1e, 0x29, 0xd4, 0x60, 0x45, 0x3e, 0xb4, 0x3d, 0xba,
  0x09, 0x04, 0x61, 0x12, 0xa1, 0xa5, 0x66, 0x7f, 0xba, 0x5a, 0xc1, 0xea,
  0xc1, 0x8c, 0x84, 0x3f, 0x6c, 0x0b, 0xb8, 0xbf, 0x2f, 0xcd, 0x7f, 0xf8,
  0x42, 0x1d, 0x02, 0x0d, 0xbd, 0x2d, 0x50, 0x34, 0xb4, 0xc7, 0x2e, 0xe6,
  0x7f, 0x18, 0xf2, 0x16, 0xb4, 0x73, 0xe5, 0x59, 0x7f, 0x09, 0xd1, 0xbb,
  0x48, 0xcf, 0xff, 0xf9, 0x0a, 0xd7, 0x5c, 0x77, 0xfa, 0x27, 0x60, 0xdb,
  0x14, 0x07, 0x77, 0x0e, 0x21, 0x0f, 0xac, 0x91, 0x81, 0x54, 0x4d, 0x3c,
  0x8a, 0xea, 0xff, 0xff, 0x04, 0x00, 0x00, 0x00, 0x30, 0x00, 0x00, 0x00,
  0x8d, 0xfd, 0xff, 0xff, 0xf6, 0x03, 0x00, 0x00, 0xb5, 0x08, 0x00, 0x00,
  0xb0, 0x01, 0x00, 0x00, 0x1f, 0x09, 0x00, 0x00, 0x66, 0x03, 0x00, 0x00,
  0x9a, 0x01, 0x00, 0x00, 0x66, 0xf8, 0xff, 0xff, 0x34, 0x04, 0x00, 0x00,
  0x8c, 0xf8, 0xff, 0xff, 0x47, 0xf7, 0xff, 0xff, 0xa4, 0xfd, 0xff, 0xff,
  0xc6, 0xea, 0xff, 0xff, 0x04, 0x00, 0x00, 0x00, 0x20, 0x01, 0x00, 0x00,
  0xb2, 0xb2, 0x18, 0x81, 0xf9, 0x99, 0xed, 0x12, 0x33, 0x06, 0xd1, 0xb0,
  0xa4, 0x2e, 0x7f, 0x3d, 0xf2, 0xff, 0xc5, 0xfb, 0xe4, 0xc9, 0xd0, 0xf6,
  0x53, 0x19, 0x3d, 0x8f, 0x1e, 0x56, 0x3b, 0xbb, 0x29, 0x44, 0x7f, 0x34,
  0xb6, 0x06, 0xdb, 0x77, 0xe6, 0x17, 0x27, 0x7f, 0x1b, 0x0b, 0x1a, 0xc0,
  0x6a, 0xeb, 0x28, 0x7f, 0xbe, 0x9d, 0xa1, 0xb8, 0x73, 0x34, 0x79, 0xfe,
  0x40, 0x19, 0xa8, 0x95, 0xbe, 0x91, 0x7f, 0x4e, 0xb2, 0x0c, 0x7a, 0x70,
  0xf4, 0x6f, 0x42, 0xda, 0xaa, 0x0a, 0xf7, 0xcd, 0x72, 0x81, 0xd0, 0xa5,
  0x7f, 0x83, 0x84, 0xc0, 0x8c, 0x28, 0xb9, 0x44, 0xc9, 0x54, 0xe1, 0x03,
  0x04, 0xc9, 0x3e, 0x4c, 0x06, 0x55, 0x0b, 0x81, 0x18, 0xe0, 0xc4, 0xf4,
  0x77, 0xad, 0x22, 0xe7, 0x7e, 0x7c, 0x47, 0xac, 0x81, 0x5b, 0xaf, 0x7e,
  0xac, 0xef, 0x9e, 0x2b, 0x7e, 0x19, 0xe0, 0x72, 0x27, 0x9e, 0x7f, 0xd7,
  0xdf, 0xda, 0xf6, 0x5a, 0x7f, 0x2e, 0x3e, 0x6a, 0x23, 0x4b, 0xf7, 0x5f,
  0xf0, 0xd9, 0xd8, 0xac, 0x98, 0x7d, 0x81, 0xb4, 0x1c, 0x1e, 0x6c, 0x1d,
  0x16, 0xe6, 0xb1, 0x81, 0x8c, 0x8d, 0x69, 0x74, 0xa8, 0x54, 0xca, 0x8f,
  0x7f, 0xc7, 0x1d, 0x5a, 0xaf, 0xe0, 0x57, 0x89, 0x74, 0x7d, 0x74, 0xc4,
  0x2d, 0xd4, 0x05, 0xf4, 0xa2, 0xc1, 0xde, 0xcf, 0x66, 0x7f, 0x56, 0x9c,
  0xb6, 0x36, 0x65, 0x33, 0x3a, 0x81, 0xeb, 0xd8, 0x9f, 0x9b, 0x44, 0x1b,
  0x08, 0x34, 0x63, 0xd0, 0x8f, 0x49, 0x7f, 0x37, 0xeb, 0x45, 0x42, 0xe0,
  0x1f, 0x81, 0xde, 0xe8, 0x1b, 0x4b, 0x08, 0x59, 0xcb, 0xf6, 0x67, 0xf6,
  0x52, 0xce, 0x41, 0x9e, 0x7f, 0x04, 0x9b, 0x26, 0xa4, 0x9f, 0x2b, 0x06,
  0x2b, 0xf8, 0x3b, 0xab, 0xba, 0xf9, 0xa7, 0xa3, 0x60, 0x57, 0x7f, 0x8a,
  0xcd, 0x81, 0x54, 0x35, 0xbb, 0x47, 0x78, 0x77, 0x81, 0x4a, 0xfe, 0x04,
  0x09, 0xc6, 0xb0, 0x2f, 0xd7, 0x10, 0x7f, 0xbd, 0xd6, 0x1f, 0x21, 0x71,
  0x7f, 0xc8, 0xeb, 0x5e, 0xa2, 0x67, 0x89, 0x8a, 0x17, 0x31, 0x18, 0x9c,
  0xf2, 0xeb, 0xff, 0xff, 0x04, 0x00, 0x00, 0x00, 0x60, 0x00, 0x00, 0x00,
  0xc1, 0x01, 0x00, 0x00, 0x7e, 0x01, 0x00, 0x00, 0x28, 0xfe, 0xff, 0xff,
  0x6d, 0x02, 0x00, 0x00, 0xe2, 0x01, 0x00, 0x00, 0x55, 0x02, 0x00, 0x00,
  0xd9, 0xff, 0xff, 0xff, 0xf3, 0x04, 0x00, 0x00, 0x9c, 0x02, 0x00, 0x00,
  0xce, 0x05, 0x00, 0x00, 0x85, 0xff, 0xff, 0xff, 0x1f, 0x02, 0x00, 0x00,
  0x4d, 0x00, 0x00, 0x00, 0xca, 0x03, 0x00, 0x00, 0x75, 0x05, 0x00, 0x00,
  0xb8, 0x02, 0x00, 0x00, 0xf8, 0x01, 0x00, 0x00, 0xe3, 0x01, 0x00, 0x00,
  0xf3, 0xfe, 0xff, 0xff, 0x70, 0xff, 0xff, 0xff, 0x1b, 0x02, 0x00, 0x00,
  0xd6, 0x00, 0x00, 0x00, 0x7d, 0xff, 0xff, 0xff, 0x1c, 0xff, 0xff, 0xff,
  0x5e, 0xec, 0xff, 0xff, 0x04, 0x00, 0x00, 0x00, 0xd8, 0x00, 0x00, 0x00,
  0x2c, 0xec, 0xba, 0x58, 0x81, 0x3d, 0xc7, 0x40, 0xf0, 0xe2, 0xda, 0x0a,
  0xe1, 0xca, 0x41, 0x35, 0x7f, 0x13, 0xc2, 0x71, 0x2e, 0x7f, 0xbd, 0xce,
  0xff, 0x1b, 0xd2, 0x2b, 0x38, 0xd8, 0x0d, 0x30, 0x7f, 0x81, 0x4c, 0xf4,
  0xec, 0x45, 0xc9, 0x23, 0x47, 0x60, 0x25, 0x18, 0x89, 0x0e, 0xfc, 0xab,
  0x81, 0x34, 0x81, 0xd6, 0xd1, 0xc1, 0xa9, 0x07, 0x6f, 0x0b, 0x2f, 0xfb,
  0x81, 0xe8, 0x7f, 0x7f, 0xf9, 0xb1, 0x60, 0x81, 0x30, 0x2c, 0x1c, 0x55,
  0x05, 0x81, 0xab, 0x5d, 0x49, 0x14, 0x3a, 0x7c, 0xbe, 0xe5, 0xb4, 0x47,
  0xeb, 0x20, 0x28, 0x3c, 0x7c, 0x17, 0x02, 0x04, 0xf3, 0x24, 0xd6, 0x81,
  0x40, 0x46, 0x28, 0xae, 0xc1, 0xa6, 0x83, 0xb1, 0x0c, 0xf9, 0x03, 0xde,
  0xef, 0x99, 0xb8, 0x5a, 0x34, 0xdc, 0xdd, 0x45, 0xfb, 0x22, 0x85, 0xa7,
  0x06, 0x05, 0x15, 0x3d, 0xbd, 0xac, 0xd1, 0x16, 0x8f, 0xfa, 0xaf, 0xfa,
  0xd3, 0x17, 0x1b, 0xe7, 0xec, 0x55, 0xf5, 0x11, 0x2e, 0x14, 0x15, 0x27,
  0x18, 0x23, 0x08, 0xb2, 0xc9, 0x59, 0xd3, 0x7f, 0x4c, 0x11, 0x57, 0x7f,
  0xf8, 0x7f, 0xc1, 0x0c, 0x48, 0x7f, 0x1b, 0x28, 0xe1, 0x22, 0xf0, 0xad,
  0x79, 0xc3, 0x06, 0x81, 0xcd, 0xfa, 0xbc, 0x05, 0x3f, 0x06, 0xaa, 0xf4,
  0xd8, 0x01, 0x22, 0x15, 0x75, 0xec, 0xf0, 0x2e, 0x9b, 0x16, 0x16, 0x27,
  0x1a, 0xdc, 0xf7, 0xcb, 0xbb, 0x81, 0x81, 0x01, 0xc7, 0x04, 0x81, 0x29,
  0xdf, 0x75, 0xf4, 0xf6, 0x7f, 0x50, 0x7f, 0x48, 0x7f, 0xc6, 0x7f, 0x0e,
  0x42, 0xed, 0xff, 0xff, 0x04, 0x00, 0x00, 0x00, 0x60, 0x00, 0x00, 0x00,
  0xae, 0xfa, 0xff, 0xff, 0xdf, 0x00, 0x00, 0x00, 0x0b, 0x06, 0x00, 0x00,
  0x4f, 0x02, 0x00, 0x00, 0xe9, 0x06, 0x00, 0x00, 0x9e, 0x08, 0x00, 0x00,
  0x5d, 0x05, 0x00, 0x00, 0x2d, 0xf8, 0xff, 0xff, 0xe1, 0xfc, 0xff, 0xff,
  0x2a, 0x05, 0x00, 0x00, 0x64, 0x04, 0x00, 0x00, 0x69, 0xfc, 0xff, 0xff,
  0x61, 0x06, 0x00, 0x00, 0x8d, 0xfc, 0xff, 0xff, 0xeb, 0xff, 0xff, 0xff,
  0x9a, 0xf8, 0xff, 0xff, 0xde, 0xf1, 0xff, 0xff, 0x5f, 0xf9, 0xff, 0xff,
  0x90, 0xfc, 0xff, 0xff, 0x48, 0xfb, 0xff, 0xff, 0x66, 0xff, 0xff, 0xff,
  0xe6, 0xf9, 0xff, 0xff, 0x4e, 0x03, 0x00, 0x00, 0x3d, 0x07, 0x00, 0x00,
  0xae, 0xed, 0xff, 0xff, 0x04, 0x00, 0x00, 0x00, 0x20, 0x01, 0x00, 0x00,
  0xa5, 0x42, 0xa6, 0x11, 0x68, 0x14, 0x3a, 0x48, 0x81, 0xbf, 0x08, 0x46,
  0x70, 0xb5, 0xb6, 0xfb, 0x1a, 0xe5, 0xd2, 0xb8, 0x14, 0xc0, 0x24, 0x48,
  0x03, 0x11, 0x81, 0xb8, 0xd0, 0x20, 0xbb, 0xe3, 0xcf, 0x8f, 0x18, 0xc3,
  0xa4, 0xee, 0x29, 0xfd, 0x59, 0x73, 0xb3, 0xd4, 0xbd, 0x90, 0x7b, 0xa8,
  0x22, 0xa1, 0xf4, 0x4f, 0x2a, 0x03, 0xc5, 0xcb, 0x81, 0x5d, 0xed, 0x4c,
  0xea, 0xad, 0xb6, 0x28, 0x0d, 0xac, 0xd5, 0x15, 0xdb, 0x03, 0x86, 0x0e,
  0xb5, 0xbe, 0x2a, 0xc6, 0xe9, 0x84, 0x05, 0xad, 0x26, 0xc2, 0x24, 0xa2,
  0x7f, 0x25, 0x2a, 0x1c, 0x6d, 0x2e, 0x9e, 0x9a, 0xe1, 0xba, 0x0a, 0x09,
  0xda, 0x19, 0x49, 0x00, 0x49, 0x7f, 0x3a, 0xcb, 0x9c, 0x26, 0xe6, 0xd3,
  0x65, 0xc0, 0x10, 0x4b, 0x57, 0x3e, 0xee, 0x2c, 0xc1, 0x51, 0xa4, 0x34,
  0x30, 0x78, 0x06, 0xd0, 0x4f, 0x6c, 0xf2, 0x19, 0xf0, 0xf3, 0x5d, 0x34,
  0x81, 0x20, 0xf3, 0x30, 0xc9, 0xf6, 0x03, 0xfd, 0xac, 0x3b, 0xc5, 0x17,
  0xcb, 0x1b, 0xb5, 0x0b, 0xf8, 0xc7, 0xaa, 0x9e, 0x1c, 0x6a, 0x1b, 0x8f,
  0xb7, 0x23, 0xb2, 0xef, 0xb4, 0xa2, 0xd5, 0x81, 0x52, 0x02, 0xbb, 0xd6,
  0x74, 0x0e, 0xf7, 0x28, 0x50, 0xde, 0xbc, 0x11, 0x4e, 0xac, 0xaf, 0xa6,
  0x5c, 0x0b, 0xbb, 0x7f, 0x22, 0xa7, 0xf1, 0x34, 0x1f, 0xe0, 0x4c, 0xd1,
  0xff, 0xdd, 0xcb, 0x22, 0x10, 0xdf, 0x00, 0xad, 0x4d, 0xa2, 0xdc, 0x7a,
  0x38, 0xb7, 0x55, 0xf5, 0x08, 0xd1, 0x32, 0x51, 0x7f, 0x61, 0x3a, 0xf1,
  0x3f, 0xbf, 0x9c, 0x5d, 0x99, 0x2c, 0xb3, 0x91, 0x9c, 0x44, 0x96, 0xdc,
  0xc4, 0x59, 0xe8, 0x25, 0xa7, 0x2f, 0x07, 0xd1, 0x5f, 0xba, 0xba, 0x7f,
  0xe5, 0xd5, 0x99, 0xa1, 0x7d, 0x0f, 0x13, 0xc5, 0xd1, 0x2d, 0x5f, 0x44,
  0x95, 0x3a, 0xa0, 0xce, 0xb6, 0x4c, 0xba, 0x66, 0x1b, 0x28, 0x12, 0x81,
  0xd1, 0x64, 0xe8, 0x8e, 0xea, 0x25, 0x53, 0x45, 0xf4, 0x81, 0x1c, 0x3d,
  0xea, 0xf0, 0x12, 0xb1, 0x48, 0xbd, 0xfe, 0xe4, 0x70, 0x13, 0x40, 0x9f,
  0xda, 0xee, 0xff, 0xff, 0x04, 0x00, 0x00, 0x00, 0x30, 0x00, 0x00, 0x00,
  0xa8, 0xff, 0xff, 0xff, 0x94, 0x0d, 0x00, 0x00, 0xae, 0x0b, 0x00, 0x00,
  0x46, 0x04, 0x00, 0x00, 0x5d, 0xf2, 0xff, 0xff, 0xe2, 0xfa, 0xff, 0xff,
  0x44, 0x15, 0x00, 0x00, 0x3b, 0xfd, 0xff, 0xff, 0x8a, 0xf9, 0xff, 0xff,
  0x1e, 0x0b, 0x00, 0x00, 0xee, 0x06, 0x00, 0x00, 0xc3, 0xff, 0xff, 0xff,
  0x16, 0xef, 0xff, 0xff, 0x04, 0x00, 0x00, 0x00, 0x20, 0x01, 0x00, 0x00,
  0xa9, 0x6b, 0x66, 0xc5, 0x18, 0x1b, 0x5d, 0x4b, 0x4e, 0xd0, 0xab, 0x81,
  0x77, 0xa5, 0x7f, 0x63, 0x2d, 0xb8, 0x67, 0xb0, 0xa4, 0xf3, 0x15, 0x04,
  0x93, 0xca, 0x65, 0x5d, 0x08, 0x91, 0x7f, 0x14, 0x86, 0x1f, 0xb1, 0x6f,
  0x08, 0xbc, 0xd9, 0x06, 0x81, 0x86, 0x0e, 0xb9, 0xc5, 0xbb, 0x2c, 0x42,
  0xc8, 0xf2, 0x76, 0xe8, 0x07, 0xf7, 0xcf, 0xf8, 0x7f, 0x58, 0x9c, 0x17,
  0x61, 0x81, 0x3b, 0x5f, 0x67, 0xaf, 0x16, 0xbf, 0x40, 0x9b, 0x10, 0xd2,
  0xf2, 0xbe, 0x63, 0x5c, 0x27, 0x35, 0x3e, 0xde, 0xdb, 0x7f, 0x66, 0x20,
  0x4b, 0xa0, 0xa4, 0x7f, 0x93, 0xc3, 0xcc, 0x03, 0x04, 0xd3, 0xdc, 0xa4,
  0x87, 0x39, 0x73, 0xb9, 0x0e, 0xec, 0xe8, 0x1b, 0x7f, 0xe5, 0x49, 0x46,
  0xe9, 0x49, 0x0d, 0x5a, 0x81, 0xbd, 0x8e, 0xd2, 0x20, 0xb5, 0x86, 0x49,
  0x1e, 0x04, 0xfd, 0x43, 0x1f, 0xed, 0x7f, 0x30, 0xf0, 0x48, 0xcd, 0xd0,
  0x08, 0x0a, 0x4c, 0xc0, 0x7f, 0x06, 0x93, 0x76, 0xd3, 0x8e, 0x24, 0x1b,
  0x8a, 0x7f, 0xbf, 0x57, 0x86, 0xcf, 0x3b, 0xfd, 0x70, 0x1c, 0x93, 0xac,
  0x0d, 0xfc, 0x81, 0xff, 0xae, 0x8e, 0x8c, 0x3b, 0x4a, 0xdf, 0x18, 0xda,
  0x94, 0xf1, 0xbe, 0x36, 0x23, 0x5f, 0x37, 0xba, 0x0c, 0x18, 0x7f, 0x5f,
  0x34, 0xcd, 0xa7, 0xe4, 0x21, 0x2b, 0x81, 0xd6, 0xf3, 0x25, 0x32, 0x06,
  0x27, 0xbe, 0x81, 0xae, 0xe4, 0xed, 0x12, 0xaa, 0x97, 0x32, 0xf5, 0xc8,
  0x9e, 0xde, 0x2f, 0x85, 0xd1, 0x24, 0xba, 0xb7, 0xdc, 0x9f, 0x20, 0x7f,
  0x70, 0x8c, 0x82, 0x7f, 0xed, 0xa1, 0xde, 0x76, 0xe5, 0x4c, 0xa6, 0xd4,
  0xf9, 0x7f, 0xd6, 0xb1, 0xac, 0xd3, 0x49, 0xb5, 0x0d, 0xe6, 0x16, 0x32,
  0xab, 0x0d, 0x72, 0x81, 0x54, 0xea, 0x62, 0x46, 0x10, 0xf3, 0xe6, 0xd1,
  0x4c, 0x0e, 0xf8, 0xd7, 0xb0, 0x26, 0x3b, 0x81, 0x24, 0xf5, 0x2b, 0xc3,
  0x17, 0x42, 0xf1, 0xd3, 0x3a, 0x57, 0xb4, 0x05, 0x3c, 0x81, 0x51, 0x4f,
  0x23, 0xf9, 0x68, 0xf7, 0xfb, 0x0d, 0x19, 0x78, 0x81, 0xe3, 0xf6, 0xef,
  0x42, 0xf0, 0xff, 0xff, 0x04, 0x00, 0x00, 0x00, 0x60, 0x00, 0x00, 0x00,
  0x65, 0x01, 0x00, 0x00, 0xff, 0xfb, 0xff, 0xff, 0x96, 0x03, 0x00, 0x00,
  0x9e, 0xff, 0xff, 0xff, 0x01, 0x02, 0x00, 0x00, 0x18, 0x02, 0x00, 0x00,
  0x7c, 0x00, 0x00, 0x00, 0x50, 0xfe, 0xff, 0xff, 0x41, 0x00, 0x00, 0x00,
  0x6a, 0x00, 0x00, 0x00, 0xfc, 0xff, 0xff, 0xff, 0x7a, 0xfe, 0xff, 0xff,
  0xeb, 0xfc, 0xff, 0xff, 0x5a, 0xfa, 0xff, 0xff, 0x35, 0xfe, 0xff, 0xff,
  0x69, 0x00, 0x00, 0x00, 0xcd, 0xf9, 0xff, 0xff, 0x5b, 0x00, 0x00, 0x00,
  0x3a, 0x00, 0x00, 0x00, 0xbe, 0xfe, 0xff, 0xff, 0xb5, 0xff, 0xff, 0xff,
  0x10, 0x01, 0x00, 0x00, 0xb3, 0xff, 0xff, 0xff, 0x8c, 0xff, 0xff, 0xff,
  0xae, 0xf0, 0xff, 0xff, 0x04, 0x00, 0x00, 0x00, 0xd8, 0x00, 0x00, 0x00,
  0xfa, 0x51, 0x7f, 0x42, 0x05, 0x06, 0x7f, 0x22, 0x20, 0x81, 0x0a, 0x1b,
  0x59, 0xf6, 0xfe, 0xc9, 0x04, 0x81, 0x99, 0x12, 0x7d, 0x35, 0x16, 0xb6,
  0x0a, 0x7f, 0x6e, 0x63, 0xa1, 0x62, 0x3d, 0x3a, 0x7f, 0x16, 0xb2, 0x32,
  0x7f, 0xe7, 0x10, 0xbf, 0xfa, 0x87, 0x24, 0x60, 0x60, 0xad, 0x35, 0x81,
  0x0a, 0x5f, 0x4b, 0x7e, 0xae, 0x6f, 0x75, 0xa5, 0x42, 0x14, 0xe4, 0xd7,
  0x40, 0xf5, 0x47, 0x27, 0x15, 0xa2, 0x81, 0x66, 0x7f, 0xe5, 0xf3, 0xb0,
  0xcc, 0x46, 0x4e, 0x38, 0xf4, 0x7f, 0x6a, 0x23, 0x64, 0x03, 0xc0, 0x26,
  0x4d, 0x02, 0x81, 0xc4, 0x29, 0x89, 0xe8, 0x3e, 0x64, 0x65, 0x6d, 0xe1,
  0xee, 0x39, 0x15, 0x3b, 0x81, 0x45, 0x32, 0x22, 0x67, 0xb8, 0x10, 0x2b,
  0x4b, 0xeb, 0x9e, 0x82, 0xd2, 0x2a, 0x93, 0x7f, 0x79, 0x3a, 0x7f, 0xc4,
  0xf3, 0x24, 0x23, 0x61, 0xbc, 0x2e, 0x62, 0x81, 0xdc, 0x33, 0xbb, 0x26,
  0x34, 0xdc, 0xbf, 0xe0, 0x1a, 0xc1, 0x2e, 0x6f, 0x62, 0xd6, 0x28, 0x89,
  0x81, 0x15, 0x2b, 0x4e, 0xb0, 0x5d, 0xf2, 0xe3, 0x7d, 0xac, 0xaa, 0x7f,
  0x28, 0xe5, 0x0f, 0xef, 0xed, 0x04, 0x1b, 0x0b, 0x02, 0x2f, 0x3f, 0x1a,
  0xba, 0xfb, 0x1a, 0x7f, 0xc9, 0x65, 0x3a, 0xc4, 0x66, 0xc0, 0x81, 0x32,
  0x2e, 0x81, 0x00, 0x70, 0x81, 0x1a, 0x1f, 0x44, 0x13, 0x08, 0x69, 0x30,
  0x03, 0x1c, 0x18, 0x25, 0xea, 0x40, 0x22, 0x98, 0x12, 0xf9, 0x9d, 0x25,
  0x30, 0xcf, 0xb7, 0x7f, 0xb8, 0x2e, 0x69, 0x5a, 0xc9, 0x81, 0x6d, 0x11,
  0x92, 0xf1, 0xff, 0xff, 0x04, 0x00, 0x00, 0x00, 0x60, 0x00, 0x00, 0x00,
  0xfd, 0x06, 0x00, 0x00, 0x84, 0xfa, 0xff, 0xff, 0xd9, 0xed, 0xff, 0xff,
  0x5f, 0xf4, 0xff, 0xff, 0x25, 0x0e, 0x00, 0x00, 0x48, 0xec, 0xff, 0xff,
  0x06, 0xf1, 0xff, 0xff, 0xff, 0x00, 0x00, 0x00, 0x7a, 0xef, 0xff, 0xff,
  0x18, 0x01, 0x00, 0x00, 0x04, 0x07, 0x00, 0x00, 0x61, 0xfa, 0xff, 0xff,
  0xcc, 0xf7, 0xff, 0xff, 0x78, 0x02, 0x00, 0x00, 0xfe, 0x01, 0x00, 0x00,
  0x9c, 0x04, 0x00, 0x00, 0xcf, 0xff, 0xff, 0xff, 0x8f, 0x0a, 0x00, 0x00,
  0xb7, 0xff, 0xff, 0xff, 0xe1, 0xf4, 0xff, 0xff, 0x3a, 0xf1, 0xff, 0xff,
  0x50, 0xfd, 0xff, 0xff, 0x23, 0xf2, 0xff, 0xff, 0x9c, 0x07, 0x00, 0x00,
  0xfe, 0xf1, 0xff, 0xff, 0x04, 0x00, 0x00, 0x00, 0x80, 0x01, 0x00, 0x00,
  0xc8, 0x21, 0x1e, 0xb9, 0x31, 0xf3, 0xd2, 0xe4, 0xbf, 0x37, 0x2f, 0xbb,
  0x62, 0x55, 0xf6, 0xb0, 0x9c, 0x12, 0xd0, 0x81, 0xe9, 0x4d, 0xd1, 0xcf,
  0x05, 0x48, 0x9b, 0xed, 0x41, 0xb5, 0xd4, 0xcb, 0x49, 0xbf, 0xde, 0x13,
  0xd2, 0xf9, 0x01, 0xc0, 0x16, 0xbd, 0x02, 0x96, 0xea, 0xe3, 0x81, 0xba,
  0xd0, 0x10, 0x53, 0xf8, 0x79, 0x6b, 0xed, 0x63, 0x0e, 0x09, 0xff, 0x55,
  0xeb, 0x29, 0x0a, 0x18, 0xb6, 0xe2, 0x04, 0xd8, 0x81, 0xf1, 0xfe, 0xb1,
  0x1f, 0x7f, 0x4a, 0xfe, 0xc2, 0x96, 0xa0, 0x6b, 0xfa, 0xd7, 0x8c, 0xad,
  0x3a, 0x3b, 0x42, 0xb6, 0x4a, 0xef, 0x8e, 0xe7, 0x0f, 0x16, 0xbd, 0xcd,
  0x4f, 0x30, 0x27, 0xfc, 0x64, 0xea, 0xd0, 0x5f, 0xd2, 0x44, 0xe3, 0xec,
  0xb5, 0xde, 0xb7, 0xfe, 0xc5, 0x28, 0xfa, 0x0f, 0xda, 0x20, 0xf1, 0x81,
  0xe0, 0xfa, 0xbb, 0xc7, 0x51, 0xe8, 0x34, 0xb0, 0x1a, 0x2f, 0xd5, 0x7f,
  0x4e, 0xc8, 0xc8, 0xb0, 0xf7, 0xc7, 0x1a, 0xf5, 0x31, 0xc4, 0x00, 0xcf,
  0x51, 0x7f, 0xbb, 0xc1, 0xa3, 0xb2, 0x90, 0x33, 0xb5, 0x31, 0xc4, 0xcb,
  0x5b, 0x55, 0x05, 0x03, 0x00, 0x5e, 0xa7, 0x64, 0xfd, 0x47, 0xe1, 0xe7,
  0x36, 0x4e, 0x9a, 0xa3, 0x19, 0x3d, 0x07, 0x43, 0x36, 0x03, 0xce, 0x08,
  0x7f, 0x04, 0x0e, 0x02, 0xdd, 0xc8, 0xf0, 0xf0, 0xd9, 0x13, 0xe8, 0xe6,
  0x6f, 0xb7, 0x56, 0x30, 0x69, 0xd5, 0x0d, 0x51, 0xdf, 0x0a, 0x16, 0x5f,
  0xc7, 0x81, 0xd9, 0x0c, 0x36, 0x36, 0x45, 0xb2, 0x9f, 0x15, 0xb2, 0x67,
  0xde, 0xb6, 0xfd, 0xce, 0xf2, 0xe9, 0xfb, 0xfc, 0x21, 0x4c, 0x61, 0xbd,
  0x7f, 0xe4, 0xd7, 0xaf, 0x16, 0xe0, 0xfa, 0x47, 0xce, 0x5f, 0xad, 0x23,
  0xd9, 0x11, 0x65, 0x3f, 0xac, 0x0d, 0xca, 0xdf, 0x27, 0x48, 0x2f, 0x10,
  0x45, 0x16, 0x65, 0x34, 0xc2, 0x7f, 0x28, 0x43, 0x39, 0xf3, 0xe7, 0xd1,
  0x81, 0xeb, 0xe6, 0xd9, 0xd4, 0x0d, 0x22, 0x13, 0xdd, 0x52, 0xa9, 0xe0,
  0xe7, 0x3c, 0xef, 0x10, 0x3d, 0x5b, 0xf0, 0x18, 0xc5, 0xe8, 0xdd, 0x28,
  0x2f, 0x3b, 0xe2, 0x42, 0x7f, 0xd0, 0x16, 0x5d, 0x0f, 0x0b, 0xa9, 0x06,
  0xa8, 0x5f, 0xfd, 0xcf, 0x3e, 0x35, 0x1d, 0x83, 0xab, 0xc6, 0x3c, 0x89,
  0xfc, 0x99, 0x06, 0x28, 0xcf, 0xa8, 0xbd, 0x1d, 0x16, 0xd9, 0x45, 0x27,
  0xfb, 0x34, 0x3a, 0x03, 0x22, 0xf1, 0xea, 0x09, 0x12, 0x3f, 0x00, 0x7f,
  0x4f, 0x4d, 0xd4, 0x41, 0x6b, 0x72, 0x7a, 0xed, 0x4a, 0x2e, 0x51, 0x81,
  0x00, 0x27, 0x16, 0xea, 0x60, 0x16, 0xcd, 0x82, 0xfc, 0xf9, 0xa7, 0x47,
  0xbd, 0xc4, 0x65, 0x24, 0x06, 0x3d, 0xa7, 0xf0, 0xc2, 0xf2, 0xa0, 0x0a,
  0xf1, 0x7f, 0x2a, 0xf7, 0xec, 0x45, 0xb8, 0xde, 0xd7, 0xfd, 0x1e, 0x34,
  0x8a, 0xf3, 0xff, 0xff, 0x04, 0x00, 0x00, 0x00, 0x40, 0x00, 0x00, 0x00,
  0x99, 0x06, 0x00, 0x00, 0x73, 0x0f, 0x00, 0x00, 0x71, 0xfb, 0xff, 0xff,
  0xf4, 0x00, 0x00, 0x00, 0xa6, 0x03, 0x00, 0x00, 0x74, 0xfd, 0xff, 0xff,
  0x45, 0xfb, 0xff, 0xff, 0x25, 0xff, 0xff, 0xff, 0x85, 0xf9, 0xff, 0xff,
  0xfb, 0x05, 0x00, 0x00, 0xda, 0xf2, 0xff, 0xff, 0xf3, 0x01, 0x00, 0x00,
  0xdb, 0x00, 0x00, 0x00, 0xab, 0x01, 0x00, 0x00, 0xc7, 0xfb, 0xff, 0xff,
  0x65, 0x01, 0x00, 0x00, 0xd6, 0xf3, 0xff, 0xff, 0x04, 0x00, 0x00, 0x00,
  0x00, 0x02, 0x00, 0x00, 0xa6, 0xae, 0x0d, 0xef, 0xfc, 0xff, 0xc8, 0x51,
  0xb5, 0x7f, 0x0c, 0xa4, 0xb8, 0x05, 0x14, 0x34, 0x16, 0xff, 0xaa, 0x81,
  0xd2, 0xcb, 0x41, 0x51, 0x4e, 0xfd, 0x78, 0xee, 0x00, 0x1d, 0x7a, 0xd1,
  0xfe, 0xef, 0xd0, 0x1f, 0x6c, 0xde, 0xca, 0x16, 0x19, 0xf5, 0x09, 0x02,
  0x7f, 0xee, 0x4d, 0x22, 0xc0, 0x10, 0xc1, 0xeb, 0x2f, 0xcc, 0x81, 0x9b,
  0x33, 0xbb, 0x1a, 0xc9, 0x06, 0x5d, 0xb3, 0xa4, 0x51, 0xf2, 0x9f, 0x97,
  0x0c, 0xdf, 0xb7, 0x81, 0x17, 0x92, 0xbd, 0x96, 0xaa, 0xb3, 0xd3, 0xb1,
  0x16, 0x09, 0x1a, 0x30, 0x70, 0xb0, 0xc0, 0x3b, 0x06, 0x2e, 0x81, 0x5a,
  0x6e, 0x11, 0x31, 0x18, 0x3f, 0x4d, 0x91, 0x16, 0xef, 0x3c, 0xa2, 0xbf,
  0x3c, 0xdf, 0x0f, 0x6e, 0x7f, 0xec, 0x5e, 0xc2, 0xf5, 0x81, 0xd1, 0xba,
  0xd5, 0x1a, 0x03, 0xd3, 0xc9, 0xfc, 0x7c, 0xc0, 0x20, 0xda, 0x58, 0x4b,
  0xdb, 0xc0, 0x08, 0x9f, 0x81, 0x2b, 0x77, 0x1d, 0x56, 0xb2, 0x8b, 0x79,
  0xad, 0x07, 0xe9, 0xd9, 0x41, 0xd5, 0x04, 0x39, 0x23, 0xbb, 0x50, 0xcc,
  0xef, 0x3e, 0x29, 0x7f, 0xda, 0x31, 0x10, 0x5f, 0x5d, 0x36, 0x9d, 0xa9,
  0x98, 0xb3, 0xa4, 0x11, 0x6a, 0xe2, 0xa0, 0x7f, 0xa6, 0xf6, 0xf8, 0x30,
  0xb5, 0x7f, 0x8e, 0x02, 0x6c, 0x45, 0x7d, 0xd7, 0xe4, 0xdc, 0x2b, 0xad,
  0x37, 0xe0, 0xad, 0xa0, 0x0c, 0x3d, 0x5f, 0x38, 0x93, 0x35, 0x26, 0xcd,
  0x81, 0x9c, 0xf5, 0x1f, 0x3f, 0xfe, 0x0e, 0xfe, 0xdc, 0x81, 0x30, 0xa5,
  0x3b, 0xce, 0x13, 0xd5, 0xb6, 0x4f, 0x03, 0x15, 0x3d, 0xef, 0xfd, 0x25,
  0x11, 0xf1, 0x19, 0x81, 0xaf, 0x64, 0x9a, 0xe5, 0x10, 0xf5, 0x02, 0xef,
  0xdd, 0x01, 0xdc, 0xc1, 0x93, 0x06, 0xe9, 0x93, 0xb2, 0x7f, 0x53, 0xad,
  0xff, 0x30, 0xd4, 0xdb, 0x55, 0xe6, 0x94, 0x4d, 0xc8, 0x73, 0x9e, 0x5a,
  0x67, 0xa9, 0xba, 0x17, 0xd2, 0x11, 0xb1, 0x66, 0x65, 0xf7, 0x8e, 0x7f,
  0xda, 0x0c, 0xe5, 0xda, 0x27, 0xa2, 0x81, 0xa1, 0x25, 0x3f, 0x3a, 0xde,
  0x12, 0x2f, 0xfd, 0xef, 0x0d, 0x48, 0x42, 0xec, 0xf1, 0xe4, 0x0a, 0xf2,
  0x24, 0x11, 0xde, 0x81, 0x18, 0xe4, 0x0a, 0xef, 0x34, 0xe5, 0xe9, 0xeb,
  0x33, 0x4e, 0x38, 0x21, 0xb4, 0x9e, 0x81, 0x35, 0xd3, 0x12, 0x2d, 0x41,
  0x12, 0xfc, 0xfb, 0x2e, 0xad, 0xf2, 0x3d, 0xc9, 0x7f, 0xdc, 0x30, 0xe6,
  0xb0, 0x47, 0x18, 0x0b, 0xb1, 0x37, 0x10, 0x1e, 0xd0, 0x6a, 0x6f, 0xf6,
  0x29, 0x4e, 0xbe, 0x3d, 0x37, 0x7f, 0xa9, 0xcd, 0x1e, 0xf3, 0xe0, 0x7f,
  0xd0, 0xfb, 0x47, 0x54, 0xb5, 0xe9, 0x72, 0x57, 0x98, 0x11, 0x23, 0x6c,
  0xc3, 0xea, 0xef, 0x64, 0xea, 0x81, 0x30, 0x86, 0xfe, 0x2d, 0x17, 0x01,
  0x4f, 0xb9, 0x0c, 0x09, 0xad, 0x98, 0x41, 0x7f, 0xc7, 0x8d, 0xd2, 0xf3,
  0x16, 0xf8, 0xfe, 0xb5, 0x97, 0x01, 0xf2, 0x7f, 0x11, 0x1c, 0xcf, 0xee,
  0x68, 0xd3, 0x36, 0x81, 0x02, 0x22, 0x27, 0x2e, 0xa1, 0x21, 0xae, 0xb8,
  0x30, 0x7f, 0x9c, 0x4c, 0x58, 0x5d, 0xfb, 0x3b, 0xfd, 0xbf, 0x40, 0xf0,
  0x65, 0xd8, 0xc0, 0xae, 0xc7, 0x2f, 0x8d, 0xcd, 0x51, 0x1b, 0x99, 0x43,
  0x7f, 0x1f, 0xee, 0xf8, 0x00, 0xe2, 0x56, 0x37, 0x4c, 0xcd, 0x62, 0x46,
  0x1e, 0xdd, 0x20, 0x4b, 0xe7, 0x3b, 0x0f, 0xdf, 0x00, 0x28, 0x7f, 0x2b,
  0x82, 0x8a, 0x36, 0xf8, 0x24, 0xd8, 0xdd, 0x85, 0x7f, 0xe1, 0xce, 0xe5,
  0x6b, 0xec, 0x56, 0x29, 0xee, 0x0a, 0xf0, 0xeb, 0xb9, 0x4c, 0x42, 0x8f,
  0x2c, 0x0e, 0x46, 0xd3, 0xcb, 0xf1, 0x3c, 0x81, 0x16, 0xea, 0xc9, 0xac,
  0xf0, 0x1a, 0x08, 0xa2, 0x14, 0xab, 0x19, 0xa6, 0x0c, 0xc2, 0x56, 0x81,
  0xe2, 0xf5, 0xff, 0xff, 0x04, 0x00, 0x00, 0x00, 0x80, 0x00, 0x00, 0x00,
  0x01, 0xfe, 0xff, 0xff, 0xae, 0x00, 0x00, 0x00, 0xfb, 0xfd, 0xff, 0xff,
  0xbd, 0xfa, 0xff, 0xff, 0xd2, 0x02, 0x00, 0x00, 0x61, 0xfc, 0xff, 0xff,
  0x29, 0xfd, 0xff, 0xff, 0xef, 0xff, 0xff, 0xff, 0x30, 0x08, 0x00, 0x00,
  0x9f, 0xf5, 0xff, 0xff, 0xaf, 0xfb, 0xff, 0xff, 0x6e, 0x06, 0x00, 0x00,
  0x7a, 0x00, 0x00, 0x00, 0x9e, 0x02, 0x00, 0x00, 0xf3, 0xfe, 0xff, 0xff,
  0xc0, 0x05, 0x00, 0x00, 0x1e, 0x00, 0x00, 0x00, 0x0c, 0xfe, 0xff, 0xff,
  0xfc, 0xff, 0xff, 0xff, 0x11, 0x01, 0x00, 0x00, 0x3c, 0x00, 0x00, 0x00,
  0x30, 0x02, 0x00, 0x00, 0xb1, 0x02, 0x00, 0x00, 0x9b, 0x02, 0x00, 0x00,
  0x04, 0x02, 0x00, 0x00, 0xb3, 0x00, 0x00, 0x00, 0xc5, 0x00, 0x00, 0x00,
  0xd6, 0xfc, 0xff, 0xff, 0xd8, 0xfa, 0xff, 0xff, 0xf9, 0x02, 0x00, 0x00,
  0x16, 0x0a, 0x00, 0x00, 0xdb, 0x02, 0x00, 0x00, 0x6e, 0xf6, 0xff, 0xff,
  0x04, 0x00, 0x00, 0x00, 0x20, 0x01, 0x00, 0x00, 0x7f, 0x90, 0x1a, 0x7f,
  0x39, 0x24, 0x81, 0x28, 0xc8, 0xaa, 0x59, 0x39, 0x19, 0x8d, 0x81, 0x29,
  0x2b, 0x9d, 0x4c, 0x81, 0x74, 0x81, 0x50, 0x79, 0xab, 0xb7, 0x66, 0xd8,
  0x43, 0x81, 0x8b, 0x98, 0x4c, 0x2f, 0x10, 0x2b, 0x51, 0x30, 0xbe, 0xf6,
  0xfe, 0xcd, 0x2c, 0x60, 0x1e, 0xb7, 0xd2, 0x15, 0x05, 0xc8, 0x0b, 0x2a,
  0x39, 0xc2, 0x66, 0x35, 0xe0, 0x81, 0x43, 0xea, 0x3a, 0xaa, 0xe3, 0x26,
  0xe6, 0x16, 0x1d, 0x29, 0xff, 0x6c, 0xd3, 0x3f, 0xb0, 0xce, 0x3b, 0x7f,
  0x0b, 0x81, 0xa5, 0x13, 0x81, 0x94, 0x7f, 0x89, 0x49, 0xa3, 0x57, 0x4c,
  0xe2, 0xe7, 0x7f, 0x88, 0x57, 0xc2, 0xee, 0x57, 0x1e, 0xf4, 0xda, 0x5b,
  0x2b, 0x24, 0x9f, 0x1a, 0xe0, 0xf7, 0x47, 0x41, 0x1f, 0xf6, 0x95, 0x09,
  0x1e, 0x46, 0x4f, 0x02, 0x7f, 0xe4, 0x7f, 0x63, 0xaa, 0xb0, 0x4f, 0x81,
  0x31, 0xb0, 0xe9, 0x81, 0x4d, 0xf1, 0xf5, 0xfd, 0x49, 0x06, 0xb2, 0x18,
  0x2b, 0xeb, 0x3f, 0x5d, 0xfd, 0x0d, 0xf5, 0x01, 0xfe, 0x7f, 0xeb, 0xd2,
  0x35, 0xf5, 0xf3, 0x44, 0xf2, 0xba, 0x33, 0xe6, 0x23, 0x20, 0xfc, 0x0f,
  0x0c, 0x0c, 0xdf, 0x47, 0xf0, 0x12, 0xbd, 0x16, 0xc4, 0x06, 0x51, 0x52,
  0xee, 0x0c, 0xbe, 0x81, 0xb9, 0x46, 0x4e, 0xa7, 0x47, 0xce, 0x5a, 0x4e,
  0xeb, 0x01, 0x78, 0xc5, 0x39, 0x22, 0xea, 0x65, 0x56, 0x81, 0xe3, 0x56,
  0x3c, 0x39, 0x8f, 0xa1, 0xf5, 0x87, 0x7f, 0x43, 0x54, 0x74, 0xdb, 0x39,
  0x21, 0xb4, 0x5a, 0x1d, 0x71, 0xeb, 0x1d, 0x7f, 0xe2, 0x9f, 0x5d, 0x06,
  0x40, 0x22, 0x1e, 0xa1, 0x77, 0xc2, 0xde, 0x49, 0x7f, 0x3e, 0xb6, 0x81,
  0xf5, 0xd0, 0x46, 0x59, 0x7f, 0x34, 0x02, 0x8a, 0xc7, 0x90, 0xdf, 0x4e,
  0x44, 0x00, 0x1e, 0x57, 0x02, 0xca, 0x2f, 0x53, 0x32, 0x0c, 0x02, 0xcd,
  0x54, 0xea, 0x81, 0x4e, 0x4d, 0x7f, 0x90, 0xaa, 0x81, 0x81, 0x54, 0x62,
  0x5e, 0x4c, 0x18, 0xb5, 0xc7, 0xa2, 0xe0, 0x28, 0x5b, 0xf1, 0x61, 0x5d,
  0x81, 0xfd, 0x70, 0x4e, 0x7f, 0x6d, 0x81, 0x52, 0x9a, 0xf7, 0xff, 0xff,
  0x04, 0x00, 0x00, 0x00, 0x80, 0x00, 0x00, 0x00, 0xbd, 0xe5, 0xff, 0xff,
  0x0a, 0x07, 0x00, 0x00, 0x66, 0x01, 0x00, 0x00, 0xb4, 0xf3, 0xff, 0xff,
  0xe9, 0xf1, 0xff, 0xff, 0x30, 0xf7, 0xff, 0xff, 0xca, 0x05, 0x00, 0x00,
  0x60, 0xfd, 0xff, 0xff, 0x85, 0x07, 0x00, 0x00, 0xce, 0x02, 0x00, 0x00,
  0xf7, 0xfb, 0xff, 0xff, 0xe1, 0xed, 0xff, 0xff, 0x08, 0xfe, 0xff, 0xff,
  0xcc, 0xfd, 0xff, 0xff, 0x46, 0x0a, 0x00, 0x00, 0x3e, 0x03, 0x00, 0x00,
  0x58, 0x04, 0x00, 0x00, 0x51, 0x08, 0x00, 0x00, 0xd5, 0xf5, 0xff, 0xff,
  0x7d, 0x03, 0x00, 0x00, 0x0f, 0xed, 0xff, 0xff, 0x0b, 0x06, 0x00, 0x00,
  0x8f, 0xf1, 0xff, 0xff, 0x64, 0xef, 0xff, 0xff, 0x87, 0x0a, 0x00, 0x00,
  0xeb, 0x08, 0x00, 0x00, 0xc7, 0xfb, 0xff, 0xff, 0x70, 0x04, 0x00, 0x00,
  0xc2, 0xf4, 0xff, 0xff, 0xb0, 0xff, 0xff, 0xff, 0x8c, 0x09, 0x00, 0x00,
  0x0c, 0xfa, 0xff, 0xff, 0x26, 0xf8, 0xff, 0xff, 0x04, 0x00, 0x00, 0x00,
  0x00, 0x02, 0x00, 0x00, 0x28, 0x99, 0x32, 0xc2, 0xae, 0xc1, 0xca, 0xe9,
  0x22, 0x7f, 0xc6, 0x84, 0xc8, 0xc4, 0xe7, 0xac, 0xe1, 0x4f, 0x2f, 0x08,
  0x2a, 0xe2, 0xf8, 0x1a, 0x47, 0xaa, 0x4f, 0x34, 0x5a, 0x1f, 0xe7, 0x87,
  0x14, 0xa3, 0xd8, 0x19, 0x03, 0x35, 0xd4, 0x2a, 0xe2, 0xc1, 0xf8, 0xb7,
  0xe3, 0x09, 0x5d, 0xcd, 0x32, 0x0c, 0x25, 0x4c, 0xe2, 0xb6, 0xed, 0xfa,
  0x26, 0x1c, 0x7f, 0xff, 0x07, 0x41, 0x1b, 0xef, 0x2c, 0x7f, 0x2e, 0x0b,
  0x08, 0xd8, 0xcf, 0xed, 0x4b, 0x03, 0xec, 0xeb, 0x05, 0xc8, 0x3a, 0xde,
  0x02, 0xae, 0x4a, 0x52, 0xd4, 0xca, 0xd6, 0xec, 0x48, 0xd1, 0x58, 0x33,
  0x32, 0x47, 0x28, 0x49, 0x7a, 0x29, 0x19, 0x49, 0xb5, 0x7d, 0xf6, 0x0a,
  0x3b, 0x70, 0xa4, 0xf9, 0xb8, 0x29, 0xb4, 0x24, 0xc4, 0x35, 0xa8, 0x08,
  0x86, 0x6e, 0x4e, 0x7f, 0x63, 0xad, 0x9f, 0x75, 0xed, 0xba, 0x0f, 0xae,
  0xef, 0x0a, 0x1c, 0xfe, 0x91, 0xc6, 0x67, 0xa5, 0x4f, 0xf7, 0x21, 0x35,
  0x3a, 0x0c, 0x06, 0xda, 0xdb, 0xda, 0x0c, 0x23, 0x4f, 0x2f, 0xa1, 0x03,
  0x29, 0x99, 0x5a, 0x7f, 0x2c, 0xca, 0xd1, 0xb9, 0xe7, 0x13, 0xe6, 0x11,
  0x3b, 0x0c, 0x52, 0xcd, 0xbc, 0xd8, 0xb8, 0x2f, 0x3b, 0xb8, 0xbd, 0xd9,
  0x11, 0xd8, 0x04, 0xe4, 0xcb, 0x2f, 0x0a, 0xe8, 0x4d, 0x2b, 0xd7, 0xe8,
  0xf6, 0x14, 0x54, 0x7f, 0x5b, 0x36, 0x9d, 0x4a, 0xed, 0x7f, 0x26, 0x9a,
  0x4e, 0x34, 0x84, 0xd6, 0xd1, 0xb0, 0x65, 0xdd, 0x07, 0xf8, 0xa7, 0x17,
  0x19, 0x5e, 0x45, 0xd2, 0xf6, 0x23, 0xdc, 0x0a, 0xb2, 0xcf, 0xca, 0xc2,
  0x2c, 0x9d, 0x1e, 0xb6, 0x0d, 0x27, 0xfe, 0x46, 0x18, 0x1a, 0xfa, 0x1a,
  0x43, 0x44, 0xc9, 0xf7, 0x64, 0x36, 0xff, 0x95, 0xbb, 0x81, 0x5b, 0xd7,
  0x39, 0x47, 0x22, 0xab, 0x32, 0xc6, 0xe9, 0x34, 0xdf, 0xd8, 0x46, 0xe4,
  0xf7, 0xae, 0xf0, 0xb9, 0x6c, 0x1d, 0xf4, 0xae, 0xc7, 0xe9, 0x47, 0x15,
  0xd4, 0x92, 0x50, 0x6b, 0x18, 0x04, 0xcc, 0x01, 0xc0, 0x81, 0x57, 0x32,
  0xfe, 0x61, 0x9e, 0xb9, 0xfd, 0x94, 0xd2, 0x00, 0x23, 0x69, 0x5e, 0xd6,
  0x3e, 0x8b, 0xdc, 0x9f, 0x5b, 0x03, 0xa3, 0x11, 0x65, 0xe5, 0xc2, 0xe9,
  0x7f, 0xe9, 0x22, 0x97, 0x44, 0xfb, 0x6f, 0xba, 0xa3, 0xd1, 0xa7, 0xc2,
  0xd3, 0x90, 0x0b, 0xdd, 0x12, 0x11, 0x67, 0x0b, 0x9f, 0x5f, 0x0b, 0xc5,
  0xd1, 0x36, 0xde, 0x19, 0x24, 0x40, 0xd7, 0xc8, 0xf3, 0x48, 0xfb, 0x50,
  0x24, 0x7f, 0xa2, 0x5b, 0x12, 0xaa, 0xf5, 0x9b, 0x06, 0xea, 0x99, 0x66,
  0x0a, 0x65, 0x81, 0x0e, 0x5d, 0xc2, 0xba, 0xdc, 0x04, 0xea, 0x40, 0xe1,
  0xe9, 0xff, 0xee, 0x19, 0xad, 0xe9, 0x2e, 0xf5, 0x92, 0x99, 0xc0, 0xcd,
  0xb5, 0x2f, 0xcc, 0x31, 0xd6, 0x32, 0xf4, 0x48, 0xb6, 0x42, 0x0a, 0xac,
  0xd4, 0xfc, 0xe2, 0x0a, 0x1c, 0xf1, 0x2d, 0xf8, 0xea, 0xe5, 0xf4, 0x21,
  0x5a, 0x7f, 0xdc, 0xb3, 0xd2, 0xb0, 0xe8, 0x44, 0xd6, 0x03, 0x07, 0xf8,
  0x88, 0xbe, 0x01, 0xae, 0x1c, 0xa7, 0xe4, 0x03, 0xb8, 0xc9, 0x69, 0x29,
  0xeb, 0x2f, 0xa4, 0x38, 0x1c, 0x11, 0x25, 0xdd, 0x26, 0xcb, 0x25, 0x32,
  0x81, 0x09, 0xe2, 0xf5, 0x99, 0xee, 0x03, 0x0d, 0x2c, 0x2d, 0x1d, 0xe8,
  0xc0, 0x1f, 0x81, 0x41, 0xff, 0x20, 0x0e, 0x05, 0xdc, 0x02, 0x3f, 0x0a,
  0xf0, 0x0e, 0x08, 0x42, 0xe9, 0xa7, 0xf6, 0x36, 0x2b, 0xc1, 0x37, 0xd8,
  0xf1, 0x63, 0xf2, 0xf6, 0xdc, 0xdc, 0xe5, 0x57, 0xd1, 0x04, 0x81, 0x4c,
  0x9e, 0xd8, 0x61, 0xd6, 0x16, 0x71, 0x3f, 0xe7, 0xed, 0x00, 0xba, 0x24,
  0x1b, 0x11, 0xd5, 0x53, 0xf3, 0x10, 0x1e, 0xf3, 0x21, 0xca, 0xd5, 0xbf,
  0x32, 0xfa, 0xff, 0xff, 0x04, 0x00, 0x00, 0x00, 0x40, 0x00, 0x00, 0x00,
  0x5c, 0x06, 0x00, 0x00, 0x6a, 0xfc, 0xff, 0xff, 0x1a, 0xfa, 0xff, 0xff,
  0xd6, 0xf7, 0xff, 0xff, 0x7a, 0xfa, 0xff, 0xff, 0x98, 0xfc, 0xff, 0xff,
  0xdb, 0xf7, 0xff, 0xff, 0x0e, 0xff, 0xff, 0xff, 0x31, 0x05, 0x00, 0x00,
  0x3a, 0x02, 0x00, 0x00, 0xb4, 0xfa, 0xff, 0xff, 0xfd, 0x0c, 0x00, 0x00,
  0xff, 0xff, 0xff, 0xff, 0xc7, 0x0d, 0x00, 0x00, 0xbc, 0x02, 0x00, 0x00,
  0x3b, 0x06, 0x00, 0x00, 0x7e, 0xfa, 0xff, 0xff, 0x04, 0x00, 0x00, 0x00,
  0x00, 0x02, 0x00, 0x00, 0x77, 0x8d, 0x99, 0x31, 0xa7, 0x81, 0x76, 0x37,
  0x8d, 0x55, 0x78, 0x26, 0xde, 0x57, 0xf4, 0xff, 0xce, 0x05, 0xa9, 0xc8,
  0x01, 0x9c, 0xfa, 0xca, 0xdc, 0x63, 0x33, 0x35, 0x4d, 0x7f, 0x2c, 0x59,
  0x02, 0x58, 0x20, 0xf0, 0x1a, 0xb2, 0xc4, 0x0c, 0x9c, 0x45, 0x81, 0x7b,
  0x0c, 0x14, 0x2c, 0x7d, 0x20, 0xbf, 0x5c, 0x8d, 0x7a, 0xb8, 0xbf, 0x81,
  0x48, 0xce, 0xb1, 0xfd, 0x72, 0x45, 0x57, 0xf1, 0xca, 0x8d, 0x76, 0x0b,
  0x6a, 0xdd, 0x83, 0xbb, 0x6d, 0xef, 0x02, 0xf7, 0x7f, 0x6f, 0x04, 0x54,
  0x54, 0x7b, 0x2a, 0x0f, 0x3b, 0xac, 0x1a, 0xbd, 0x3a, 0x28, 0x81, 0x6a,
  0xe9, 0xbe, 0x46, 0x70, 0xf1, 0xbc, 0xfa, 0x91, 0x9b, 0xfb, 0xa3, 0x3e,
  0x86, 0x63, 0xd1, 0xbd, 0xf6, 0x7f, 0xcb, 0xbb, 0xc1, 0x7f, 0x2d, 0xc0,
  0x53, 0xc6, 0xed, 0x54, 0xd3, 0x4e, 0xc5, 0xd5, 0xd5, 0x2c, 0x56, 0x48,
  0x9a, 0x81, 0xa4, 0x20, 0xe5, 0xd7, 0xf8, 0x50, 0x99, 0xea, 0x56, 0xa1,
  0xa4, 0x50, 0x04, 0xd6, 0xe8, 0x29, 0x28, 0xfd, 0xbc, 0x6b, 0xc3, 0x4a,
  0xd7, 0x1e, 0x81, 0xcb, 0xb0, 0x1c, 0xdd, 0xf2, 0x45, 0x57, 0xef, 0x51,
  0xfe, 0x81, 0x78, 0xb2, 0x1e, 0xc2, 0xe1, 0x32, 0x55, 0xda, 0x33, 0x5c,
  0xb5, 0xe0, 0xe3, 0xa3, 0xfe, 0x4a, 0x81, 0x8e, 0x20, 0xa5, 0x59, 0xbd,
  0x57, 0x39, 0xb5, 0x39, 0xd9, 0x15, 0x2b, 0x14, 0x87, 0xb1, 0x96, 0x6b,
  0xab, 0xe2, 0x99, 0x24, 0x10, 0xbe, 0x7f, 0xf9, 0x04, 0xb7, 0x4f, 0xed,
  0xf4, 0x05, 0x81, 0x07, 0xef, 0xa2, 0xf7, 0xcb, 0x8f, 0x21, 0x60, 0x64,
  0x40, 0x3c, 0x22, 0x3d, 0x4e, 0x38, 0x40, 0x12, 0xa3, 0xc1, 0x63, 0x39,
  0x7f, 0xba, 0x36, 0x09, 0xd4, 0x23, 0x28, 0x71, 0x0e, 0xe5, 0xdd, 0x26,
  0xb1, 0xf9, 0x4c, 0x1f, 0xc8, 0x8b, 0xe8, 0x7f, 0x6d, 0x7f, 0x4d, 0xea,
  0x66, 0xbb, 0x3f, 0xde, 0x63, 0x2f, 0xa8, 0xca, 0x53, 0x06, 0x74, 0x02,
  0x43, 0x56, 0x37, 0xb7, 0x54, 0xce, 0x81, 0xa1, 0x1e, 0x8f, 0x3c, 0x9b,
  0xc3, 0xe8, 0x21, 0xd8, 0x65, 0x54, 0x83, 0x02, 0x81, 0xee, 0x12, 0x5f,
  0x05, 0x70, 0x40, 0x12, 0xa3, 0xfe, 0x4a, 0x1f, 0x6f, 0x45, 0x76, 0x23,
  0xe4, 0x06, 0x6d, 0x43, 0xce, 0xd9, 0x16, 0x45, 0x1a, 0x81, 0x30, 0xdd,
  0x10, 0x08, 0x04, 0xa9, 0x81, 0xc3, 0x0f, 0xbf, 0x8f, 0xe5, 0x32, 0x0a,
  0x8c, 0xc7, 0x0c, 0xaf, 0xeb, 0xe0, 0xec, 0xbb, 0x81, 0x2c, 0xad, 0x25,
  0xbb, 0xf1, 0xa8, 0x3b, 0xb1, 0x3b, 0x00, 0xc1, 0x54, 0xe2, 0xab, 0xf4,
  0xff, 0x9b, 0xbb, 0x5f, 0xe5, 0xf1, 0x7f, 0xb5, 0xc5, 0x0b, 0x10, 0x49,
  0xf5, 0x0d, 0xe1, 0x6f, 0xd1, 0x98, 0xe9, 0x9b, 0x4d, 0xba, 0xfb, 0x60,
  0xe6, 0x3f, 0x5a, 0x7f, 0x8a, 0xb7, 0xdd, 0x19, 0x57, 0x0c, 0xf0, 0xce,
  0xa9, 0xb5, 0x41, 0x19, 0x6d, 0xc2, 0xe5, 0x7f, 0x7a, 0x5e, 0x79, 0x2d,
  0x2e, 0x05, 0xff, 0x58, 0x43, 0x7f, 0xbc, 0xda, 0xde, 0xc4, 0x17, 0xf0,
  0x4a, 0x23, 0x38, 0x70, 0x7f, 0xba, 0x79, 0xb6, 0x21, 0xae, 0x41, 0x70,
  0x50, 0xb0, 0x02, 0xf3, 0xaa, 0x9c, 0x1a, 0x98, 0xf5, 0x7f, 0xec, 0x6e,
  0x9d, 0x20, 0x98, 0xb4, 0xf1, 0xea, 0xc2, 0xdf, 0x17, 0x62, 0x7f, 0x9d,
  0x3d, 0xbf, 0xa3, 0x26, 0x63, 0x56, 0x88, 0xe7, 0x01, 0x2b, 0x55, 0x27,
  0xb2, 0x32, 0xa3, 0x8f, 0x1e, 0x2f, 0xd0, 0x28, 0xe4, 0x7f, 0xc8, 0xac,
  0x10, 0x69, 0xdb, 0xf4, 0x0b, 0x71, 0x78, 0xa1, 0xc0, 0xe2, 0x81, 0x39,
  0x0f, 0x84, 0xcd, 0xea, 0xcf, 0x32, 0x74, 0x25, 0x20, 0x20, 0x5e, 0x35,
  0x17, 0x20, 0x54, 0x7f, 0x95, 0x52, 0xf1, 0x25, 0xe1, 0xbd, 0x28, 0xc2,
  0x8a, 0xfc, 0xff, 0xff, 0x04, 0x00, 0x00, 0x00, 0x80, 0x00, 0x00, 0x00,
  0xf6, 0x07, 0x00, 0x00, 0xf8, 0x07, 0x00, 0x00, 0xfe, 0x02, 0x00, 0x00,
  0xa2, 0x07, 0x00, 0x00, 0xda, 0x09, 0x00, 0x00, 0xd7, 0x06, 0x00, 0x00,
  0x2b, 0x0c, 0x00, 0x00, 0x3a, 0x04, 0x00, 0x00, 0x01, 0x0a, 0x00, 0x00,
  0xdc, 0x03, 0x00, 0x00, 0xe1, 0x04, 0x00, 0x00, 0x7b, 0x08, 0x00, 0x00,
  0xa9, 0x05, 0x00, 0x00, 0xa5, 0x04, 0x00, 0x00, 0x54, 0xfd, 0xff, 0xff,
  0xc8, 0x06, 0x00, 0x00, 0x72, 0x08, 0x00, 0x00, 0x73, 0x05, 0x00, 0x00,
  0x20, 0x09, 0x00, 0x00, 0x89, 0x08, 0x00, 0x00, 0xf2, 0x04, 0x00, 0x00,
  0x82, 0x05, 0x00, 0x00, 0xb6, 0x08, 0x00, 0x00, 0x51, 0x06, 0x00, 0x00,
  0xb7, 0x07, 0x00, 0x00, 0x30, 0x06, 0x00, 0x00, 0xb4, 0x03, 0x00, 0x00,
  0x89, 0x07, 0x00, 0x00, 0xbd, 0x06, 0x00, 0x00, 0x7a, 0x09, 0x00, 0x00,
  0xbe, 0x06, 0x00, 0x00, 0xec, 0x06, 0x00, 0x00, 0x16, 0xfd, 0xff, 0xff,
  0x04, 0x00, 0x00, 0x00, 0x40, 0x01, 0x00, 0x00, 0xd4, 0xa8, 0x8d, 0x49,
  0x31, 0xcc, 0xec, 0xdf, 0xed, 0xf5, 0xb6, 0x23, 0xb8, 0x7a, 0xf4, 0xee,
  0x2a, 0x6d, 0xc1, 0xd5, 0x0a, 0xab, 0x7f, 0xea, 0x98, 0xf5, 0xe6, 0xb3,
  0x2f, 0xcc, 0x5d, 0x0f, 0x5c, 0x18, 0x4e, 0x8a, 0xca, 0x06, 0xe0, 0xb4,
  0xe1, 0xd1, 0x34, 0x8e, 0x03, 0xc2, 0x72, 0x7d, 0x22, 0xea, 0xea, 0x50,
  0xf1, 0xd8, 0x1d, 0x28, 0x41, 0x01, 0x55, 0x0a, 0x81, 0xc3, 0x16, 0x76,
  0xf0, 0x4b, 0x4c, 0xea, 0xba, 0x13, 0x11, 0x25, 0xd5, 0x05, 0xc8, 0x12,
  0x7f, 0x52, 0x15, 0xd5, 0xa4, 0x95, 0x16, 0xa7, 0x18, 0x5e, 0x1d, 0x44,
  0xb6, 0xb4, 0xc4, 0xcb, 0x2f, 0xea, 0x43, 0xa8, 0xfc, 0xeb, 0xf7, 0xdc,
  0x90, 0xbf, 0x48, 0xd6, 0x66, 0x52, 0x00, 0xaf, 0x02, 0xd7, 0xf8, 0xda,
  0xa7, 0xb9, 0xe2, 0x0c, 0x27, 0x6f, 0x98, 0xf0, 0x16, 0x13, 0xf8, 0x7f,
  0xe6, 0x15, 0xbb, 0x51, 0x12, 0x4d, 0x0d, 0x78, 0x16, 0x37, 0x8f, 0xa3,
  0xa0, 0xd7, 0x27, 0xbd, 0x86, 0x97, 0xf7, 0xb6, 0x7f, 0xd9, 0x9c, 0x1f,
  0xad, 0xbd, 0x90, 0x68, 0xe2, 0x56, 0x55, 0x92, 0x49, 0xc0, 0xfb, 0xde,
  0x5a, 0x7f, 0xb8, 0xa8, 0xc3, 0xdd, 0x53, 0xc3, 0x32, 0xc4, 0xb8, 0xf4,
  0xd2, 0x9e, 0xb6, 0xe4, 0xba, 0xa4, 0x38, 0xcf, 0x03, 0xeb, 0x7d, 0xc4,
  0xca, 0x16, 0xf1, 0xf4, 0xb0, 0x23, 0xa6, 0xd4, 0x02, 0x43, 0xb8, 0x01,
  0x2a, 0xc5, 0xd4, 0xb3, 0x37, 0xc6, 0x10, 0x3f, 0xb8, 0x39, 0xf7, 0x63,
  0x9c, 0x20, 0x8f, 0xe3, 0x24, 0xbc, 0x48, 0x79, 0x75, 0xc1, 0x1c, 0x18,
  0x81, 0x90, 0xfe, 0x93, 0xfc, 0x81, 0xd7, 0xe4, 0xa2, 0x0b, 0xd2, 0x38,
  0x8c, 0x20, 0x1e, 0x02, 0x6a, 0xb0, 0xdd, 0x37, 0x4a, 0xeb, 0x43, 0x52,
  0xf5, 0xf2, 0x4f, 0x05, 0xa2, 0x5b, 0xd2, 0xb1, 0x1e, 0xa7, 0x61, 0x5a,
  0x10, 0x5b, 0xfb, 0x55, 0x47, 0xa3, 0x39, 0xbb, 0xc3, 0xf8, 0x14, 0x7f,
  0xb5, 0xb9, 0xc5, 0xd0, 0xb6, 0xca, 0x8d, 0x0f, 0xe0, 0x1b, 0x82, 0x94,
  0x45, 0xd2, 0xb9, 0x2e, 0xf2, 0x24, 0x23, 0xfc, 0xa7, 0x28, 0x60, 0x19,
  0xf1, 0x2a, 0x0e, 0x7f, 0xa7, 0x0d, 0xf0, 0xb2, 0x05, 0xc9, 0xdd, 0xb3,
  0x5e, 0x38, 0xb3, 0xa3, 0xd9, 0x88, 0x83, 0xc7, 0x0d, 0x15, 0x8e, 0x28,
  0x73, 0x35, 0x2c, 0x0c, 0x62, 0xfe, 0xff, 0xff, 0x04, 0x00, 0x00, 0x00,
  0x28, 0x00, 0x00, 0x00, 0x12, 0x00, 0x00, 0x00, 0x07, 0xfe, 0xff, 0xff,
  0x2b, 0xfe, 0xff, 0xff, 0x1a, 0xfe, 0xff, 0xff, 0x74, 0xfd, 0xff, 0xff,
  0x40, 0x02, 0x00, 0x00, 0x06, 0x01, 0x00, 0x00, 0x55, 0x01, 0x00, 0x00,
  0x28, 0x03, 0x00, 0x00, 0x09, 0x02, 0x00, 0x00, 0x96, 0xfe, 0xff, 0xff,
  0x04, 0x00, 0x00, 0x00, 0x08, 0x00, 0x00, 0x00, 0x01, 0x00, 0x00, 0x00,
  0x02, 0x00, 0x00, 0x00, 0x9c, 0x99, 0xff, 0xff, 0xa0, 0x99, 0xff, 0xff,
  0x0f, 0x00, 0x00, 0x00, 0x4d, 0x4c, 0x49, 0x52, 0x20, 0x43, 0x6f, 0x6e,
  0x76, 0x65, 0x72, 0x74, 0x65, 0x64, 0x2e, 0x00, 0x01, 0x00, 0x00, 0x00,
  0x14, 0x00, 0x00, 0x00, 0x00, 0x00, 0x0e, 0x00, 0x18, 0x00, 0x14, 0x00,
  0x10, 0x00, 0x0c, 0x00, 0x08, 0x00, 0x04, 0x00, 0x0e, 0x00, 0x00, 0x00,
  0x14, 0x00, 0x00, 0x00, 0x1c, 0x00, 0x00, 0x00, 0x10, 0x0b, 0x00, 0x00,
  0x14, 0x0b, 0x00, 0x00, 0x18, 0x0b, 0x00, 0x00, 0x04, 0x00, 0x00, 0x00,
  0x6d, 0x61, 0x69, 0x6e, 0x00, 0x00, 0x00, 0x00, 0x34, 0x00, 0x00, 0x00,
  0xb0, 0x0a, 0x00, 0x00, 0x7c, 0x0a, 0x00, 0x00, 0x3c, 0x0a, 0x00, 0x00,
  0xdc, 0x09, 0x00, 0x00, 0xb8, 0x09, 0x00, 0x00, 0x84, 0x09, 0x00, 0x00,
  0x48, 0x09, 0x00, 0x00, 0x04, 0x09, 0x00, 0x00, 0xc8, 0x08, 0x00, 0x00,
  0xa4, 0x08, 0x00, 0x00, 0x70, 0x08, 0x00, 0x00, 0x2c, 0x08, 0x00, 0x00,
  0x08, 0x08, 0x00, 0x00, 0xd4, 0x07, 0x00, 0x00, 0x98, 0x07, 0x00, 0x00,
  0x64, 0x07, 0x00, 0x00, 0x28, 0x07, 0x00, 0x00, 0x04, 0x07, 0x00, 0x00,
  0xd0, 0x06, 0x00, 0x00, 0x8c, 0x06, 0x00, 0x00, 0x68, 0x06, 0x00, 0x00,
  0x34, 0x06, 0x00, 0x00, 0xf8, 0x05, 0x00, 0x00, 0xbc, 0x05, 0x00, 0x00,
  0x98, 0x05, 0x00, 0x00, 0x64, 0x05, 0x00, 0x00, 0x20, 0x05, 0x00, 0x00,
  0xfc, 0x04, 0x00, 0x00, 0xc8, 0x04, 0x00, 0x00, 0x8c, 0x04, 0x00, 0x00,
  0x58, 0x04, 0x00, 0x00, 0x1c, 0x04, 0x00, 0x00, 0xf8, 0x03, 0x00, 0x00,
  0xc4, 0x03, 0x00, 0x00, 0x80, 0x03, 0x00, 0x00, 0x5c, 0x03, 0x00, 0x00,
  0x28, 0x03, 0x00, 0x00, 0xec, 0x02, 0x00, 0x00, 0xb0, 0x02, 0x00, 0x00,
  0x8c, 0x02, 0x00, 0x00, 0x58, 0x02, 0x00, 0x00, 0x14, 0x02, 0x00, 0x00,
  0xf0, 0x01, 0x00, 0x00, 0xbc, 0x01, 0x00, 0x00, 0x80, 0x01, 0x00, 0x00,
  0x4c, 0x01, 0x00, 0x00, 0x18, 0x01, 0x00, 0x00, 0xe0, 0x00, 0x00, 0x00,
  0xbc, 0x00, 0x00, 0x00, 0x88, 0x00, 0x00, 0x00, 0x50, 0x00, 0x00, 0x00,
  0x14, 0x00, 0x00, 0x00, 0x00, 0x00, 0x0e, 0x00, 0x1a, 0x00, 0x14, 0x00,
  0x10, 0x00, 0x0c, 0x00, 0x0b, 0x00, 0x04, 0x00, 0x0e, 0x00, 0x00, 0x00,
  0x1c, 0x00, 0x00, 0x00, 0x00, 0x00, 0x00, 0x09, 0x1c, 0x00, 0x00, 0x00,
  0x20, 0x00, 0x00, 0x00, 0x07, 0x00, 0x00, 0x00, 0x00, 0x00, 0x06, 0x00,
  0x08, 0x00, 0x04, 0x00, 0x06, 0x00, 0x00, 0x00, 0x00, 0x00, 0x80, 0x3f,
  0x01, 0x00, 0x00, 0x00, 0x5d, 0x00, 0x00, 0x00, 0x01, 0x00, 0x00, 0x00,
  0x5c, 0x00, 0x00, 0x00, 0xe2, 0xf6, 0xff, 0xff, 0x14, 0x00, 0x00, 0x00,
  0x00, 0x00, 0x00, 0x08, 0x10, 0x00, 0x00, 0x00, 0x14, 0x00, 0x00, 0x00,
  0x06, 0x00, 0x00, 0x00, 0x28, 0x9b, 0xff, 0xff, 0x01, 0x00, 0x00, 0x00,
  0x5c, 0x00, 0x00, 0x00, 0x03, 0x00, 0x00, 0x00, 0x5b, 0x00, 0x00, 0x00,
  0x03, 0x00, 0x00, 0x00, 0x02, 0x00, 0x00, 0x00, 0x16, 0xf7, 0xff, 0xff,
  0x14, 0x00, 0x00, 0x00, 0x00, 0x00, 0x00, 0x15, 0x10, 0x00, 0x00, 0x00,
  0x14, 0x00, 0x00, 0x00, 0x02, 0x00, 0x00, 0x00, 0x5c, 0x9b, 0xff, 0xff,
  0x01, 0x00, 0x00, 0x00, 0x5b, 0x00, 0x00, 0x00, 0x02, 0x00, 0x00, 0x00,
  0x59, 0x00, 0x00, 0x00, 0x5a, 0x00, 0x00, 0x00, 0x06, 0xf7, 0xff, 0xff,
  0x0c, 0x00, 0x00, 0x00, 0x10, 0x00, 0x00, 0x00, 0x01, 0x00, 0x00, 0x00,
  0x01, 0x00, 0x00, 0x00, 0x5a, 0x00, 0x00, 0x00, 0x01, 0x00, 0x00, 0x00,
  0x59, 0x00, 0x00, 0x00, 0x66, 0xf7, 0xff, 0xff, 0x14, 0x00, 0x00, 0x00,
  0x00, 0x00, 0x00, 0x08, 0x10, 0x00, 0x00, 0x00, 0x14, 0x00, 0x00, 0x00,
  0x06, 0x00, 0x00, 0x00, 0xac, 0x9b, 0xff, 0xff, 0x01, 0x00, 0x00, 0x00,
  0x59, 0x00, 0x00, 0x00, 0x03, 0x00, 0x00, 0x00, 0x58, 0x00, 0x00, 0x00,
  0x05, 0x00, 0x00, 0x00, 0x04, 0x00, 0x00, 0x00, 0x9a, 0xf7, 0xff, 0xff,
  0x14, 0x00, 0x00, 0x00, 0x00, 0x00, 0x00, 0x1b, 0x10, 0x00, 0x00, 0x00,
  0x14, 0x00, 0x00, 0x00, 0x05, 0x00, 0x00, 0x00, 0xe0, 0x9b, 0xff, 0xff,
  0x01, 0x00, 0x00, 0x00, 0x58, 0x00, 0x00, 0x00, 0x02, 0x00, 0x00, 0x00,
  0x57, 0x00, 0x00, 0x00, 0x01, 0x00, 0x00, 0x00, 0xca, 0xf7, 0xff, 0xff,
  0x14, 0x00, 0x00, 0x00, 0x00, 0x00, 0x00, 0x0b, 0x10, 0x00, 0x00, 0x00,
  0x14, 0x00, 0x00, 0x00, 0x04, 0x00, 0x00, 0x00, 0x10, 0x9c, 0xff, 0xff,
  0x01, 0x00, 0x00, 0x00, 0x57, 0x00, 0x00, 0x00, 0x02, 0x00, 0x00, 0x00,
  0x4f, 0x00, 0x00, 0x00, 0x56, 0x00, 0x00, 0x00, 0xde, 0xf8, 0xff, 0xff,
  0x10, 0x00, 0x00, 0x00, 0x00, 0x00, 0x00, 0x01, 0x14, 0x00, 0x00, 0x00,
  0x18, 0x00, 0x00, 0x00, 0x7e, 0xf7, 0xff, 0xff, 0x01, 0x00, 0x00, 0x00,
  0x01, 0x00, 0x00, 0x00, 0x01, 0x00, 0x00, 0x00, 0x56, 0x00, 0x00, 0x00,
  0x03, 0x00, 0x00, 0x00, 0x55, 0x00, 0x00, 0x00, 0x07, 0x00, 0x00, 0x00,
  0x06, 0x00, 0x00, 0x00, 0x32, 0xf8, 0xff, 0xff, 0x14, 0x00, 0x00, 0x00,
  0x00, 0x00, 0x00, 0x15, 0x10, 0x00, 0x00, 0x00, 0x14, 0x00, 0x00, 0x00,
  0x02, 0x00, 0x00, 0x00, 0x78, 0x9c, 0xff, 0xff, 0x01, 0x00, 0x00, 0x00,
  0x55, 0x00, 0x00, 0x00, 0x02, 0x00, 0x00, 0x00, 0x53, 0x00, 0x00, 0x00,
  0x54, 0x00, 0x00, 0x00, 0x22, 0xf8, 0xff, 0xff, 0x0c, 0x00, 0x00, 0x00,
  0x10, 0x00, 0x00, 0x00, 0x01, 0x00, 0x00, 0x00, 0x01, 0x00, 0x00, 0x00,
  0x54, 0x00, 0x00, 0x00, 0x01, 0x00, 0x00, 0x00, 0x53, 0x00, 0x00, 0x00,
  0x82, 0xf8, 0xff, 0xff, 0x14, 0x00, 0x00, 0x00, 0x00, 0x00, 0x00, 0x02,
  0x1c, 0x00, 0x00, 0x00, 0x20, 0x00, 0x00, 0x00, 0x03, 0x00, 0x00, 0x00,
  0xd0, 0xf8, 0xff, 0xff, 0x01, 0x00, 0x00, 0x00, 0x01, 0x00, 0x00, 0x00,
  0x01, 0x00, 0x00, 0x00, 0x01, 0x00, 0x00, 0x00, 0x53, 0x00, 0x00, 0x00,
  0x03, 0x00, 0x00, 0x00, 0x52, 0x00, 0x00, 0x00, 0x09, 0x00, 0x00, 0x00,
  0x08, 0x00, 0x00, 0x00, 0xc2, 0xf8, 0xff, 0xff, 0x14, 0x00, 0x00, 0x00,
  0x00, 0x00, 0x00, 0x15, 0x10, 0x00, 0x00, 0x00, 0x14, 0x00, 0x00, 0x00,
  0x02, 0x00, 0x00, 0x00, 0x08, 0x9d, 0xff, 0xff, 0x01, 0x00, 0x00, 0x00,
  0x52, 0x00, 0x00, 0x00, 0x02, 0x00, 0x00, 0x00, 0x50, 0x00, 0x00, 0x00,
  0x51, 0x00, 0x00, 0x00, 0xb2, 0xf8, 0xff, 0xff, 0x0c, 0x00, 0x00, 0x00,
  0x10, 0x00, 0x00, 0x00, 0x01, 0x00, 0x00, 0x00, 0x01, 0x00, 0x00, 0x00,
  0x51, 0x00, 0x00, 0x00, 0x01, 0x00, 0x00, 0x00, 0x50, 0x00, 0x00, 0x00,
  0xf6, 0xf9, 0xff, 0xff, 0x10, 0x00, 0x00, 0x00, 0x00, 0x00, 0x00, 0x01,
  0x14, 0x00, 0x00, 0x00, 0x18, 0x00, 0x00, 0x00, 0x96, 0xf8, 0xff, 0xff,
  0x01, 0x00, 0x00, 0x00, 0x01, 0x00, 0x00, 0x00, 0x01, 0x00, 0x00, 0x00,
  0x50, 0x00, 0x00, 0x00, 0x03, 0x00, 0x00, 0x00, 0x4f, 0x00, 0x00, 0x00,
  0x0b, 0x00, 0x00, 0x00, 0x0a, 0x00, 0x00, 0x00, 0x2e, 0xfa, 0xff, 0xff,
  0x10, 0x00, 0x00, 0x00, 0x00, 0x00, 0x00, 0x01, 0x14, 0x00, 0x00, 0x00,
  0x18, 0x00, 0x00, 0x00, 0xce, 0xf8, 0xff, 0xff, 0x01, 0x00, 0x00, 0x00,
  0x01, 0x00, 0x00, 0x00, 0x01, 0x00, 0x00, 0x00, 0x4f, 0x00, 0x00, 0x00,
  0x03, 0x00, 0x00, 0x00, 0x4e, 0x00, 0x00, 0x00, 0x0d, 0x00, 0x00, 0x00,
  0x0c, 0x00, 0x00, 0x00, 0x82, 0xf9, 0xff, 0xff, 0x14, 0x00, 0x00, 0x00,
  0x00, 0x00, 0x00, 0x15, 0x10, 0x00, 0x00, 0x00, 0x14, 0x00, 0x00, 0x00,
  0x02, 0x00, 0x00, 0x00, 0xc8, 0x9d, 0xff, 0xff, 0x01, 0x00, 0x00, 0x00,
  0x4e, 0x00, 0x00, 0x00, 0x02, 0x00, 0x00, 0x00, 0x4c, 0x00, 0x00, 0x00,
  0x4d, 0x00, 0x00, 0x00, 0x72, 0xf9, 0xff, 0xff, 0x0c, 0x00, 0x00, 0x00,
  0x10, 0x00, 0x00, 0x00, 0x01, 0x00, 0x00, 0x00, 0x01, 0x00, 0x00, 0x00,
  0x4d, 0x00, 0x00, 0x00, 0x01, 0x00, 0x00, 0x00, 0x4c, 0x00, 0x00, 0x00,
  0xd2, 0xf9, 0xff, 0xff, 0x14, 0x00, 0x00, 0x00, 0x00, 0x00, 0x00, 0x02,
  0x1c, 0x00, 0x00, 0x00, 0x20, 0x00, 0x00, 0x00, 0x03, 0x00, 0x00, 0x00,
  0x20, 0xfa, 0xff, 0xff, 0x01, 0x00, 0x00, 0x00, 0x02, 0x00, 0x00, 0x00,
  0x02, 0x00, 0x00, 0x00, 0x01, 0x00, 0x00, 0x00, 0x4c, 0x00, 0x00, 0x00,
  0x03, 0x00, 0x00, 0x00, 0x4b, 0x00, 0x00, 0x00, 0x0f, 0x00, 0x00, 0x00,
  0x0e, 0x00, 0x00, 0x00, 0x12, 0xfa, 0xff, 0xff, 0x14, 0x00, 0x00, 0x00,
  0x00, 0x00, 0x00, 0x15, 0x10, 0x00, 0x00, 0x00, 0x14, 0x00, 0x00, 0x00,
  0x02, 0x00, 0x00, 0x00, 0x58, 0x9e, 0xff, 0xff, 0x01, 0x00, 0x00, 0x00,
  0x4b, 0x00, 0x00, 0x00, 0x02, 0x00, 0x00, 0x00, 0x49, 0x00, 0x00, 0x00,
  0x4a, 0x00, 0x00, 0x00, 0x02, 0xfa, 0xff, 0xff, 0x0c, 0x00, 0x00, 0x00,
  0x10, 0x00, 0x00, 0x00, 0x01, 0x00, 0x00, 0x00, 0x01, 0x00, 0x00, 0x00,
  0x4a, 0x00, 0x00, 0x00, 0x01, 0x00, 0x00, 0x00, 0x49, 0x00, 0x00, 0x00,
  0x46, 0xfb, 0xff, 0xff, 0x10, 0x00, 0x00, 0x00, 0x00, 0x00, 0x00, 0x01,
  0x14, 0x00, 0x00, 0x00, 0x18, 0x00, 0x00, 0x00, 0xe6, 0xf9, 0xff, 0xff,
  0x01, 0x00, 0x00, 0x00, 0x01, 0x00, 0x00, 0x00, 0x01, 0x00, 0x00, 0x00,
  0x49, 0x00, 0x00, 0x00, 0x03, 0x00, 0x00, 0x00, 0x48, 0x00, 0x00, 0x00,
  0x11, 0x00, 0x00, 0x00, 0x10, 0x00, 0x00, 0x00, 0x9a, 0xfa, 0xff, 0xff,
  0x14, 0x00, 0x00, 0x00, 0x00, 0x00, 0x00, 0x0b, 0x10, 0x00, 0x00, 0x00,
  0x14, 0x00, 0x00, 0x00, 0x04, 0x00, 0x00, 0x00, 0xe0, 0x9e, 0xff, 0xff,
  0x01, 0x00, 0x00, 0x00, 0x48, 0x00, 0x00, 0x00, 0x02, 0x00, 0x00, 0x00,
  0x40, 0x00, 0x00, 0x00, 0x47, 0x00, 0x00, 0x00, 0xae, 0xfb, 0xff, 0xff,
  0x10, 0x00, 0x00, 0x00, 0x00, 0x00, 0x00, 0x01, 0x14, 0x00, 0x00, 0x00,
  0x18, 0x00, 0x00, 0x00, 0x4e, 0xfa, 0xff, 0xff, 0x01, 0x00, 0x00, 0x00,
  0x01, 0x00, 0x00, 0x00, 0x01, 0x00, 0x00, 0x00, 0x47, 0x00, 0x00, 0x00,
  0x03, 0x00, 0x00, 0x00, 0x46, 0x00, 0x00, 0x00, 0x13, 0x00, 0x00, 0x00,
  0x12, 0x00, 0x00, 0x00, 0x02, 0xfb, 0xff, 0xff, 0x14, 0x00, 0x00, 0x00,
  0x00, 0x00, 0x00, 0x15, 0x10, 0x00, 0x00, 0x00, 0x14, 0x00, 0x00, 0x00,
  0x02, 0x00, 0x00, 0x00, 0x48, 0x9f, 0xff, 0xff, 0x01, 0x00, 0x00, 0x00,
  0x46, 0x00, 0x00, 0x00, 0x02, 0x00, 0x00, 0x00, 0x44, 0x00, 0x00, 0x00,
  0x45, 0x00, 0x00, 0x00, 0xf2, 0xfa, 0xff, 0xff, 0x0c, 0x00, 0x00, 0x00,
  0x10, 0x00, 0x00, 0x00, 0x01, 0x00, 0x00, 0x00, 0x01, 0x00, 0x00, 0x00,
  0x45, 0x00, 0x00, 0x00, 0x01, 0x00, 0x00, 0x00, 0x44, 0x00, 0x00, 0x00,
  0x52, 0xfb, 0xff, 0xff, 0x14, 0x00, 0x00, 0x00, 0x00, 0x00, 0x00, 0x02,
  0x1c, 0x00, 0x00, 0x00, 0x20, 0x00, 0x00, 0x00, 0x03, 0x00, 0x00, 0x00,
  0xa0, 0xfb, 0xff, 0xff, 0x01, 0x00, 0x00, 0x00, 0x01, 0x00, 0x00, 0x00,
  0x01, 0x00, 0x00, 0x00, 0x01, 0x00, 0x00, 0x00, 0x44, 0x00, 0x00, 0x00,
  0x03, 0x00, 0x00, 0x00, 0x43, 0x00, 0x00, 0x00, 0x15, 0x00, 0x00, 0x00,
  0x14, 0x00, 0x00, 0x00, 0x92, 0xfb, 0xff, 0xff, 0x14, 0x00, 0x00, 0x00,
  0x00, 0x00, 0x00, 0x15, 0x10, 0x00, 0x00, 0x00, 0x14, 0x00, 0x00, 0x00,
  0x02, 0x00, 0x00, 0x00, 0xd8, 0x9f, 0xff, 0xff, 0x01, 0x00, 0x00, 0x00,
  0x43, 0x00, 0x00, 0x00, 0x02, 0x00, 0x00, 0x00, 0x41, 0x00, 0x00, 0x00,
  0x42, 0x00, 0x00, 0x00, 0x82, 0xfb, 0xff, 0xff, 0x0c, 0x00, 0x00, 0x00,
  0x10, 0x00, 0x00, 0x00, 0x01, 0x00, 0x00, 0x00, 0x01, 0x00, 0x00, 0x00,
  0x42, 0x00, 0x00, 0x00, 0x01, 0x00, 0x00, 0x00, 0x41, 0x00, 0x00, 0x00,
  0xc6, 0xfc, 0xff, 0xff, 0x10, 0x00, 0x00, 0x00, 0x00, 0x00, 0x00, 0x01,
  0x14, 0x00, 0x00, 0x00, 0x18, 0x00, 0x00, 0x00, 0x66, 0xfb, 0xff, 0xff,
  0x01, 0x00, 0x00, 0x00, 0x01, 0x00, 0x00, 0x00, 0x01, 0x00, 0x00, 0x00,
  0x41, 0x00, 0x00, 0x00, 0x03, 0x00, 0x00, 0x00, 0x40, 0x00, 0x00, 0x00,
  0x17, 0x00, 0x00, 0x00, 0x16, 0x00, 0x00, 0x00, 0xfe, 0xfc, 0xff, 0xff,
  0x10, 0x00, 0x00, 0x00, 0x00, 0x00, 0x00, 0x01, 0x14, 0x00, 0x00, 0x00,
  0x18, 0x00, 0x00, 0x00, 0x9e, 0xfb, 0xff, 0xff, 0x01, 0x00, 0x00, 0x00,
  0x01, 0x00, 0x00, 0x00, 0x01, 0x00, 0x00, 0x00, 0x40, 0x00, 0x00, 0x00,
  0x03, 0x00, 0x00, 0x00, 0x3f, 0x00, 0x00, 0x00, 0x19, 0x00, 0x00, 0x00,
  0x18, 0x00, 0x00, 0x00, 0x52, 0xfc, 0xff, 0xff, 0x14, 0x00, 0x00, 0x00,
  0x00, 0x00, 0x00, 0x15, 0x10, 0x00, 0x00, 0x00, 0x14, 0x00, 0x00, 0x00,
  0x02, 0x00, 0x00, 0x00, 0x98, 0xa0, 0xff, 0xff, 0x01, 0x00, 0x00, 0x00,
  0x3f, 0x00, 0x00, 0x00, 0x02, 0x00, 0x00, 0x00, 0x3d, 0x00, 0x00, 0x00,
  0x3e, 0x00, 0x00, 0x00, 0x42, 0xfc, 0xff, 0xff, 0x0c, 0x00, 0x00, 0x00,
  0x10, 0x00, 0x00, 0x00, 0x01, 0x00, 0x00, 0x00, 0x01, 0x00, 0x00, 0x00,
  0x3e, 0x00, 0x00, 0x00, 0x01, 0x00, 0x00, 0x00, 0x3d, 0x00, 0x00, 0x00,
  0xa2, 0xfc, 0xff, 0xff, 0x14, 0x00, 0x00, 0x00, 0x00, 0x00, 0x00, 0x02,
  0x1c, 0x00, 0x00, 0x00, 0x20, 0x00, 0x00, 0x00, 0x03, 0x00, 0x00, 0x00,
  0xf0, 0xfc, 0xff, 0xff, 0x01, 0x00, 0x00, 0x00, 0x02, 0x00, 0x00, 0x00,
  0x02, 0x00, 0x00, 0x00, 0x01, 0x00, 0x00, 0x00, 0x3d, 0x00, 0x00, 0x00,
  0x03, 0x00, 0x00, 0x00, 0x3c, 0x00, 0x00, 0x00, 0x1b, 0x00, 0x00, 0x00,
  0x1a, 0x00, 0x00, 0x00, 0xe2, 0xfc, 0xff, 0xff, 0x14, 0x00, 0x00, 0x00,
  0x00, 0x00, 0x00, 0x15, 0x10, 0x00, 0x00, 0x00, 0x14, 0x00, 0x00, 0x00,
  0x02, 0x00, 0x00, 0x00, 0x28, 0xa1, 0xff, 0xff, 0x01, 0x00, 0x00, 0x00,
  0x3c, 0x00, 0x00, 0x00, 0x02, 0x00, 0x00, 0x00, 0x3a, 0x00, 0x00, 0x00,
  0x3b, 0x00, 0x00, 0x00, 0xd2, 0xfc, 0xff, 0xff, 0x0c, 0x00, 0x00, 0x00,
  0x10, 0x00, 0x00, 0x00, 0x01, 0x00, 0x00, 0x00, 0x01, 0x00, 0x00, 0x00,
  0x3b, 0x00, 0x00, 0x00, 0x01, 0x00, 0x00, 0x00, 0x3a, 0x00, 0x00, 0x00,
  0x16, 0xfe, 0xff, 0xff, 0x10, 0x00, 0x00, 0x00, 0x00, 0x00, 0x00, 0x01,
  0x14, 0x00, 0x00, 0x00, 0x18, 0x00, 0x00, 0x00, 0xb6, 0xfc, 0xff, 0xff,
  0x01, 0x00, 0x00, 0x00, 0x01, 0x00, 0x00, 0x00, 0x01, 0x00, 0x00, 0x00,
  0x3a, 0x00, 0x00, 0x00, 0x03, 0x00, 0x00, 0x00, 0x39, 0x00, 0x00, 0x00,
  0x1d, 0x00, 0x00, 0x00, 0x1c, 0x00, 0x00, 0x00, 0x6a, 0xfd, 0xff, 0xff,
  0x14, 0x00, 0x00, 0x00, 0x00, 0x00, 0x00, 0x0b, 0x10, 0x00, 0x00, 0x00,
  0x14, 0x00, 0x00, 0x00, 0x04, 0x00, 0x00, 0x00, 0xb0, 0xa1, 0xff, 0xff,
  0x01, 0x00, 0x00, 0x00, 0x39, 0x00, 0x00, 0x00, 0x02, 0x00, 0x00, 0x00,
  0x31, 0x00, 0x00, 0x00, 0x38, 0x00, 0x00, 0x00, 0x7e, 0xfe, 0xff, 0xff,
  0x10, 0x00, 0x00, 0x00, 0x00, 0x00, 0x00, 0x01, 0x14, 0x00, 0x00, 0x00,
  0x18, 0x00, 0x00, 0x00, 0x1e, 0xfd, 0xff, 0xff, 0x01, 0x00, 0x00, 0x00,
  0x01, 0x00, 0x00, 0x00, 0x01, 0x00, 0x00, 0x00, 0x38, 0x00, 0x00, 0x00,
  0x03, 0x00, 0x00, 0x00, 0x37, 0x00, 0x00, 0x00, 0x1f, 0x00, 0x00, 0x00,
  0x1e, 0x00, 0x00, 0x00, 0xd2, 0xfd, 0xff, 0xff, 0x14, 0x00, 0x00, 0x00,
  0x00, 0x00, 0x00, 0x15, 0x10, 0x00, 0x00, 0x00, 0x14, 0x00, 0x00, 0x00,
  0x02, 0x00, 0x00, 0x00, 0x18, 0xa2, 0xff, 0xff, 0x01, 0x00, 0x00, 0x00,
  0x37, 0x00, 0x00, 0x00, 0x02, 0x00, 0x00, 0x00, 0x35, 0x00, 0x00, 0x00,
  0x36, 0x00, 0x00, 0x00, 0xc2, 0xfd, 0xff, 0xff, 0x0c, 0x00, 0x00, 0x00,
  0x10, 0x00, 0x00, 0x00, 0x01, 0x00, 0x00, 0x00, 0x01, 0x00, 0x00, 0x00,
  0x36, 0x00, 0x00, 0x00, 0x01, 0x00, 0x00, 0x00, 0x35, 0x00, 0x00, 0x00,
  0x22, 0xfe, 0xff, 0xff, 0x14, 0x00, 0x00, 0x00, 0x00, 0x00, 0x00, 0x02,
  0x1c, 0x00, 0x00, 0x00, 0x20, 0x00, 0x00, 0x00, 0x03, 0x00, 0x00, 0x00,
  0x70, 0xfe, 0xff, 0xff, 0x01, 0x00, 0x00, 0x00, 0x01, 0x00, 0x00, 0x00,
  0x01, 0x00, 0x00, 0x00, 0x01, 0x00, 0x00, 0x00, 0x35, 0x00, 0x00, 0x00,
  0x03, 0x00, 0x00, 0x00, 0x34, 0x00, 0x00, 0x00, 0x21, 0x00, 0x00, 0x00,
  0x20, 0x00, 0x00, 0x00, 0x62, 0xfe, 0xff, 0xff, 0x14, 0x00, 0x00, 0x00,
  0x00, 0x00, 0x00, 0x15, 0x10, 0x00, 0x00, 0x00, 0x14, 0x00, 0x00, 0x00,
  0x02, 0x00, 0x00, 0x00, 0xa8, 0xa2, 0xff, 0xff, 0x01, 0x00, 0x00, 0x00,
  0x34, 0x00, 0x00, 0x00, 0x02, 0x00, 0x00, 0x00, 0x32, 0x00, 0x00, 0x00,
  0x33, 0x00, 0x00, 0x00, 0x52, 0xfe, 0xff, 0xff, 0x0c, 0x00, 0x00, 0x00,
  0x10, 0x00, 0x00, 0x00, 0x01, 0x00, 0x00, 0x00, 0x01, 0x00, 0x00, 0x00,
  0x33, 0x00, 0x00, 0x00, 0x01, 0x00, 0x00, 0x00, 0x32, 0x00, 0x00, 0x00,
  0x96, 0xff, 0xff, 0xff, 0x10, 0x00, 0x00, 0x00, 0x00, 0x00, 0x00, 0x01,
  0x14, 0x00, 0x00, 0x00, 0x18, 0x00, 0x00, 0x00, 0x36, 0xfe, 0xff, 0xff,
  0x01, 0x00, 0x00, 0x00, 0x01, 0x00, 0x00, 0x00, 0x01, 0x00, 0x00, 0x00,
  0x32, 0x00, 0x00, 0x00, 0x03, 0x00, 0x00, 0x00, 0x31, 0x00, 0x00, 0x00,
  0x23, 0x00, 0x00, 0x00, 0x22, 0x00, 0x00, 0x00, 0xea, 0xfe, 0xff, 0xff,
  0x14, 0x00, 0x00, 0x00, 0x00, 0x00, 0x00, 0x0b, 0x10, 0x00, 0x00, 0x00,
  0x14, 0x00, 0x00, 0x00, 0x04, 0x00, 0x00, 0x00, 0x30, 0xa3, 0xff, 0xff,
  0x01, 0x00, 0x00, 0x00, 0x31, 0x00, 0x00, 0x00, 0x02, 0x00, 0x00, 0x00,
  0x2c, 0x00, 0x00, 0x00, 0x30, 0x00, 0x00, 0x00, 0x00, 0x00, 0x0e, 0x00,
  0x14, 0x00, 0x00, 0x00, 0x10, 0x00, 0x0c, 0x00, 0x0b, 0x00, 0x04, 0x00,
  0x0e, 0x00, 0x00, 0x00, 0x10, 0x00, 0x00, 0x00, 0x00, 0x00, 0x00, 0x01,
  0x14, 0x00, 0x00, 0x00, 0x18, 0x00, 0x00, 0x00, 0xae, 0xfe, 0xff, 0xff,
  0x01, 0x00, 0x00, 0x00, 0x01, 0x00, 0x00, 0x00, 0x01, 0x00, 0x00, 0x00,
  0x30, 0x00, 0x00, 0x00, 0x03, 0x00, 0x00, 0x00, 0x2f, 0x00, 0x00, 0x00,
  0x25, 0x00, 0x00, 0x00, 0x24, 0x00, 0x00, 0x00, 0x62, 0xff, 0xff, 0xff,
  0x14, 0x00, 0x00, 0x00, 0x00, 0x00, 0x00, 0x15, 0x10, 0x00, 0x00, 0x00,
  0x14, 0x00, 0x00, 0x00, 0x02, 0x00, 0x00, 0x00, 0xa8, 0xa3, 0xff, 0xff,
  0x01, 0x00, 0x00, 0x00, 0x2f, 0x00, 0x00, 0x00, 0x02, 0x00, 0x00, 0x00,
  0x2d, 0x00, 0x00, 0x00, 0x2e, 0x00, 0x00, 0x00, 0x52, 0xff, 0xff, 0xff,
  0x0c, 0x00, 0x00, 0x00, 0x10, 0x00, 0x00, 0x00, 0x01, 0x00, 0x00, 0x00,
  0x01, 0x00, 0x00, 0x00, 0x2e, 0x00, 0x00, 0x00, 0x01, 0x00, 0x00, 0x00,
  0x2d, 0x00, 0x00, 0x00, 0xb2, 0xff, 0xff, 0xff, 0x20, 0x00, 0x00, 0x00,
  0x00, 0x00, 0x00, 0x02, 0x28, 0x00, 0x00, 0x00, 0x2c, 0x00, 0x00, 0x00,
  0x03, 0x00, 0x00, 0x00, 0x0c, 0x00, 0x10, 0x00, 0x00, 0x00, 0x0c, 0x00,
  0x08, 0x00, 0x04, 0x00, 0x0c, 0x00, 0x00, 0x00, 0x01, 0x00, 0x00, 0x00,
  0x01, 0x00, 0x00, 0x00, 0x01, 0x00, 0x00, 0x00, 0x01, 0x00, 0x00, 0x00,
  0x2d, 0x00, 0x00, 0x00, 0x03, 0x00, 0x00, 0x00, 0x2c, 0x00, 0x00, 0x00,
  0x27, 0x00, 0x00, 0x00, 0x26, 0x00, 0x00, 0x00, 0x00, 0x00, 0x0e, 0x00,
  0x18, 0x00, 0x14, 0x00, 0x10, 0x00, 0x0c, 0x00, 0x0b, 0x00, 0x04, 0x00,
  0x0e, 0x00, 0x00, 0x00, 0x14, 0x00, 0x00, 0x00, 0x00, 0x00, 0x00, 0x15,
  0x10, 0x00, 0x00, 0x00, 0x14, 0x00, 0x00, 0x00, 0x02, 0x00, 0x00, 0x00,
  0x54, 0xa4, 0xff, 0xff, 0x01, 0x00, 0x00, 0x00, 0x2c, 0x00, 0x00, 0x00,
  0x02, 0x00, 0x00, 0x00, 0x2a, 0x00, 0x00, 0x00, 0x2b, 0x00, 0x00, 0x00,
  0x00, 0x00, 0x0a, 0x00, 0x10, 0x00, 0x0c, 0x00, 0x08, 0x00, 0x04, 0x00,
  0x0a, 0x00, 0x00, 0x00, 0x0c, 0x00, 0x00, 0x00, 0x10, 0x00, 0x00, 0x00,
  0x01, 0x00, 0x00, 0x00, 0x01, 0x00, 0x00, 0x00, 0x2b, 0x00, 0x00, 0x00,
  0x01, 0x00, 0x00, 0x00, 0x2a, 0x00, 0x00, 0x00, 0x00, 0x00, 0x0e, 0x00,
  0x16, 0x00, 0x00, 0x00, 0x10, 0x00, 0x0c, 0x00, 0x0b, 0x00, 0x04, 0x00,
  0x0e, 0x00, 0x00, 0x00, 0x1c, 0x00, 0x00, 0x00, 0x00, 0x00, 0x00, 0x01,
  0x20, 0x00, 0x00, 0x00, 0x24, 0x00, 0x00, 0x00, 0x00, 0x00, 0x0a, 0x00,
  0x0c, 0x00, 0x00, 0x00, 0x08, 0x00, 0x04, 0x00, 0x0a, 0x00, 0x00, 0x00,
  0x01, 0x00, 0x00, 0x00, 0x01, 0x00, 0x00, 0x00, 0x01, 0x00, 0x00, 0x00,
  0x2a, 0x00, 0x00, 0x00, 0x03, 0x00, 0x00, 0x00, 0x00, 0x00, 0x00, 0x00,
  0x29, 0x00, 0x00, 0x00, 0x28, 0x00, 0x00, 0x00, 0x01, 0x00, 0x00, 0x00,
  0x5d, 0x00, 0x00, 0x00, 0x01, 0x00, 0x00, 0x00, 0x00, 0x00, 0x00, 0x00,
  0x5e, 0x00, 0x00, 0x00, 0x3c, 0x5b, 0x00, 0x00, 0xe0, 0x5a, 0x00, 0x00,
  0xf8, 0x59, 0x00, 0x00, 0x24, 0x59, 0x00, 0x00, 0x50, 0x57, 0x00, 0x00,
  0x74, 0x55, 0x00, 0x00, 0x60, 0x54, 0x00, 0x00, 0x3c, 0x53, 0x00, 0x00,
  0x68, 0x51, 0x00, 0x00, 0x6c, 0x4f, 0x00, 0x00, 0x80, 0x4d, 0x00, 0x00,
  0x9c, 0x4b, 0x00, 0x00, 0x88, 0x4a, 0x00, 0x00, 0x64, 0x49, 0x00, 0x00,
  0xf0, 0x47, 0x00, 0x00, 0x68, 0x46, 0x00, 0x00, 0xf0, 0x44, 0x00, 0x00,
  0x6c, 0x43, 0x00, 0x00, 0x88, 0x42, 0x00, 0x00, 0x94, 0x41, 0x00, 0x00,
  0x20, 0x40, 0x00, 0x00, 0x98, 0x3e, 0x00, 0x00, 0x20, 0x3d, 0x00, 0x00,
  0x9c, 0x3b, 0x00, 0x00, 0xb8, 0x3a, 0x00, 0x00, 0xc4, 0x39, 0x00, 0x00,
  0xb0, 0x38, 0x00, 0x00, 0x88, 0x37, 0x00, 0x00, 0x70, 0x36, 0x00, 0x00,
  0x4c, 0x35, 0x00, 0x00, 0x98, 0x34, 0x00, 0x00, 0xd4, 0x33, 0x00, 0x00,
  0xc0, 0x32, 0x00, 0x00, 0x98, 0x31, 0x00, 0x00, 0x80, 0x30, 0x00, 0x00,
  0x5c, 0x2f, 0x00, 0x00, 0xa8, 0x2e, 0x00, 0x00, 0xe4, 0x2d, 0x00, 0x00,
  0x30, 0x2d, 0x00, 0x00, 0x68, 0x2c, 0x00, 0x00, 0xb0, 0x2b, 0x00, 0x00,
  0xec, 0x2a, 0x00, 0x00, 0x18, 0x2a, 0x00, 0x00, 0x74, 0x29, 0x00, 0x00,
  0xd8, 0x28, 0x00, 0x00, 0x5c, 0x27, 0x00, 0x00, 0xb8, 0x26, 0x00, 0x00,
  0x14, 0x26, 0x00, 0x00, 0x00, 0x25, 0x00, 0x00, 0x64, 0x24, 0x00, 0x00,
  0x50, 0x23, 0x00, 0x00, 0xac, 0x22, 0x00, 0x00, 0x08, 0x22, 0x00, 0x00,
  0x8c, 0x20, 0x00, 0x00, 0xe8, 0x1f, 0x00, 0x00, 0x44, 0x1f, 0x00, 0x00,
  0x30, 0x1e, 0x00, 0x00, 0x94, 0x1d, 0x00, 0x00, 0x80, 0x1c, 0x00, 0x00,
  0xdc, 0x1b, 0x00, 0x00, 0x38, 0x1b, 0x00, 0x00, 0xbc, 0x19, 0x00, 0x00,
  0x18, 0x19, 0x00, 0x00, 0x74, 0x18, 0x00, 0x00, 0x60, 0x17, 0x00, 0x00,
  0x4c, 0x16, 0x00, 0x00, 0xa8, 0x15, 0x00, 0x00, 0x04, 0x15, 0x00, 0x00,
  0x88, 0x13, 0x00, 0x00, 0xe4, 0x12, 0x00, 0x00, 0x40, 0x12, 0x00, 0x00,
  0x2c, 0x11, 0x00, 0x00, 0x90, 0x10, 0x00, 0x00, 0x7c, 0x0f, 0x00, 0x00,
  0xd8, 0x0e, 0x00, 0x00, 0x34, 0x0e, 0x00, 0x00, 0xb8, 0x0c, 0x00, 0x00,
  0x14, 0x0c, 0x00, 0x00, 0x70, 0x0b, 0x00, 0x00, 0x5c, 0x0a, 0x00, 0x00,
  0x48, 0x09, 0x00, 0x00, 0xa4, 0x08, 0x00, 0x00, 0x00, 0x08, 0x00, 0x00,
  0x84, 0x06, 0x00, 0x00, 0xe0, 0x05, 0x00, 0x00, 0x3c, 0x05, 0x00, 0x00,
  0x28, 0x04, 0x00, 0x00, 0x8c, 0x03, 0x00, 0x00, 0x00, 0x03, 0x00, 0x00,
  0x4c, 0x02, 0x00, 0x00, 0xc0, 0x01, 0x00, 0x00, 0x34, 0x01, 0x00, 0x00,
  0x80, 0x00, 0x00, 0x00, 0x04, 0x00, 0x00, 0x00, 0x52, 0xa6, 0xff, 0xff,
  0x00, 0x00, 0x00, 0x01, 0x18, 0x00, 0x00, 0x00, 0x20, 0x00, 0x00, 0x00,
  0x3c, 0x00, 0x00, 0x00, 0x5e, 0x00, 0x00, 0x00, 0x00, 0x00, 0x00, 0x09,
  0x50, 0x00, 0x00, 0x00, 0x02, 0x00, 0x00, 0x00, 0xff, 0xff, 0xff, 0xff,
  0x0a, 0x00, 0x00, 0x00, 0x34, 0xa6, 0xff, 0xff, 0x08, 0x00, 0x00, 0x00,
  0x10, 0x00, 0x00, 0x00, 0x01, 0x00, 0x00, 0x00, 0x80, 0xff, 0xff, 0xff,
  0xff, 0xff, 0xff, 0xff, 0x01, 0x00, 0x00, 0x00, 0x00, 0x00, 0x80, 0x3b,
  0x1b, 0x00, 0x00, 0x00, 0x53, 0x74, 0x61, 0x74, 0x65, 0x66, 0x75, 0x6c,
  0x50, 0x61, 0x72, 0x74, 0x69, 0x74, 0x69, 0x6f, 0x6e, 0x65, 0x64, 0x43,
  0x61, 0x6c, 0x6c, 0x5f, 0x31, 0x3a, 0x30, 0x00, 0x02, 0x00, 0x00, 0x00,
  0x01, 0x00, 0x00, 0x00, 0x0a, 0x00, 0x00, 0x00, 0xca, 0xa6, 0xff, 0xff,
  0x00, 0x00, 0x00, 0x01, 0x18, 0x00, 0x00, 0x00, 0x20, 0x00, 0x00, 0x00,
  0x3c, 0x00, 0x00, 0x00, 0x5d, 0x00, 0x00, 0x00, 0x00, 0x00, 0x00, 0x09,
  0x88, 0x00, 0x00, 0x00, 0x02, 0x00, 0x00, 0x00, 0xff, 0xff, 0xff, 0xff,
  0x0a, 0x00, 0x00, 0x00, 0xac, 0xa6, 0xff, 0xff, 0x08, 0x00, 0x00, 0x00,
  0x10, 0x00, 0x00, 0x00, 0x01, 0x00, 0x00, 0x00, 0xfc, 0xff, 0xff, 0xff,
  0xff, 0xff, 0xff, 0xff, 0x01, 0x00, 0x00, 0x00, 0x75, 0x69, 0xcd, 0x3d,
  0x50, 0x00, 0x00, 0x00, 0x74, 0x69, 0x6e, 0x79, 0x5f, 0x65, 0x66, 0x66,
  0x69, 0x63, 0x69, 0x65, 0x6e, 0x74, 0x6e, 0x65, 0x74, 0x5f, 0x6d, 0x6e,
  0x69, 0x73, 0x74, 0x5f, 0x31, 0x2f, 0x70, 0x72, 0x65, 0x64, 0x5f, 0x31,
  0x2f, 0x4d, 0x61, 0x74, 0x4d, 0x75, 0x6c, 0x3b, 0x74, 0x69, 0x6e, 0x79,
  0x5f, 0x65, 0x66, 0x66, 0x69, 0x63, 0x69, 0x65, 0x6e, 0x74, 0x6e, 0x65,
  0x74, 0x5f, 0x6d, 0x6e, 0x69, 0x73, 0x74, 0x5f, 0x31, 0x2f, 0x70, 0x72,
  0x65, 0x64, 0x5f, 0x31, 0x2f, 0x42, 0x69, 0x61, 0x73, 0x41, 0x64, 0x64,
  0x00, 0x00, 0x00, 0x00, 0x02, 0x00, 0x00, 0x00, 0x01, 0x00, 0x00, 0x00,
  0x0a, 0x00, 0x00, 0x00, 0x7a, 0xa7, 0xff, 0xff, 0x00, 0x00, 0x00, 0x01,
  0x18, 0x00, 0x00, 0x00, 0x20, 0x00, 0x00, 0x00, 0x40, 0x00, 0x00, 0x00,
  0x5c, 0x00, 0x00, 0x00, 0x00, 0x00, 0x00, 0x09, 0x60, 0x00, 0x00, 0x00,
  0x02, 0x00, 0x00, 0x00, 0xff, 0xff, 0xff, 0xff, 0x20, 0x00, 0x00, 0x00,
  0x5c, 0xa7, 0xff, 0xff, 0x08, 0x00, 0x00, 0x00, 0x14, 0x00, 0x00, 0x00,
  0x01, 0x00, 0x00, 0x00, 0x8c, 0xff, 0xff, 0xff, 0xff, 0xff, 0xff, 0xff,
  0x00, 0x00, 0x00, 0x00, 0x01, 0x00, 0x00, 0x00, 0x15, 0x7e, 0xc0, 0x3c,
  0x25, 0x00, 0x00, 0x00, 0x74, 0x69, 0x6e, 0x79, 0x5f, 0x65, 0x66, 0x66,
  0x69, 0x63, 0x69, 0x65, 0x6e, 0x74, 0x6e, 0x65, 0x74, 0x5f, 0x6d, 0x6e,
  0x69, 0x73, 0x74, 0x5f, 0x31, 0x2f, 0x66, 0x63, 0x31, 0x5f, 0x31, 0x2f,
  0x6d, 0x75, 0x6c, 0x5f, 0x31, 0x00, 0x00, 0x00, 0x02, 0x00, 0x00, 0x00,
  0x01, 0x00, 0x00, 0x00, 0x20, 0x00, 0x00, 0x00, 0x02, 0xa8, 0xff, 0xff,
  0x00, 0x00, 0x00, 0x01, 0x18, 0x00, 0x00, 0x00, 0x20, 0x00, 0x00, 0x00,
  0x40, 0x00, 0x00, 0x00, 0x5b, 0x00, 0x00, 0x00, 0x00, 0x00, 0x00, 0x09,
  0x60, 0x00, 0x00, 0x00, 0x02, 0x00, 0x00, 0x00, 0xff, 0xff, 0xff, 0xff,
  0x20, 0x00, 0x00, 0x00, 0xe4, 0xa7, 0xff, 0xff, 0x08, 0x00, 0x00, 0x00,
  0x14, 0x00, 0x00, 0x00, 0x01, 0x00, 0x00, 0x00, 0x80, 0xff, 0xff, 0xff,
  0xff, 0xff, 0xff, 0xff, 0x00, 0x00, 0x00, 0x00, 0x01, 0x00, 0x00, 0x00,
  0x00, 0x00, 0x80, 0x3b, 0x27, 0x00, 0x00, 0x00, 0x74, 0x69, 0x6e, 0x79,
  0x5f, 0x65, 0x66, 0x66, 0x69, 0x63, 0x69, 0x65, 0x6e, 0x74, 0x6e, 0x65,
  0x74, 0x5f, 0x6d, 0x6e, 0x69, 0x73, 0x74, 0x5f, 0x31, 0x2f, 0x66, 0x63,
  0x31, 0x5f, 0x31, 0x2f, 0x53, 0x69, 0x67, 0x6d, 0x6f, 0x69, 0x64, 0x00,
  0x02, 0x00, 0x00, 0x00, 0x01, 0x00, 0x00, 0x00, 0x20, 0x00, 0x00, 0x00,
  0x8a, 0xa8, 0xff, 0xff, 0x00, 0x00, 0x00, 0x01, 0x18, 0x00, 0x00, 0x00,
  0x20, 0x00, 0x00, 0x00, 0x40, 0x00, 0x00, 0x00, 0x5a, 0x00, 0x00, 0x00,
  0x00, 0x00, 0x00, 0x09, 0x88, 0x00, 0x00, 0x00, 0x02, 0x00, 0x00, 0x00,
  0xff, 0xff, 0xff, 0xff, 0x20, 0x00, 0x00, 0x00, 0x6c, 0xa8, 0xff, 0xff,
  0x08, 0x00, 0x00, 0x00, 0x14, 0x00, 0x00, 0x00, 0x01, 0x00, 0x00, 0x00,
  0xff, 0xff, 0xff, 0xff, 0xff, 0xff, 0xff, 0xff, 0x00, 0x00, 0x00, 0x00,
  0x01, 0x00, 0x00, 0x00, 0x5a, 0xdd, 0x36, 0x3d, 0x4e, 0x00, 0x00, 0x00,
  0x74, 0x69, 0x6e, 0x79, 0x5f, 0x65, 0x66, 0x66, 0x69, 0x63, 0x69, 0x65,
  0x6e, 0x74, 0x6e, 0x65, 0x74, 0x5f, 0x6d, 0x6e, 0x69, 0x73, 0x74, 0x5f,
  0x31, 0x2f, 0x66, 0x63, 0x31, 0x5f, 0x31, 0x2f, 0x4d, 0x61, 0x74, 0x4d,
  0x75, 0x6c, 0x3b, 0x74, 0x69, 0x6e, 0x79, 0x5f, 0x65, 0x66, 0x66, 0x69,
  0x63, 0x69, 0x65, 0x6e, 0x74, 0x6e, 0x65, 0x74, 0x5f, 0x6d, 0x6e, 0x69,
  0x73, 0x74, 0x5f, 0x31, 0x2f, 0x66, 0x63, 0x31, 0x5f, 0x31, 0x2f, 0x42,
  0x69, 0x61, 0x73, 0x41, 0x64, 0x64, 0x00, 0x00, 0x02, 0x00, 0x00, 0x00,
  0x01, 0x00, 0x00, 0x00, 0x20, 0x00, 0x00, 0x00, 0x3a, 0xa9, 0xff, 0xff,
  0x00, 0x00, 0x00, 0x01, 0x18, 0x00, 0x00, 0x00, 0x20, 0x00, 0x00, 0x00,
  0x40, 0x00, 0x00, 0x00, 0x59, 0x00, 0x00, 0x00, 0x00, 0x00, 0x00, 0x09,
  0x60, 0x00, 0x00, 0x00, 0x02, 0x00, 0x00, 0x00, 0xff, 0xff, 0xff, 0xff,
  0x10, 0x00, 0x00, 0x00, 0x1c, 0xa9, 0xff, 0xff, 0x08, 0x00, 0x00, 0x00,
  0x14, 0x00, 0x00, 0x00, 0x01, 0x00, 0x00, 0x00, 0xfa, 0xff, 0xff, 0xff,
  0xff, 0xff, 0xff, 0xff, 0x00, 0x00, 0x00, 0x00, 0x01, 0x00, 0x00, 0x00,
  0x32, 0x42, 0xab, 0x3c, 0x24, 0x00, 0x00, 0x00, 0x74, 0x69, 0x6e, 0x79,
  0x5f, 0x65, 0x66, 0x66, 0x69, 0x63, 0x69, 0x65, 0x6e, 0x74, 0x6e, 0x65,
  0x74, 0x5f, 0x6d, 0x6e, 0x69, 0x73, 0x74, 0x5f, 0x31, 0x2f, 0x67, 0x61,
  0x70, 0x5f, 0x31, 0x2f, 0x4d, 0x65, 0x61, 0x6e, 0x00, 0x00, 0x00, 0x00,
  0x02, 0x00, 0x00, 0x00, 0x01, 0x00, 0x00, 0x00, 0x10, 0x00, 0x00, 0x00,
  0xc2, 0xa9, 0xff, 0xff, 0x00, 0x00, 0x00, 0x01, 0x18, 0x00, 0x00, 0x00,
  0x28, 0x00, 0x00, 0x00, 0x44, 0x00, 0x00, 0x00, 0x58, 0x00, 0x00, 0x00,
  0x00, 0x00, 0x00, 0x09, 0x68, 0x00, 0x00, 0x00, 0x04, 0x00, 0x00, 0x00,
  0xff, 0xff, 0xff, 0xff, 0x08, 0x00, 0x00, 0x00, 0x08, 0x00, 0x00, 0x00,
  0x10, 0x00, 0x00, 0x00, 0xac, 0xa9, 0xff, 0xff, 0x08, 0x00, 0x00, 0x00,
  0x10, 0x00, 0x00, 0x00, 0x01, 0x00, 0x00, 0x00, 0xf8, 0xff, 0xff, 0xff,
  0xff, 0xff, 0xff, 0xff, 0x01, 0x00, 0x00, 0x00, 0x70, 0xae, 0xea, 0x3d,
  0x28, 0x00, 0x00, 0x00, 0x74, 0x69, 0x6e, 0x79, 0x5f, 0x65, 0x66, 0x66,
  0x69, 0x63, 0x69, 0x65, 0x6e, 0x74, 0x6e, 0x65, 0x74, 0x5f, 0x6d, 0x6e,
  0x69, 0x73, 0x74, 0x5f, 0x31, 0x2f, 0x62, 0x33, 0x5f, 0x31, 0x5f, 0x61,
  0x64, 0x64, 0x5f, 0x31, 0x2f, 0x41, 0x64, 0x64, 0x00, 0x00, 0x00, 0x00,
  0x04, 0x00, 0x00, 0x00, 0x01, 0x00, 0x00, 0x00, 0x08, 0x00, 0x00, 0x00,
  0x08, 0x00, 0x00, 0x00, 0x10, 0x00, 0x00, 0x00, 0x5a, 0xaa, 0xff, 0xff,
  0x00, 0x00, 0x00, 0x01, 0x18, 0x00, 0x00, 0x00, 0x28, 0x00, 0x00, 0x00,
  0x48, 0x00, 0x00, 0x00, 0x57, 0x00, 0x00, 0x00, 0x00, 0x00, 0x00, 0x09,
  0xe0, 0x00, 0x00, 0x00, 0x04, 0x00, 0x00, 0x00, 0xff, 0xff, 0xff, 0xff,
  0x08, 0x00, 0x00, 0x00, 0x08, 0x00, 0x00, 0x00, 0x10, 0x00, 0x00, 0x00,
  0x44, 0xaa, 0xff, 0xff, 0x08, 0x00, 0x00, 0x00, 0x14, 0x00, 0x00, 0x00,
  0x01, 0x00, 0x00, 0x00, 0xf8, 0xff, 0xff, 0xff, 0xff, 0xff, 0xff, 0xff,
  0x00, 0x00, 0x00, 0x00, 0x01, 0x00, 0x00, 0x00, 0x70, 0xae, 0xea, 0x3d,
  0x9e, 0x00, 0x00, 0x00, 0x74, 0x69, 0x6e, 0x79, 0x5f, 0x65, 0x66, 0x66,
  0x69, 0x63, 0x69, 0x65, 0x6e, 0x74, 0x6e, 0x65, 0x74, 0x5f, 0x6d, 0x6e,
  0x69, 0x73, 0x74, 0x5f, 0x31, 0x2f, 0x62, 0x33, 0x5f, 0x31, 0x5f, 0x70,
  0x72, 0x6a, 0x5f, 0x62, 0x6e, 0x5f, 0x31, 0x2f, 0x62, 0x61, 0x74, 0x63,
  0x68, 0x6e, 0x6f, 0x72, 0x6d, 0x2f, 0x61, 0x64, 0x64, 0x5f, 0x31, 0x3b,
  0x74, 0x69, 0x6e, 0x79, 0x5f, 0x65, 0x66, 0x66, 0x69, 0x63, 0x69, 0x65,
  0x6e, 0x74, 0x6e, 0x65, 0x74, 0x5f, 0x6d, 0x6e, 0x69, 0x73, 0x74, 0x5f,
  0x31, 0x2f, 0x62, 0x33, 0x5f, 0x31, 0x5f, 0x70, 0x72, 0x6a, 0x5f, 0x31,
  0x2f, 0x63, 0x6f, 0x6e, 0x76, 0x6f, 0x6c, 0x75, 0x74, 0x69, 0x6f, 0x6e,
  0x3b, 0x74, 0x69, 0x6e, 0x79, 0x5f, 0x65, 0x66, 0x66, 0x69, 0x63, 0x69,
  0x65, 0x6e, 0x74, 0x6e, 0x65, 0x74, 0x5f, 0x6d, 0x6e, 0x69, 0x73, 0x74,
  0x5f, 0x31, 0x2f, 0x62, 0x33, 0x5f, 0x31, 0x5f, 0x70, 0x72, 0x6a, 0x5f,
  0x62, 0x6e, 0x5f, 0x31, 0x2f, 0x62, 0x61, 0x74, 0x63, 0x68, 0x6e, 0x6f,
  0x72, 0x6d, 0x2f, 0x73, 0x75, 0x62, 0x00, 0x00, 0x04, 0x00, 0x00, 0x00,
  0x01, 0x00, 0x00, 0x00, 0x08, 0x00, 0x00, 0x00, 0x08, 0x00, 0x00, 0x00,
  0x10, 0x00, 0x00, 0x00, 0x6a, 0xab, 0xff, 0xff, 0x00, 0x00, 0x00, 0x01,
  0x18, 0x00, 0x00, 0x00, 0x28, 0x00, 0x00, 0x00, 0x48, 0x00, 0x00, 0x00,
  0x56, 0x00, 0x00, 0x00, 0x00, 0x00, 0x00, 0x09, 0x70, 0x00, 0x00, 0x00,
  0x04, 0x00, 0x00, 0x00, 0xff, 0xff, 0xff, 0xff, 0x08, 0x00, 0x00, 0x00,
  0x08, 0x00, 0x00, 0x00, 0x20, 0x00, 0x00, 0x00, 0x54, 0xab, 0xff, 0xff,
  0x08, 0x00, 0x00, 0x00, 0x14, 0x00, 0x00, 0x00, 0x01, 0x00, 0x00, 0x00,
  0x88, 0xff, 0xff, 0xff, 0xff, 0xff, 0xff, 0xff, 0x00, 0x00, 0x00, 0x00,
  0x01, 0x00, 0x00, 0x00, 0x81, 0xce, 0x0c, 0x3d, 0x2d, 0x00, 0x00, 0x00,
  0x74, 0x69, 0x6e, 0x79, 0x5f, 0x65, 0x66, 0x66, 0x69, 0x63, 0x69, 0x65,
  0x6e, 0x74, 0x6e, 0x65, 0x74, 0x5f, 0x6d, 0x6e, 0x69, 0x73, 0x74, 0x5f,
  0x31, 0x2f, 0x62, 0x33, 0x5f, 0x31, 0x5f, 0x64, 0x77, 0x5f, 0x61, 0x63,
  0x74, 0x5f, 0x31, 0x2f, 0x6d, 0x75, 0x6c, 0x5f, 0x31, 0x00, 0x00, 0x00,
  0x04, 0x00, 0x00, 0x00, 0x01, 0x00, 0x00, 0x00, 0x08, 0x00, 0x00, 0x00,
  0x08, 0x00, 0x00, 0x00, 0x20, 0x00, 0x00, 0x00, 0x0a, 0xac, 0xff, 0xff,
  0x00, 0x00, 0x00, 0x01, 0x18, 0x00, 0x00, 0x00, 0x28, 0x00, 0x00, 0x00,
  0x48, 0x00, 0x00, 0x00, 0x55, 0x00, 0x00, 0x00, 0x00, 0x00, 0x00, 0x09,
  0x70, 0x00, 0x00, 0x00, 0x04, 0x00, 0x00, 0x00, 0xff, 0xff, 0xff, 0xff,
  0x08, 0x00, 0x00, 0x00, 0x08, 0x00, 0x00, 0x00, 0x20, 0x00, 0x00, 0x00,
  0xf4, 0xab, 0xff, 0xff, 0x08, 0x00, 0x00, 0x00, 0x14, 0x00, 0x00, 0x00,
  0x01, 0x00, 0x00, 0x00, 0x80, 0xff, 0xff, 0xff, 0xff, 0xff, 0xff, 0xff,
  0x00, 0x00, 0x00, 0x00, 0x01, 0x00, 0x00, 0x00, 0x00, 0x00, 0x80, 0x3b,
  0x2f, 0x00, 0x00, 0x00, 0x74, 0x69, 0x6e, 0x79, 0x5f, 0x65, 0x66, 0x66,
  0x69, 0x63, 0x69, 0x65, 0x6e, 0x74, 0x6e, 0x65, 0x74, 0x5f, 0x6d, 0x6e,
  0x69, 0x73, 0x74, 0x5f, 0x31, 0x2f, 0x62, 0x33, 0x5f, 0x31, 0x5f, 0x64,
  0x77, 0x5f, 0x61, 0x63, 0x74, 0x5f, 0x31, 0x2f, 0x53, 0x69, 0x67, 0x6d,
  0x6f, 0x69, 0x64, 0x00, 0x04, 0x00, 0x00, 0x00, 0x01, 0x00, 0x00, 0x00,
  0x08, 0x00, 0x00, 0x00, 0x08, 0x00, 0x00, 0x00, 0x20, 0x00, 0x00, 0x00,
  0xaa, 0xac, 0xff, 0xff, 0x00, 0x00, 0x00, 0x01, 0x18, 0x00, 0x00, 0x00,
  0x28, 0x00, 0x00, 0x00, 0x48, 0x00, 0x00, 0x00, 0x54, 0x00, 0x00, 0x00,
  0x00, 0x00, 0x00, 0x09, 0x48, 0x01, 0x00, 0x00, 0x04, 0x00, 0x00, 0x00,
  0xff, 0xff, 0xff, 0xff, 0x08, 0x00, 0x00, 0x00, 0x08, 0x00, 0x00, 0x00,
  0x20, 0x00, 0x00, 0x00, 0x94, 0xac, 0xff, 0xff, 0x08, 0x00, 0x00, 0x00,
  0x14, 0x00, 0x00, 0x00, 0x01, 0x00, 0x00, 0x00, 0x06, 0x00, 0x00, 0x00,
  0x00, 0x00, 0x00, 0x00, 0x00, 0x00, 0x00, 0x00, 0x01, 0x00, 0x00, 0x00,
  0xe8, 0x01, 0x90, 0x3d, 0x05, 0x01, 0x00, 0x00, 0x74, 0x69, 0x6e, 0x79,
  0x5f, 0x65, 0x66, 0x66, 0x69, 0x63, 0x69, 0x65, 0x6e, 0x74, 0x6e, 0x65,
  0x74, 0x5f, 0x6d, 0x6e, 0x69, 0x73, 0x74, 0x5f, 0x31, 0x2f, 0x62, 0x33,
  0x5f, 0x31, 0x5f, 0x64, 0x77, 0x5f, 0x62, 0x6e, 0x5f, 0x31, 0x2f, 0x62,
  0x61, 0x74, 0x63, 0x68, 0x6e, 0x6f, 0x72, 0x6d, 0x2f, 0x61, 0x64, 0x64,
  0x5f, 0x31, 0x3b, 0x74, 0x69, 0x6e, 0x79, 0x5f, 0x65, 0x66, 0x66, 0x69,
  0x63, 0x69, 0x65, 0x6e, 0x74, 0x6e, 0x65, 0x74, 0x5f, 0x6d, 0x6e, 0x69,
  0x73, 0x74, 0x5f, 0x31, 0x2f, 0x62, 0x33, 0x5f, 0x31, 0x5f, 0x64, 0x77,
  0x5f, 0x62, 0x6e, 0x5f, 0x31, 0x2f, 0x62, 0x61, 0x74, 0x63, 0x68, 0x6e,
  0x6f, 0x72, 0x6d, 0x2f, 0x6d, 0x75, 0x6c, 0x5f, 0x31, 0x3b, 0x74, 0x69,
  0x6e, 0x79, 0x5f, 0x65, 0x66, 0x66, 0x69, 0x63, 0x69, 0x65, 0x6e, 0x74,
  0x6e, 0x65, 0x74, 0x5f, 0x6d, 0x6e, 0x69, 0x73, 0x74, 0x5f, 0x31, 0x2f,
  0x62, 0x33, 0x5f, 0x31, 0x5f, 0x64, 0x77, 0x5f, 0x31, 0x2f, 0x64, 0x65,
  0x70, 0x74, 0x68, 0x77, 0x69, 0x73, 0x65, 0x3b, 0x74, 0x69, 0x6e, 0x79,
  0x5f, 0x65, 0x66, 0x66, 0x69, 0x63, 0x69, 0x65, 0x6e, 0x74, 0x6e, 0x65,
  0x74, 0x5f, 0x6d, 0x6e, 0x69, 0x73, 0x74, 0x5f, 0x31, 0x2f, 0x62, 0x33,
  0x5f, 0x31, 0x5f, 0x64, 0x77, 0x5f, 0x62, 0x6e, 0x5f, 0x31, 0x2f, 0x62,
  0x61, 0x74, 0x63, 0x68, 0x6e, 0x6f, 0x72, 0x6d, 0x2f, 0x6d, 0x75, 0x6c,
  0x3b, 0x74, 0x69, 0x6e, 0x79, 0x5f, 0x65, 0x66, 0x66, 0x69, 0x63, 0x69,
  0x65, 0x6e, 0x74, 0x6e, 0x65, 0x74, 0x5f, 0x6d, 0x6e, 0x69, 0x73, 0x74,
  0x5f, 0x31, 0x2f, 0x62, 0x33, 0x5f, 0x31, 0x5f, 0x64, 0x77, 0x5f, 0x62,
  0x6e, 0x5f, 0x31, 0x2f, 0x62, 0x61, 0x74, 0x63, 0x68, 0x6e, 0x6f, 0x72,
  0x6d, 0x2f, 0x73, 0x75, 0x62, 0x00, 0x00, 0x00, 0x04, 0x00, 0x00, 0x00,
  0x01, 0x00, 0x00, 0x00, 0x08, 0x00, 0x00, 0x00, 0x08, 0x00, 0x00, 0x00,
  0x20, 0x00, 0x00, 0x00, 0x22, 0xae, 0xff, 0xff, 0x00, 0x00, 0x00, 0x01,
  0x18, 0x00, 0x00, 0x00, 0x28, 0x00, 0x00, 0x00, 0x48, 0x00, 0x00, 0x00,
  0x53, 0x00, 0x00, 0x00, 0x00, 0x00, 0x00, 0x09, 0x70, 0x00, 0x00, 0x00,
  0x04, 0x00, 0x00, 0x00, 0xff, 0xff, 0xff, 0xff, 0x08, 0x00, 0x00, 0x00,
  0x08, 0x00, 0x00, 0x00, 0x20, 0x00, 0x00, 0x00, 0x0c, 0xae, 0xff, 0xff,
  0x08, 0x00, 0x00, 0x00, 0x14, 0x00, 0x00, 0x00, 0x01, 0x00, 0x00, 0x00,
  0x88, 0xff, 0xff, 0xff, 0xff, 0xff, 0xff, 0xff, 0x00, 0x00, 0x00, 0x00,
  0x01, 0x00, 0x00, 0x00, 0xcd, 0x31, 0x0f, 0x3d, 0x2e, 0x00, 0x00, 0x00,
  0x74, 0x69, 0x6e, 0x79, 0x5f, 0x65, 0x66, 0x66, 0x69, 0x63, 0x69, 0x65,
  0x6e, 0x74, 0x6e, 0x65, 0x74, 0x5f, 0x6d, 0x6e, 0x69, 0x73, 0x74, 0x5f,
  0x31, 0x2f, 0x62, 0x33, 0x5f, 0x31, 0x5f, 0x65, 0x78, 0x70, 0x5f, 0x61,
  0x63, 0x74, 0x5f, 0x31, 0x2f, 0x6d, 0x75, 0x6c, 0x5f, 0x31, 0x00, 0x00,
  0x04, 0x00, 0x00, 0x00, 0x01, 0x00, 0x00, 0x00, 0x08, 0x00, 0x00, 0x00,
  0x08, 0x00, 0x00, 0x00, 0x20, 0x00, 0x00, 0x00, 0xc2, 0xae, 0xff, 0xff,
  0x00, 0x00, 0x00, 0x01, 0x18, 0x00, 0x00, 0x00, 0x28, 0x00, 0x00, 0x00,
  0x44, 0x00, 0x00, 0x00, 0x52, 0x00, 0x00, 0x00, 0x00, 0x00, 0x00, 0x09,
  0x70, 0x00, 0x00, 0x00, 0x04, 0x00, 0x00, 0x00, 0xff, 0xff, 0xff, 0xff,
  0x08, 0x00, 0x00, 0x00, 0x08, 0x00, 0x00, 0x00, 0x20, 0x00, 0x00, 0x00,
  0xac, 0xae, 0xff, 0xff, 0x08, 0x00, 0x00, 0x00, 0x10, 0x00, 0x00, 0x00,
  0x01, 0x00, 0x00, 0x00, 0x80, 0xff, 0xff, 0xff, 0xff, 0xff, 0xff, 0xff,
  0x01, 0x00, 0x00, 0x00, 0x00, 0x00, 0x80, 0x3b, 0x30, 0x00, 0x00, 0x00,
  0x74, 0x69, 0x6e, 0x79, 0x5f, 0x65, 0x66, 0x66, 0x69, 0x63, 0x69, 0x65,
  0x6e, 0x74, 0x6e, 0x65, 0x74, 0x5f, 0x6d, 0x6e, 0x69, 0x73, 0x74, 0x5f,
  0x31, 0x2f, 0x62, 0x33, 0x5f, 0x31, 0x5f, 0x65, 0x78, 0x70, 0x5f, 0x61,
  0x63, 0x74, 0x5f, 0x31, 0x2f, 0x53, 0x69, 0x67, 0x6d, 0x6f, 0x69, 0x64,
  0x00, 0x00, 0x00, 0x00, 0x04, 0x00, 0x00, 0x00, 0x01, 0x00, 0x00, 0x00,
  0x08, 0x00, 0x00, 0x00, 0x08, 0x00, 0x00, 0x00, 0x20, 0x00, 0x00, 0x00,
  0x62, 0xaf, 0xff, 0xff, 0x00, 0x00, 0x00, 0x01, 0x18, 0x00, 0x00, 0x00,
  0x28, 0x00, 0x00, 0x00, 0x48, 0x00, 0x00, 0x00, 0x51, 0x00, 0x00, 0x00,
  0x00, 0x00, 0x00, 0x09, 0xe0, 0x00, 0x00, 0x00, 0x04, 0x00, 0x00, 0x00,
  0xff, 0xff, 0xff, 0xff, 0x08, 0x00, 0x00, 0x00, 0x08, 0x00, 0x00, 0x00,
  0x20, 0x00, 0x00, 0x00, 0x4c, 0xaf, 0xff, 0xff, 0x08, 0x00, 0x00, 0x00,
  0x14, 0x00, 0x00, 0x00, 0x01, 0x00, 0x00, 0x00, 0xf9, 0xff, 0xff, 0xff,
  0xff, 0xff, 0xff, 0xff, 0x00, 0x00, 0x00, 0x00, 0x01, 0x00, 0x00, 0x00,
  0x96, 0x3a, 0x84, 0x3d, 0x9e, 0x00, 0x00, 0x00, 0x74, 0x69, 0x6e, 0x79,
  0x5f, 0x65, 0x66, 0x66, 0x69, 0x63, 0x69, 0x65, 0x6e, 0x74, 0x6e, 0x65,
  0x74, 0x5f, 0x6d, 0x6e, 0x69, 0x73, 0x74, 0x5f, 0x31, 0x2f, 0x62, 0x33,
  0x5f, 0x31, 0x5f, 0x65, 0x78, 0x70, 0x5f, 0x62, 0x6e, 0x5f, 0x31, 0x2f,
  0x62, 0x61, 0x74, 0x63, 0x68, 0x6e, 0x6f, 0x72, 0x6d, 0x2f, 0x61, 0x64,
  0x64, 0x5f, 0x31, 0x3b, 0x74, 0x69, 0x6e, 0x79, 0x5f, 0x65, 0x66, 0x66,
  0x69, 0x63, 0x69, 0x65, 0x6e, 0x74, 0x6e, 0x65, 0x74, 0x5f, 0x6d, 0x6e,
  0x69, 0x73, 0x74, 0x5f, 0x31, 0x2f, 0x62, 0x33, 0x5f, 0x31, 0x5f, 0x65,
  0x78, 0x70, 0x5f, 0x31, 0x2f, 0x63, 0x6f, 0x6e, 0x76, 0x6f, 0x6c, 0x75,
  0x74, 0x69, 0x6f, 0x6e, 0x3b, 0x74, 0x69, 0x6e, 0x79, 0x5f, 0x65, 0x66,
  0x66, 0x69, 0x63, 0x69, 0x65, 0x6e, 0x74, 0x6e, 0x65, 0x74, 0x5f, 0x6d,
  0x6e, 0x69, 0x73, 0x74, 0x5f, 0x31, 0x2f, 0x62, 0x33, 0x5f, 0x31, 0x5f,
  0x65, 0x78, 0x70, 0x5f, 0x62, 0x6e, 0x5f, 0x31, 0x2f, 0x62, 0x61, 0x74,
  0x63, 0x68, 0x6e, 0x6f, 0x72, 0x6d, 0x2f, 0x73, 0x75, 0x62, 0x00, 0x00,
  0x04, 0x00, 0x00, 0x00, 0x01, 0x00, 0x00, 0x00, 0x08, 0x00, 0x00, 0x00,
  0x08, 0x00, 0x00, 0x00, 0x20, 0x00, 0x00, 0x00, 0x72, 0xb0, 0xff, 0xff,
  0x00, 0x00, 0x00, 0x01, 0x18, 0x00, 0x00, 0x00, 0x28, 0x00, 0x00, 0x00,
  0x48, 0x00, 0x00, 0x00, 0x50, 0x00, 0x00, 0x00, 0x00, 0x00, 0x00, 0x09,
  0xe0, 0x00, 0x00, 0x00, 0x04, 0x00, 0x00, 0x00, 0xff, 0xff, 0xff, 0xff,
  0x08, 0x00, 0x00, 0x00, 0x08, 0x00, 0x00, 0x00, 0x10, 0x00, 0x00, 0x00,
  0x5c, 0xb0, 0xff, 0xff, 0x08, 0x00, 0x00, 0x00, 0x14, 0x00, 0x00, 0x00,
  0x01, 0x00, 0x00, 0x00, 0x10, 0x00, 0x00, 0x00, 0x00, 0x00, 0x00, 0x00,
  0x00, 0x00, 0x00, 0x00, 0x01, 0x00, 0x00, 0x00, 0xff, 0x02, 0x81, 0x3d,
  0x9e, 0x00, 0x00, 0x00, 0x74, 0x69, 0x6e, 0x79, 0x5f, 0x65, 0x66, 0x66,
  0x69, 0x63, 0x69, 0x65, 0x6e, 0x74, 0x6e, 0x65, 0x74, 0x5f, 0x6d, 0x6e,
  0x69, 0x73, 0x74, 0x5f, 0x31, 0x2f, 0x62, 0x33, 0x5f, 0x30, 0x5f, 0x70,
  0x72, 0x6a, 0x5f, 0x62, 0x6e, 0x5f, 0x31, 0x2f, 0x62, 0x61, 0x74, 0x63,
  0x68, 0x6e, 0x6f, 0x72, 0x6d, 0x2f, 0x61, 0x64, 0x64, 0x5f, 0x31, 0x3b,
  0x74, 0x69, 0x6e, 0x79, 0x5f, 0x65, 0x66, 0x66, 0x69, 0x63, 0x69, 0x65,
  0x6e, 0x74, 0x6e, 0x65, 0x74, 0x5f, 0x6d, 0x6e, 0x69, 0x73, 0x74, 0x5f,
  0x31, 0x2f, 0x62, 0x33, 0x5f, 0x30, 0x5f, 0x70, 0x72, 0x6a, 0x5f, 0x31,
  0x2f, 0x63, 0x6f, 0x6e, 0x76, 0x6f, 0x6c, 0x75, 0x74, 0x69, 0x6f, 0x6e,
  0x3b, 0x74, 0x69, 0x6e, 0x79, 0x5f, 0x65, 0x66, 0x66, 0x69, 0x63, 0x69,
  0x65, 0x6e, 0x74, 0x6e, 0x65, 0x74, 0x5f, 0x6d, 0x6e, 0x69, 0x73, 0x74,
  0x5f, 0x31, 0x2f, 0x62, 0x33, 0x5f, 0x30, 0x5f, 0x70, 0x72, 0x6a, 0x5f,
  0x62, 0x6e, 0x5f, 0x31, 0x2f, 0x62, 0x61, 0x74, 0x63, 0x68, 0x6e, 0x6f,
  0x72, 0x6d, 0x2f, 0x73, 0x75, 0x62, 0x00, 0x00, 0x04, 0x00, 0x00, 0x00,
  0x01, 0x00, 0x00, 0x00, 0x08, 0x00, 0x00, 0x00, 0x08, 0x00, 0x00, 0x00,
  0x10, 0x00, 0x00, 0x00, 0x82, 0xb1, 0xff, 0xff, 0x00, 0x00, 0x00, 0x01,
  0x18, 0x00, 0x00, 0x00, 0x28, 0x00, 0x00, 0x00, 0x48, 0x00, 0x00, 0x00,
  0x4f, 0x00, 0x00, 0x00, 0x00, 0x00, 0x00, 0x09, 0x70, 0x00, 0x00, 0x00,
  0x04, 0x00, 0x00, 0x00, 0xff, 0xff, 0xff, 0xff, 0x08, 0x00, 0x00, 0x00,
  0x08, 0x00, 0x00, 0x00, 0x18, 0x00, 0x00, 0x00, 0x6c, 0xb1, 0xff, 0xff,
  0x08, 0x00, 0x00, 0x00, 0x14, 0x00, 0x00, 0x00, 0x01, 0x00, 0x00, 0x00,
  0x88, 0xff, 0xff, 0xff, 0xff, 0xff, 0xff, 0xff, 0x00, 0x00, 0x00, 0x00,
  0x01, 0x00, 0x00, 0x00, 0x66, 0x6f, 0x07, 0x3d, 0x2d, 0x00, 0x00, 0x00,
  0x74, 0x69, 0x6e, 0x79, 0x5f, 0x65, 0x66, 0x66, 0x69, 0x63, 0x69, 0x65,
  0x6e, 0x74, 0x6e, 0x65, 0x74, 0x5f, 0x6d, 0x6e, 0x69, 0x73, 0x74, 0x5f,
  0x31, 0x2f, 0x62, 0x33, 0x5f, 0x30, 0x5f, 0x64, 0x77, 0x5f, 0x61, 0x63,
  0x74, 0x5f, 0x31, 0x2f, 0x6d, 0x75, 0x6c, 0x5f, 0x31, 0x00, 0x00, 0x00,
  0x04, 0x00, 0x00, 0x00, 0x01, 0x00, 0x00, 0x00, 0x08, 0x00, 0x00, 0x00,
  0x08, 0x00, 0x00, 0x00, 0x18, 0x00, 0x00, 0x00, 0x22, 0xb2, 0xff, 0xff,
  0x00, 0x00, 0x00, 0x01, 0x18, 0x00, 0x00, 0x00, 0x28, 0x00, 0x00, 0x00,
  0x48, 0x00, 0x00, 0x00, 0x4e, 0x00, 0x00, 0x00, 0x00, 0x00, 0x00, 0x09,
  0x70, 0x00, 0x00, 0x00, 0x04, 0x00, 0x00, 0x00, 0xff, 0xff, 0xff, 0xff,
  0x08, 0x00, 0x00, 0x00, 0x08, 0x00, 0x00, 0x00, 0x18, 0x00, 0x00, 0x00,
  0x0c, 0xb2, 0xff, 0xff, 0x08, 0x00, 0x00, 0x00, 0x14, 0x00, 0x00, 0x00,
  0x01, 0x00, 0x00, 0x00, 0x80, 0xff, 0xff, 0xff, 0xff, 0xff, 0xff, 0xff,
  0x00, 0x00, 0x00, 0x00, 0x01, 0x00, 0x00, 0x00, 0x00, 0x00, 0x80, 0x3b,
  0x2f, 0x00, 0x00, 0x00, 0x74, 0x69, 0x6e, 0x79, 0x5f, 0x65, 0x66, 0x66,
  0x69, 0x63, 0x69, 0x65, 0x6e, 0x74, 0x6e, 0x65, 0x74, 0x5f, 0x6d, 0x6e,
  0x69, 0x73, 0x74, 0x5f, 0x31, 0x2f, 0x62, 0x33, 0x5f, 0x30, 0x5f, 0x64,
  0x77, 0x5f, 0x61, 0x63, 0x74, 0x5f, 0x31, 0x2f, 0x53, 0x69, 0x67, 0x6d,
  0x6f, 0x69, 0x64, 0x00, 0x04, 0x00, 0x00, 0x00, 0x01, 0x00, 0x00, 0x00,
  0x08, 0x00, 0x00, 0x00, 0x08, 0x00, 0x00, 0x00, 0x18, 0x00, 0x00, 0x00,
  0xc2, 0xb2, 0xff, 0xff, 0x00, 0x00, 0x00, 0x01, 0x18, 0x00, 0x00, 0x00,
  0x28, 0x00, 0x00, 0x00, 0x48, 0x00, 0x00, 0x00, 0x4d, 0x00, 0x00, 0x00,
  0x00, 0x00, 0x00, 0x09, 0x48, 0x01, 0x00, 0x00, 0x04, 0x00, 0x00, 0x00,
  0xff, 0xff, 0xff, 0xff, 0x08, 0x00, 0x00, 0x00, 0x08, 0x00, 0x00, 0x00,
  0x18, 0x00, 0x00, 0x00, 0xac, 0xb2, 0xff, 0xff, 0x08, 0x00, 0x00, 0x00,
  0x14, 0x00, 0x00, 0x00, 0x01, 0x00, 0x00, 0x00, 0x09, 0x00, 0x00, 0x00,
  0x00, 0x00, 0x00, 0x00, 0x00, 0x00, 0x00, 0x00, 0x01, 0x00, 0x00, 0x00,
  0xb9, 0xa6, 0x8d, 0x3d, 0x05, 0x01, 0x00, 0x00, 0x74, 0x69, 0x6e, 0x79,
  0x5f, 0x65, 0x66, 0x66, 0x69, 0x63, 0x69, 0x65, 0x6e, 0x74, 0x6e, 0x65,
  0x74, 0x5f, 0x6d, 0x6e, 0x69, 0x73, 0x74, 0x5f, 0x31, 0x2f, 0x62, 0x33,
  0x5f, 0x30, 0x5f, 0x64, 0x77, 0x5f, 0x62, 0x6e, 0x5f, 0x31, 0x2f, 0x62,
  0x61, 0x74, 0x63, 0x68, 0x6e, 0x6f, 0x72, 0x6d, 0x2f, 0x61, 0x64, 0x64,
  0x5f, 0x31, 0x3b, 0x74, 0x69, 0x6e, 0x79, 0x5f, 0x65, 0x66, 0x66, 0x69,
  0x63, 0x69, 0x65, 0x6e, 0x74, 0x6e, 0x65, 0x74, 0x5f, 0x6d, 0x6e, 0x69,
  0x73, 0x74, 0x5f, 0x31, 0x2f, 0x62, 0x33, 0x5f, 0x30, 0x5f, 0x64, 0x77,
  0x5f, 0x62, 0x6e, 0x5f, 0x31, 0x2f, 0x62, 0x61, 0x74, 0x63, 0x68, 0x6e,
  0x6f, 0x72, 0x6d, 0x2f, 0x6d, 0x75, 0x6c, 0x5f, 0x31, 0x3b, 0x74, 0x69,
  0x6e, 0x79, 0x5f, 0x65, 0x66, 0x66, 0x69, 0x63, 0x69, 0x65, 0x6e, 0x74,
  0x6e, 0x65, 0x74, 0x5f, 0x6d, 0x6e, 0x69, 0x73, 0x74, 0x5f, 0x31, 0x2f,
  0x62, 0x33, 0x5f, 0x30, 0x5f, 0x64, 0x77, 0x5f, 0x31, 0x2f, 0x64, 0x65,
  0x70, 0x74, 0x68, 0x77, 0x69, 0x73, 0x65, 0x3b, 0x74, 0x69, 0x6e, 0x79,
  0x5f, 0x65, 0x66, 0x66, 0x69, 0x63, 0x69, 0x65, 0x6e, 0x74, 0x6e, 0x65,
  0x74, 0x5f, 0x6d, 0x6e, 0x69, 0x73, 0x74, 0x5f, 0x31, 0x2f, 0x62, 0x33,
  0x5f, 0x30, 0x5f, 0x64, 0x77, 0x5f, 0x62, 0x6e, 0x5f, 0x31, 0x2f, 0x62,
  0x61, 0x74, 0x63, 0x68, 0x6e, 0x6f, 0x72, 0x6d, 0x2f, 0x6d, 0x75, 0x6c,
  0x3b, 0x74, 0x69, 0x6e, 0x79, 0x5f, 0x65, 0x66, 0x66, 0x69, 0x63, 0x69,
  0x65, 0x6e, 0x74, 0x6e, 0x65, 0x74, 0x5f, 0x6d, 0x6e, 0x69, 0x73, 0x74,
  0x5f, 0x31, 0x2f, 0x62, 0x33, 0x5f, 0x30, 0x5f, 0x64, 0x77, 0x5f, 0x62,
  0x6e, 0x5f, 0x31, 0x2f, 0x62, 0x61, 0x74, 0x63, 0x68, 0x6e, 0x6f, 0x72,
  0x6d, 0x2f, 0x73, 0x75, 0x62, 0x00, 0x00, 0x00, 0x04, 0x00, 0x00, 0x00,
  0x01, 0x00, 0x00, 0x00, 0x08, 0x00, 0x00, 0x00, 0x08, 0x00, 0x00, 0x00,
  0x18, 0x00, 0x00, 0x00, 0x3a, 0xb4, 0xff, 0xff, 0x00, 0x00, 0x00, 0x01,
  0x18, 0x00, 0x00, 0x00, 0x28, 0x00, 0x00, 0x00, 0x48, 0x00, 0x00, 0x00,
  0x4c, 0x00, 0x00, 0x00, 0x00, 0x00, 0x00, 0x09, 0x70, 0x00, 0x00, 0x00,
  0x04, 0x00, 0x00, 0x00, 0xff, 0xff, 0xff, 0xff, 0x10, 0x00, 0x00, 0x00,
  0x10, 0x00, 0x00, 0x00, 0x18, 0x00, 0x00, 0x00, 0x24, 0xb4, 0xff, 0xff,
  0x08, 0x00, 0x00, 0x00, 0x14, 0x00, 0x00, 0x00, 0x01, 0x00, 0x00, 0x00,
  0x89, 0xff, 0xff, 0xff, 0xff, 0xff, 0xff, 0xff, 0x00, 0x00, 0x00, 0x00,
  0x01, 0x00, 0x00, 0x00, 0x74, 0x5c, 0x01, 0x3d, 0x2e, 0x00, 0x00, 0x00,
  0x74, 0x69, 0x6e, 0x79, 0x5f, 0x65, 0x66, 0x66, 0x69, 0x63, 0x69, 0x65,
  0x6e, 0x74, 0x6e, 0x65, 0x74, 0x5f, 0x6d, 0x6e, 0x69, 0x73, 0x74, 0x5f,
  0x31, 0x2f, 0x62, 0x33, 0x5f, 0x30, 0x5f, 0x65, 0x78, 0x70, 0x5f, 0x61,
  0x63, 0x74, 0x5f, 0x31, 0x2f, 0x6d, 0x75, 0x6c, 0x5f, 0x31, 0x00, 0x00,
  0x04, 0x00, 0x00, 0x00, 0x01, 0x00, 0x00, 0x00, 0x10, 0x00, 0x00, 0x00,
  0x10, 0x00, 0x00, 0x00, 0x18, 0x00, 0x00, 0x00, 0xda, 0xb4, 0xff, 0xff,
  0x00, 0x00, 0x00, 0x01, 0x18, 0x00, 0x00, 0x00, 0x28, 0x00, 0x00, 0x00,
  0x44, 0x00, 0x00, 0x00, 0x4b, 0x00, 0x00, 0x00, 0x00, 0x00, 0x00, 0x09,
  0x70, 0x00, 0x00, 0x00, 0x04, 0x00, 0x00, 0x00, 0xff, 0xff, 0xff, 0xff,
  0x10, 0x00, 0x00, 0x00, 0x10, 0x00, 0x00, 0x00, 0x18, 0x00, 0x00, 0x00,
  0xc4, 0xb4, 0xff, 0xff, 0x08, 0x00, 0x00, 0x00, 0x10, 0x00, 0x00, 0x00,
  0x01, 0x00, 0x00, 0x00, 0x80, 0xff, 0xff, 0xff, 0xff, 0xff, 0xff, 0xff,
  0x01, 0x00, 0x00, 0x00, 0x00, 0x00, 0x80, 0x3b, 0x30, 0x00, 0x00, 0x00,
  0x74, 0x69, 0x6e, 0x79, 0x5f, 0x65, 0x66, 0x66, 0x69, 0x63, 0x69, 0x65,
  0x6e, 0x74, 0x6e, 0x65, 0x74, 0x5f, 0x6d, 0x6e, 0x69, 0x73, 0x74, 0x5f,
  0x31, 0x2f, 0x62, 0x33, 0x5f, 0x30, 0x5f, 0x65, 0x78, 0x70, 0x5f, 0x61,
  0x63, 0x74, 0x5f, 0x31, 0x2f, 0x53, 0x69, 0x67, 0x6d, 0x6f, 0x69, 0x64,
  0x00, 0x00, 0x00, 0x00, 0x04, 0x00, 0x00, 0x00, 0x01, 0x00, 0x00, 0x00,
  0x10, 0x00, 0x00, 0x00, 0x10, 0x00, 0x00, 0x00, 0x18, 0x00, 0x00, 0x00,
  0x7a, 0xb5, 0xff, 0xff, 0x00, 0x00, 0x00, 0x01, 0x18, 0x00, 0x00, 0x00,
  0x28, 0x00, 0x00, 0x00, 0x48, 0x00, 0x00, 0x00, 0x4a, 0x00, 0x00, 0x00,
  0x00, 0x00, 0x00, 0x09, 0xe0, 0x00, 0x00, 0x00, 0x04, 0x00, 0x00, 0x00,
  0xff, 0xff, 0xff, 0xff, 0x10, 0x00, 0x00, 0x00, 0x10, 0x00, 0x00, 0x00,
  0x18, 0x00, 0x00, 0x00, 0x64, 0xb5, 0xff, 0xff, 0x08, 0x00, 0x00, 0x00,
  0x14, 0x00, 0x00, 0x00, 0x01, 0x00, 0x00, 0x00, 0x08, 0x00, 0x00, 0x00,
  0x00, 0x00, 0x00, 0x00, 0x00, 0x00, 0x00, 0x00, 0x01, 0x00, 0x00, 0x00,
  0x69, 0x61, 0x86, 0x3d, 0x9e, 0x00, 0x00, 0x00, 0x74, 0x69, 0x6e, 0x79,
  0x5f, 0x65, 0x66, 0x66, 0x69, 0x63, 0x69, 0x65, 0x6e, 0x74, 0x6e, 0x65,
  0x74, 0x5f, 0x6d, 0x6e, 0x69, 0x73, 0x74, 0x5f, 0x31, 0x2f, 0x62, 0x33,
  0x5f, 0x30, 0x5f, 0x65, 0x78, 0x70, 0x5f, 0x62, 0x6e, 0x5f, 0x31, 0x2f,
  0x62, 0x61, 0x74, 0x63, 0x68, 0x6e, 0x6f, 0x72, 0x6d, 0x2f, 0x61, 0x64,
  0x64, 0x5f, 0x31, 0x3b, 0x74, 0x69, 0x6e, 0x79, 0x5f, 0x65, 0x66, 0x66,
  0x69, 0x63, 0x69, 0x65, 0x6e, 0x74, 0x6e, 0x65, 0x74, 0x5f, 0x6d, 0x6e,
  0x69, 0x73, 0x74, 0x5f, 0x31, 0x2f, 0x62, 0x33, 0x5f, 0x30, 0x5f, 0x65,
  0x78, 0x70, 0x5f, 0x31, 0x2f, 0x63, 0x6f, 0x6e, 0x76, 0x6f, 0x6c, 0x75,
  0x74, 0x69, 0x6f, 0x6e, 0x3b, 0x74, 0x69, 0x6e, 0x79, 0x5f, 0x65, 0x66,
  0x66, 0x69, 0x63, 0x69, 0x65, 0x6e, 0x74, 0x6e, 0x65, 0x74, 0x5f, 0x6d,
  0x6e, 0x69, 0x73, 0x74, 0x5f, 0x31, 0x2f, 0x62, 0x33, 0x5f, 0x30, 0x5f,
  0x65, 0x78, 0x70, 0x5f, 0x62, 0x6e, 0x5f, 0x31, 0x2f, 0x62, 0x61, 0x74,
  0x63, 0x68, 0x6e, 0x6f, 0x72, 0x6d, 0x2f, 0x73, 0x75, 0x62, 0x00, 0x00,
  0x04, 0x00, 0x00, 0x00, 0x01, 0x00, 0x00, 0x00, 0x10, 0x00, 0x00, 0x00,
  0x10, 0x00, 0x00, 0x00, 0x18, 0x00, 0x00, 0x00, 0x8a, 0xb6, 0xff, 0xff,
  0x00, 0x00, 0x00, 0x01, 0x18, 0x00, 0x00, 0x00, 0x28, 0x00, 0x00, 0x00,
  0x44, 0x00, 0x00, 0x00, 0x49, 0x00, 0x00, 0x00, 0x00, 0x00, 0x00, 0x09,
  0x68, 0x00, 0x00, 0x00, 0x04, 0x00, 0x00, 0x00, 0xff, 0xff, 0xff, 0xff,
  0x10, 0x00, 0x00, 0x00, 0x10, 0x00, 0x00, 0x00, 0x0c, 0x00, 0x00, 0x00,
  0x74, 0xb6, 0xff, 0xff, 0x08, 0x00, 0x00, 0x00, 0x10, 0x00, 0x00, 0x00,
  0x01, 0x00, 0x00, 0x00, 0x04, 0x00, 0x00, 0x00, 0x00, 0x00, 0x00, 0x00,
  0x01, 0x00, 0x00, 0x00, 0xe6, 0xc3, 0x9b, 0x3d, 0x28, 0x00, 0x00, 0x00,
  0x74, 0x69, 0x6e, 0x79, 0x5f, 0x65, 0x66, 0x66, 0x69, 0x63, 0x69, 0x65,
  0x6e, 0x74, 0x6e, 0x65, 0x74, 0x5f, 0x6d, 0x6e, 0x69, 0x73, 0x74, 0x5f,
  0x31, 0x2f, 0x62, 0x32, 0x5f, 0x31, 0x5f, 0x61, 0x64, 0x64, 0x5f, 0x31,
  0x2f, 0x41, 0x64, 0x64, 0x00, 0x00, 0x00, 0x00, 0x04, 0x00, 0x00, 0x00,
  0x01, 0x00, 0x00, 0x00, 0x10, 0x00, 0x00, 0x00, 0x10, 0x00, 0x00, 0x00,
  0x0c, 0x00, 0x00, 0x00, 0x22, 0xb7, 0xff, 0xff, 0x00, 0x00, 0x00, 0x01,
  0x18, 0x00, 0x00, 0x00, 0x28, 0x00, 0x00, 0x00, 0x48, 0x00, 0x00, 0x00,
  0x48, 0x00, 0x00, 0x00, 0x00, 0x00, 0x00, 0x09, 0xe0, 0x00, 0x00, 0x00,
  0x04, 0x00, 0x00, 0x00, 0xff, 0xff, 0xff, 0xff, 0x10, 0x00, 0x00, 0x00,
  0x10, 0x00, 0x00, 0x00, 0x0c, 0x00, 0x00, 0x00, 0x0c, 0xb7, 0xff, 0xff,
  0x08, 0x00, 0x00, 0x00, 0x14, 0x00, 0x00, 0x00, 0x01, 0x00, 0x00, 0x00,
  0x04, 0x00, 0x00, 0x00, 0x00, 0x00, 0x00, 0x00, 0x00, 0x00, 0x00, 0x00,
  0x01, 0x00, 0x00, 0x00, 0xe6, 0xc3, 0x9b, 0x3d, 0x9e, 0x00, 0x00, 0x00,
  0x74, 0x69, 0x6e, 0x79, 0x5f, 0x65, 0x66, 0x66, 0x69, 0x63, 0x69, 0x65,
  0x6e, 0x74, 0x6e, 0x65, 0x74, 0x5f, 0x6d, 0x6e, 0x69, 0x73, 0x74, 0x5f,
  0x31, 0x2f, 0x62, 0x32, 0x5f, 0x31, 0x5f, 0x70, 0x72, 0x6a, 0x5f, 0x62,
  0x6e, 0x5f, 0x31, 0x2f, 0x62, 0x61, 0x74, 0x63, 0x68, 0x6e, 0x6f, 0x72,
  0x6d, 0x2f, 0x61, 0x64, 0x64, 0x5f, 0x31, 0x3b, 0x74, 0x69, 0x6e, 0x79,
  0x5f, 0x65, 0x66, 0x66, 0x69, 0x63, 0x69, 0x65, 0x6e, 0x74, 0x6e, 0x65,
  0x74, 0x5f, 0x6d, 0x6e, 0x69, 0x73, 0x74, 0x5f, 0x31, 0x2f, 0x62, 0x32,
  0x5f, 0x31, 0x5f, 0x70, 0x72, 0x6a, 0x5f, 0x31, 0x2f, 0x63, 0x6f, 0x6e,
  0x76, 0x6f, 0x6c, 0x75, 0x74, 0x69, 0x6f, 0x6e, 0x3b, 0x74, 0x69, 0x6e,
  0x79, 0x5f, 0x65, 0x66, 0x66, 0x69, 0x63, 0x69, 0x65, 0x6e, 0x74, 0x6e,
  0x65, 0x74, 0x5f, 0x6d, 0x6e, 0x69, 0x73, 0x74, 0x5f, 0x31, 0x2f, 0x62,
  0x32, 0x5f, 0x31, 0x5f, 0x70, 0x72, 0x6a, 0x5f, 0x62, 0x6e, 0x5f, 0x31,
  0x2f, 0x62, 0x61, 0x74, 0x63, 0x68, 0x6e, 0x6f, 0x72, 0x6d, 0x2f, 0x73,
  0x75, 0x62, 0x00, 0x00, 0x04, 0x00, 0x00, 0x00, 0x01, 0x00, 0x00, 0x00,
  0x10, 0x00, 0x00, 0x00, 0x10, 0x00, 0x00, 0x00, 0x0c, 0x00, 0x00, 0x00,
  0x32, 0xb8, 0xff, 0xff, 0x00, 0x00, 0x00, 0x01, 0x18, 0x00, 0x00, 0x00,
  0x28, 0x00, 0x00, 0x00, 0x48, 0x00, 0x00, 0x00, 0x47, 0x00, 0x00, 0x00,
  0x00, 0x00, 0x00, 0x09, 0x70, 0x00, 0x00, 0x00, 0x04, 0x00, 0x00, 0x00,
  0xff, 0xff, 0xff, 0xff, 0x10, 0x00, 0x00, 0x00, 0x10, 0x00, 0x00, 0x00,
  0x18, 0x00, 0x00, 0x00, 0x1c, 0xb8, 0xff, 0xff, 0x08, 0x00, 0x00, 0x00,
  0x14, 0x00, 0x00, 0x00, 0x01, 0x00, 0x00, 0x00, 0x88, 0xff, 0xff, 0xff,
  0xff, 0xff, 0xff, 0xff, 0x00, 0x00, 0x00, 0x00, 0x01, 0x00, 0x00, 0x00,
  0x2f, 0x2e, 0x08, 0x3d, 0x2d, 0x00, 0x00, 0x00, 0x74, 0x69, 0x6e, 0x79,
  0x5f, 0x65, 0x66, 0x66, 0x69, 0x63, 0x69, 0x65, 0x6e, 0x74, 0x6e, 0x65,
  0x74, 0x5f, 0x6d, 0x6e, 0x69, 0x73, 0x74, 0x5f, 0x31, 0x2f, 0x62, 0x32,
  0x5f, 0x31, 0x5f, 0x64, 0x77, 0x5f, 0x61, 0x63, 0x74, 0x5f, 0x31, 0x2f,
  0x6d, 0x75, 0x6c, 0x5f, 0x31, 0x00, 0x00, 0x00, 0x04, 0x00, 0x00, 0x00,
  0x01, 0x00, 0x00, 0x00, 0x10, 0x00, 0x00, 0x00, 0x10, 0x00, 0x00, 0x00,
  0x18, 0x00, 0x00, 0x00, 0xd2, 0xb8, 0xff, 0xff, 0x00, 0x00, 0x00, 0x01,
  0x18, 0x00, 0x00, 0x00, 0x28, 0x00, 0x00, 0x00, 0x48, 0x00, 0x00, 0x00,
  0x46, 0x00, 0x00, 0x00, 0x00, 0x00, 0x00, 0x09, 0x70, 0x00, 0x00, 0x00,
  0x04, 0x00, 0x00, 0x00, 0xff, 0xff, 0xff, 0xff, 0x10, 0x00, 0x00, 0x00,
  0x10, 0x00, 0x00, 0x00, 0x18, 0x00, 0x00, 0x00, 0xbc, 0xb8, 0xff, 0xff,
  0x08, 0x00, 0x00, 0x00, 0x14, 0x00, 0x00, 0x00, 0x01, 0x00, 0x00, 0x00,
  0x80, 0xff, 0xff, 0xff, 0xff, 0xff, 0xff, 0xff, 0x00, 0x00, 0x00, 0x00,
  0x01, 0x00, 0x00, 0x00, 0x00, 0x00, 0x80, 0x3b, 0x2f, 0x00, 0x00, 0x00,
  0x74, 0x69, 0x6e, 0x79, 0x5f, 0x65, 0x66, 0x66, 0x69, 0x63, 0x69, 0x65,
  0x6e, 0x74, 0x6e, 0x65, 0x74, 0x5f, 0x6d, 0x6e, 0x69, 0x73, 0x74, 0x5f,
  0x31, 0x2f, 0x62, 0x32, 0x5f, 0x31, 0x5f, 0x64, 0x77, 0x5f, 0x61, 0x63,
  0x74, 0x5f, 0x31, 0x2f, 0x53, 0x69, 0x67, 0x6d, 0x6f, 0x69, 0x64, 0x00,
  0x04, 0x00, 0x00, 0x00, 0x01, 0x00, 0x00, 0x00, 0x10, 0x00, 0x00, 0x00,
  0x10, 0x00, 0x00, 0x00, 0x18, 0x00, 0x00, 0x00, 0x72, 0xb9, 0xff, 0xff,
  0x00, 0x00, 0x00, 0x01, 0x18, 0x00, 0x00, 0x00, 0x28, 0x00, 0x00, 0x00,
  0x48, 0x00, 0x00, 0x00, 0x45, 0x00, 0x00, 0x00, 0x00, 0x00, 0x00, 0x09,
  0x48, 0x01, 0x00, 0x00, 0x04, 0x00, 0x00, 0x00, 0xff, 0xff, 0xff, 0xff,
