unsigned char mnist_hu_int8_tflite[] = {
  0x1c, 0x00, 0x00, 0x00, 0x54, 0x46, 0x4c, 0x33, 0x14, 0x00, 0x20, 0x00,
  0x1c, 0x00, 0x18, 0x00, 0x14, 0x00, 0x10, 0x00, 0x0c, 0x00, 0x00, 0x00,
  0x08, 0x00, 0x04, 0x00, 0x14, 0x00, 0x00, 0x00, 0x1c, 0x00, 0x00, 0x00,
  0x94, 0x00, 0x00, 0x00, 0xec, 0x00, 0x00, 0x00, 0x08, 0x33, 0x00, 0x00,
  0x18, 0x33, 0x00, 0x00, 0x94, 0x4d, 0x00, 0x00, 0x03, 0x00, 0x00, 0x00,
  0x01, 0x00, 0x00, 0x00, 0x10, 0x00, 0x00, 0x00, 0x00, 0x00, 0x0a, 0x00,
  0x10, 0x00, 0x0c, 0x00, 0x08, 0x00, 0x04, 0x00, 0x0a, 0x00, 0x00, 0x00,
  0x0c, 0x00, 0x00, 0x00, 0x1c, 0x00, 0x00, 0x00, 0x3c, 0x00, 0x00, 0x00,
  0x0f, 0x00, 0x00, 0x00, 0x73, 0x65, 0x72, 0x76, 0x69, 0x6e, 0x67, 0x5f,
  0x64, 0x65, 0x66, 0x61, 0x75, 0x6c, 0x74, 0x00, 0x01, 0x00, 0x00, 0x00,
  0x04, 0x00, 0x00, 0x00, 0x94, 0xff, 0xff, 0xff, 0x0a, 0x00, 0x00, 0x00,
  0x04, 0x00, 0x00, 0x00, 0x08, 0x00, 0x00, 0x00, 0x6f, 0x75, 0x74, 0x70,
  0x75, 0x74, 0x5f, 0x30, 0x00, 0x00, 0x00, 0x00, 0x01, 0x00, 0x00, 0x00,
  0x04, 0x00, 0x00, 0x00, 0xde, 0xcc, 0xff, 0xff, 0x04, 0x00, 0x00, 0x00,
  0x0b, 0x00, 0x00, 0x00, 0x69, 0x6e, 0x70, 0x75, 0x74, 0x5f, 0x6c, 0x61,
  0x79, 0x65, 0x72, 0x00, 0x02, 0x00, 0x00, 0x00, 0x34, 0x00, 0x00, 0x00,
  0x04, 0x00, 0x00, 0x00, 0xdc, 0xff, 0xff, 0xff, 0x0d, 0x00, 0x00, 0x00,
  0x04, 0x00, 0x00, 0x00, 0x13, 0x00, 0x00, 0x00, 0x43, 0x4f, 0x4e, 0x56,
  0x45, 0x52, 0x53, 0x49, 0x4f, 0x4e, 0x5f, 0x4d, 0x45, 0x54, 0x41, 0x44,
  0x41, 0x54, 0x41, 0x00, 0x08, 0x00, 0x0c, 0x00, 0x08, 0x00, 0x04, 0x00,
  0x08, 0x00, 0x00, 0x00, 0x0c, 0x00, 0x00, 0x00, 0x04, 0x00, 0x00, 0x00,
  0x13, 0x00, 0x00, 0x00, 0x6d, 0x69, 0x6e, 0x5f, 0x72, 0x75, 0x6e, 0x74,
  0x69, 0x6d, 0x65, 0x5f, 0x76, 0x65, 0x72, 0x73, 0x69, 0x6f, 0x6e, 0x00,
  0x0e, 0x00, 0x00, 0x00, 0x18, 0x32, 0x00, 0x00, 0x10, 0x32, 0x00, 0x00,
  0xd8, 0x31, 0x00, 0x00, 0xe0, 0x2d, 0x00, 0x00, 0x40, 0x2c, 0x00, 0x00,
  0x20, 0x05, 0x00, 0x00, 0x80, 0x03, 0x00, 0x00, 0xb4, 0x00, 0x00, 0x00,
  0xac, 0x00, 0x00, 0x00, 0xa4, 0x00, 0x00, 0x00, 0x9c, 0x00, 0x00, 0x00,
  0x94, 0x00, 0x00, 0x00, 0x74, 0x00, 0x00, 0x00, 0x04, 0x00, 0x00, 0x00,
  0x8e, 0xcd, 0xff, 0xff, 0x04, 0x00, 0x00, 0x00, 0x60, 0x00, 0x00, 0x00,
  0x0c, 0x00, 0x00, 0x00, 0x08, 0x00, 0x0e, 0x00, 0x08, 0x00, 0x04, 0x00,
  0x08, 0x00, 0x00, 0x00, 0x10, 0x00, 0x00, 0x00, 0x28, 0x00, 0x00, 0x00,
  0x00, 0x00, 0x06, 0x00, 0x08, 0x00, 0x04, 0x00, 0x06, 0x00, 0x00, 0x00,
  0x04, 0x00, 0x00, 0x00, 0x01, 0x00, 0x00, 0x00, 0xeb, 0x03, 0x00, 0x00,
  0x0c, 0x00, 0x18, 0x00, 0x14, 0x00, 0x10, 0x00, 0x0c, 0x00, 0x04, 0x00,
  0x0c, 0x00, 0x00, 0x00, 0xb4, 0x8b, 0x48, 0xaf, 0xd7, 0x5b, 0xab, 0x20,
  0x02, 0x00, 0x00, 0x00, 0x02, 0x00, 0x00, 0x00, 0x04, 0x00, 0x00, 0x00,
  0x06, 0x00, 0x00, 0x00, 0x32, 0x2e, 0x32, 0x30, 0x2e, 0x30, 0x00, 0x00,
  0xfa, 0xcd, 0xff, 0xff, 0x04, 0x00, 0x00, 0x00, 0x10, 0x00, 0x00, 0x00,
  0x31, 0x2e, 0x31, 0x34, 0x2e, 0x30, 0x00, 0x00, 0x00, 0x00, 0x00, 0x00,
  0x00, 0x00, 0x00, 0x00, 0xe4, 0xcd, 0xff, 0xff, 0xe8, 0xcd, 0xff, 0xff,
  0xec, 0xcd, 0xff, 0xff, 0xf0, 0xcd, 0xff, 0xff, 0x26, 0xce, 0xff, 0xff,
  0x04, 0x00, 0x00, 0x00, 0xbc, 0x02, 0x00, 0x00, 0x00, 0x01, 0xfe, 0xe2,
  0x0a, 0xe6, 0x7f, 0x01, 0x05, 0x0a, 0x47, 0xdb, 0x9a, 0x81, 0x81, 0x8c,
  0x7b, 0xa6, 0x86, 0x82, 0x09, 0xfd, 0x04, 0x20, 0x8f, 0xb2, 0x7f, 0x5a,
  0x00, 0x0d, 0x22, 0xd6, 0x26, 0xce, 0x7f, 0xff, 0x05, 0x0a, 0x35, 0x03,
  0x81, 0x91, 0x96, 0x72, 0x2f, 0xec, 0x81, 0x5c, 0x40, 0xb6, 0xd7, 0x1c,
  0x7f, 0x55, 0x5a, 0x3e, 0xb7, 0x25, 0x7c, 0x4b, 0x81, 0x4c, 0xe1, 0x20,
  0x21, 0x0c, 0x05, 0xcb, 0x81, 0x5a, 0x03, 0xff, 0x09, 0xeb, 0xff, 0x25,
  0x7f, 0xae, 0x81, 0x39, 0x69, 0xe3, 0x3a, 0x4e, 0x08, 0xf4, 0x05, 0xe4,
  0xa6, 0x92, 0x81, 0x00, 0x01, 0x02, 0xb4, 0x2a, 0x63, 0x7f, 0xdb, 0xda,
  0x1e, 0x7f, 0xb7, 0x0b, 0x4b, 0x02, 0xfd, 0xfa, 0xef, 0x1d, 0xe8, 0x7f,
  0x81, 0xd4, 0x24, 0x73, 0x0b, 0x7c, 0xeb, 0x06, 0xfb, 0xfb, 0x7f, 0x8f,
  0x96, 0xc4, 0x02, 0xfe, 0xf7, 0xe2, 0xfa, 0x81, 0x4c, 0x00, 0x00, 0xfe,
  0xa5, 0xb8, 0xfc, 0x7f, 0xab, 0xcd, 0x7f, 0xd8, 0x78, 0x75, 0x6e, 0x19,
  0x22, 0x26, 0x31, 0xd1, 0x81, 0x1c, 0x03, 0xfc, 0x03, 0x06, 0xfc, 0xbc,
  0x81, 0x00, 0x02, 0x10, 0x08, 0xd8, 0x8f, 0x81, 0xe8, 0x01, 0x94, 0xb1,
  0x93, 0x10, 0x81, 0x02, 0x03, 0x0e, 0xf6, 0x09, 0x19, 0x7f, 0xff, 0x01,
  0x01, 0xc2, 0xee, 0xe0, 0x7f, 0xaa, 0xdc, 0xa0, 0x7f, 0xf8, 0x58, 0xd2,
  0xf5, 0x12, 0xd4, 0x81, 0xd4, 0xca, 0x61, 0xc8, 0x8e, 0xa5, 0x8f, 0xd4,
  0x7f, 0x4f, 0x02, 0x05, 0x0a, 0x53, 0xf4, 0x81, 0xac, 0xff, 0x01, 0xf8,
  0x81, 0xad, 0xf9, 0x5f, 0x81, 0x61, 0xbf, 0x95, 0x44, 0x04, 0x48, 0x01,
  0xf6, 0xe4, 0x22, 0x0e, 0x7f, 0x51, 0xad, 0xf7, 0xc5, 0x7f, 0x78, 0x1a,
  0x67, 0x01, 0xfe, 0xc8, 0xcf, 0x11, 0x6c, 0x7f, 0xcb, 0x14, 0x68, 0xe1,
  0x81, 0x2e, 0xcb, 0x10, 0xe1, 0xf8, 0x97, 0xc7, 0x81, 0x4e, 0x03, 0x09,
  0xea, 0x52, 0x23, 0xed, 0x81, 0xb1, 0x1d, 0x81, 0xa8, 0xf7, 0x8a, 0x47,
  0xff, 0x00, 0xf5, 0x11, 0x12, 0xc6, 0x81, 0xd9, 0x8e, 0xdd, 0xc3, 0x8d,
  0x7f, 0xa6, 0x03, 0x0c, 0x3d, 0xe2, 0x9d, 0x53, 0x7f, 0xce, 0x13, 0x55,
  0xbf, 0x49, 0x81, 0xe8, 0x05, 0xf5, 0x12, 0xc2, 0x81, 0xcd, 0xf4, 0x03,
  0x00, 0xe1, 0x1e, 0x20, 0x81, 0xdc, 0x00, 0x0a, 0xec, 0x1f, 0x33, 0x81,
  0x87, 0x04, 0xf1, 0x29, 0xc8, 0x9e, 0x7f, 0x65, 0xa1, 0x19, 0x7f, 0x29,
  0xeb, 0xe2, 0xc9, 0x9b, 0x56, 0xed, 0x7f, 0x34, 0x78, 0xa1, 0x01, 0x07,
  0xfc, 0xd9, 0x22, 0xe1, 0x7f, 0xbd, 0x0c, 0x0d, 0x34, 0x7f, 0xe5, 0x03,
  0xab, 0x0d, 0x74, 0x9c, 0x7a, 0x59, 0x81, 0xac, 0x81, 0xde, 0x87, 0xaa,
  0x83, 0x5b, 0x01, 0x03, 0xfe, 0xde, 0x0e, 0xf6, 0x7f, 0x06, 0xfd, 0xd9,
  0x01, 0x06, 0x81, 0xc8, 0x8a, 0x67, 0x39, 0xae, 0xb8, 0x81, 0x47, 0xe5,
  0xe2, 0xad, 0x0b, 0x78, 0x81, 0x37, 0x02, 0xfd, 0x03, 0xc5, 0xf6, 0x65,
  0x7f, 0xae, 0x27, 0x1f, 0x0a, 0x8b, 0x81, 0xa1, 0xff, 0x00, 0xf5, 0x0d,
  0x00, 0xb6, 0x81, 0xfb, 0x0d, 0x0c, 0xa7, 0xbd, 0x7f, 0x27, 0x81, 0xac,
  0xef, 0x32, 0x65, 0xb9, 0x8d, 0x01, 0xfe, 0xf9, 0xe2, 0x1d, 0x57, 0x7f,
  0x00, 0x03, 0x0d, 0x20, 0xb6, 0xb1, 0x81, 0x81, 0xb6, 0x43, 0xcd, 0x3f,
  0x6f, 0x96, 0xd4, 0xa4, 0x8b, 0xbd, 0x7f, 0x66, 0x5d, 0x00, 0xf3, 0xec,
  0x07, 0xe8, 0xef, 0x81, 0x00, 0x07, 0xf1, 0x1f, 0x36, 0x98, 0x81, 0xff,
  0xfd, 0x0d, 0x15, 0xae, 0x37, 0x81, 0xfe, 0x0e, 0x08, 0xe3, 0xf0, 0x7f,
  0xf7, 0x9f, 0x01, 0x24, 0x5b, 0xc6, 0x58, 0x81, 0x08, 0x07, 0xf9, 0x85,
  0xc2, 0x59, 0x7f, 0xfc, 0x09, 0xee, 0x27, 0x21, 0xeb, 0x81, 0x07, 0x04,
  0xd9, 0x43, 0x29, 0x81, 0x81, 0x02, 0xfb, 0x11, 0xf0, 0xbc, 0x7d, 0x7f,
  0xbf, 0x89, 0x8a, 0xe0, 0x93, 0x7f, 0xca, 0x82, 0xf8, 0xb7, 0x21, 0xd6,
  0x81, 0x3a, 0xd5, 0x46, 0x59, 0xa9, 0xbd, 0xd1, 0x7f, 0x81, 0x6a, 0x56,
  0xc2, 0x5d, 0x90, 0xa0, 0x81, 0x41, 0xd6, 0x33, 0xe8, 0xab, 0x61, 0xff,
  0x05, 0x0a, 0x13, 0xec, 0xe3, 0x81, 0x00, 0x01, 0x00, 0xc1, 0xde, 0xa1,
  0x7f, 0x02, 0x09, 0x0c, 0xcf, 0x0d, 0x10, 0x7f, 0xa7, 0xd7, 0x67, 0xb4,
  0xad, 0x89, 0x7f, 0xb3, 0xf2, 0x81, 0x09, 0x37, 0x77, 0xbf, 0x89, 0xbd,
  0xc2, 0xa2, 0x8d, 0x7f, 0x21, 0x01, 0x03, 0x21, 0xfd, 0x81, 0x10, 0xdf,
  0x9e, 0xf2, 0xd4, 0x81, 0xbf, 0x06, 0x6f, 0x00, 0x03, 0x0b, 0x28, 0xe1,
  0x92, 0x81, 0x00, 0xff, 0xff, 0xd5, 0x1b, 0x51, 0x7f, 0x02, 0xfd, 0xdc,
  0xce, 0xd5, 0xc1, 0x7f, 0x01, 0xfb, 0x0b, 0xd4, 0xae, 0x81, 0xcc, 0x05,
  0xf2, 0x01, 0x70, 0x81, 0xd6, 0xe5, 0x01, 0xff, 0xfc, 0xe5, 0x0e, 0x4d,
  0x7f, 0x01, 0xf7, 0xf8, 0x13, 0xb9, 0x7f, 0xac, 0x03, 0xfa, 0xf9, 0x1c,
  0xdf, 0x42, 0x7f, 0x81, 0xf7, 0x43, 0x54, 0x7d, 0xfc, 0xc8, 0x02, 0x07,
  0x13, 0xed, 0x0d, 0x0f, 0x7f, 0xc6, 0xe1, 0x78, 0x75, 0x84, 0x7f, 0xa9,
  0xee, 0xd0, 0xff, 0xff, 0x04, 0x00, 0x00, 0x00, 0x90, 0x01, 0x00, 0x00,
  0x15, 0x00, 0x00, 0x00, 0xc8, 0xff, 0xff, 0xff, 0x00, 0x00, 0x00, 0x00,
  0x8c, 0x01, 0x00, 0x00, 0xed, 0xff, 0xff, 0xff, 0x9b, 0x00, 0x00, 0x00,
  0x00, 0x00, 0x00, 0x00, 0x00, 0x00, 0x00, 0x00, 0x00, 0x00, 0x00, 0x00,
  0x8d, 0xf0, 0xff, 0xff, 0xe3, 0xfe, 0xff, 0xff, 0x00, 0x00, 0x00, 0x00,
  0x0a, 0xfd, 0xff, 0xff, 0x30, 0x00, 0x00, 0x00, 0x00, 0x00, 0x00, 0x00,
  0x96, 0xff, 0xff, 0xff, 0x00, 0x00, 0x00, 0x00, 0x22, 0x02, 0x00, 0x00,
  0x91, 0xff, 0xff, 0xff, 0x3c, 0x00, 0x00, 0x00, 0x00, 0x00, 0x00, 0x00,
  0x0f, 0xf0, 0xff, 0xff, 0xdf, 0xfe, 0xff, 0xff, 0x0b, 0x00, 0x00, 0x00,
  0x00, 0x00, 0x00, 0x00, 0x66, 0xff, 0xff, 0xff, 0x71, 0x00, 0x00, 0x00,
  0x00, 0x00, 0x00, 0x00, 0x24, 0x04, 0x00, 0x00, 0x00, 0x00, 0x00, 0x00,
  0xef, 0xff, 0xff, 0xff, 0x7a, 0x00, 0x00, 0x00, 0x00, 0x00, 0x00, 0x00,
  0xf7, 0x01, 0x00, 0x00, 0x00, 0x00, 0x00, 0x00, 0xe9, 0xff, 0xff, 0xff,
  0x00, 0x00, 0x00, 0x00, 0x49, 0xfb, 0xff, 0xff, 0x39, 0x04, 0x00, 0x00,
  0x00, 0x00, 0x00, 0x00, 0xe3, 0x00, 0x00, 0x00, 0x00, 0x00, 0x00, 0x00,
  0x98, 0xff, 0xff, 0xff, 0x00, 0x00, 0x00, 0x00, 0x5b, 0x00, 0x00, 0x00,
  0x1e, 0xff, 0xff, 0xff, 0xe8, 0xff, 0xff, 0xff, 0x9a, 0x01, 0x00, 0x00,
  0x00, 0x00, 0x00, 0x00, 0x00, 0x00, 0x00, 0x00, 0xa6, 0xff, 0xff, 0xff,
  0x00, 0x00, 0x00, 0x00, 0x00, 0x00, 0x00, 0x00, 0x00, 0x00, 0x00, 0x00,
  0xdd, 0xff, 0xff, 0xff, 0xf7, 0xff, 0xff, 0xff, 0x00, 0x00, 0x00, 0x00,
  0x00, 0x00, 0x00, 0x00, 0x79, 0x00, 0x00, 0x00, 0x00, 0x00, 0x00, 0x00,
  0x8a, 0x00, 0x00, 0x00, 0x65, 0x02, 0x00, 0x00, 0x00, 0x00, 0x00, 0x00,
  0xc4, 0x00, 0x00, 0x00, 0x96, 0x00, 0x00, 0x00, 0x00, 0x00, 0x00, 0x00,
  0x00, 0x00, 0x00, 0x00, 0xc7, 0x01, 0x00, 0x00, 0x37, 0x01, 0x00, 0x00,
  0xf4, 0x03, 0x00, 0x00, 0xb8, 0x00, 0x00, 0x00, 0x00, 0x00, 0x00, 0x00,
  0xd5, 0xfd, 0xff, 0xff, 0xb6, 0x01, 0x00, 0x00, 0xd4, 0xfd, 0xff, 0xff,
  0x14, 0x02, 0x00, 0x00, 0x00, 0x00, 0x00, 0x00, 0x00, 0x00, 0x00, 0x00,
  0x31, 0xeb, 0xff, 0xff, 0x00, 0x00, 0x00, 0x00, 0x00, 0x00, 0x00, 0x00,
  0x51, 0x01, 0x00, 0x00, 0x79, 0x00, 0x00, 0x00, 0x7f, 0xff, 0xff, 0xff,
  0x00, 0x00, 0x00, 0x00, 0x00, 0x00, 0x00, 0x00, 0x00, 0x00, 0x00, 0x00,
  0x51, 0x00, 0x00, 0x00, 0x00, 0x00, 0x00, 0x00, 0x2a, 0x00, 0x00, 0x00,
  0x1f, 0x00, 0x00, 0x00, 0xbd, 0xff, 0xff, 0xff, 0x0d, 0x00, 0x00, 0x00,
  0x74, 0x05, 0x00, 0x00, 0xf2, 0xff, 0xff, 0xff, 0x90, 0x04, 0x00, 0x00,
  0xe5, 0xff, 0xff, 0xff, 0x00, 0x00, 0x00, 0x00, 0x53, 0xff, 0xff, 0xff,
  0x14, 0xf6, 0xff, 0xff, 0x8a, 0xd2, 0xff, 0xff, 0x04, 0x00, 0x00, 0x00,
  0x10, 0x27, 0x00, 0x00, 0x1a, 0x13, 0x02, 0x18, 0x1d, 0x16, 0x05, 0xf9,
  0xf5, 0xf0, 0x27, 0x08, 0x06, 0x4b, 0xf6, 0xeb, 0x01, 0x04, 0xe1, 0x08,
  0xfa, 0xe2, 0xcb, 0x11, 0x02, 0x16, 0x15, 0xfa, 0x81, 0xf6, 0x01, 0xf9,
  0xf8, 0xff, 0x03, 0x3b, 0x03, 0x02, 0x0b, 0x06, 0xe3, 0x0a, 0x31, 0xf8,
  0x10, 0xed, 0xf1, 0x15, 0x02, 0x01, 0x20, 0x00, 0xfa, 0x08, 0x25, 0xfe,
  0x0b, 0xfe, 0x1b, 0xf9, 0xd2, 0x40, 0x08, 0x0d, 0x1f, 0xfd, 0x04, 0xdb,
  0xe9, 0x01, 0x27, 0x0b, 0x19, 0xeb, 0xff, 0x0a, 0x03, 0x05, 0xf8, 0x05,
  0x03, 0x12, 0x0f, 0x2e, 0x04, 0x0b, 0xfd, 0x1b, 0xff, 0x0e, 0xe0, 0x1b,
  0xfd, 0xf9, 0x17, 0xfc, 0x03, 0x05, 0x2c, 0x02, 0xe7, 0xfd, 0xfe, 0x2a,
  0x03, 0x00, 0xff, 0xf6, 0x07, 0x22, 0x07, 0xf6, 0x0a, 0xb5, 0x04, 0xfe,
  0x00, 0x10, 0xe7, 0xa1, 0xfd, 0x24, 0xce, 0x16, 0x07, 0x00, 0xc4, 0x04,
  0x97, 0x01, 0x06, 0x81, 0x05, 0x0d, 0x06, 0x38, 0xf8, 0x00, 0xfe, 0xfc,
  0xef, 0x01, 0x0d, 0xfb, 0x15, 0x10, 0x18, 0x08, 0xff, 0x0b, 0xf3, 0xf5,
  0xfc, 0x02, 0xf2, 0x0f, 0x0a, 0xfd, 0x13, 0x04, 0xdc, 0xea, 0x08, 0x0f,
  0x15, 0x05, 0x07, 0x16, 0xe5, 0x00, 0xc1, 0xf6, 0x0e, 0xa8, 0x00, 0x02,
  0x05, 0x01, 0xf8, 0x06, 0x07, 0xf3, 0xe2, 0xff, 0x02, 0xf7, 0x09, 0x0b,
  0xf7, 0x10, 0xd9, 0x12, 0x3c, 0x0f, 0x12, 0x02, 0xfb, 0xf5, 0xfc, 0x03,
  0x0d, 0x0f, 0xfa, 0xb6, 0x08, 0x17, 0x04, 0x01, 0xff, 0x14, 0xfc, 0x04,
  0xf4, 0x81, 0xfc, 0x10, 0x05, 0x0b, 0x31, 0xfb, 0x03, 0x1b, 0xeb, 0x0b,
  0xff, 0x05, 0xff, 0xfc, 0x24, 0x05, 0x12, 0xe4, 0xfd, 0xf9, 0xff, 0xfb,
  0xfd, 0xfb, 0x09, 0x01, 0x25, 0xfb, 0xf8, 0x02, 0x02, 0x34, 0x36, 0xe9,
  0xfb, 0x06, 0x14, 0xfe, 0xfe, 0xfb, 0x09, 0x0c, 0x05, 0xfe, 0xe1, 0xfb,
  0x39, 0xcb, 0xff, 0xef, 0x0b, 0xfc, 0xff, 0x05, 0x19, 0xf8, 0xde, 0x04,
  0xfe, 0xf7, 0x1e, 0xfc, 0x02, 0xfb, 0x05, 0x05, 0x03, 0x09, 0x10, 0x02,
  0x01, 0x00, 0xff, 0x00, 0xfc, 0x17, 0xc5, 0x14, 0xfe, 0x00, 0xe2, 0xf5,
  0xfb, 0xfc, 0xfe, 0x05, 0x45, 0x51, 0x1c, 0x1e, 0x15, 0xec, 0xaa, 0x7e,
  0x8a, 0x47, 0x81, 0xcc, 0x49, 0x3e, 0x37, 0x26, 0x7b, 0x7b, 0xb8, 0x4a,
  0x59, 0x96, 0xda, 0xd1, 0xfc, 0x12, 0x87, 0xbe, 0xa9, 0xbf, 0x95, 0xcc,
  0xb0, 0xe8, 0xd2, 0x49, 0xc8, 0xc9, 0xae, 0xb7, 0x8c, 0x90, 0x75, 0xb8,
  0xc6, 0x2a, 0x81, 0xc0, 0x41, 0x27, 0xd2, 0x3c, 0xca, 0xdd, 0xf5, 0x78,
  0x6b, 0xa1, 0x2f, 0x1b, 0x39, 0xf6, 0x8b, 0x9c, 0x67, 0x24, 0x11, 0xed,
  0x7c, 0x93, 0x94, 0x9b, 0xef, 0x5d, 0xae, 0x06, 0x17, 0x7a, 0xf0, 0x6e,
  0x53, 0xa2, 0x22, 0xc2, 0xc1, 0x2d, 0x7e, 0xd6, 0x22, 0xec, 0x88, 0x76,
  0xda, 0x30, 0x92, 0xa3, 0xdf, 0x39, 0x22, 0x5b, 0xe5, 0xfd, 0xfd, 0x1b,
  0xf8, 0x00, 0x00, 0xfd, 0x05, 0xf2, 0xeb, 0xfc, 0x01, 0x81, 0xfc, 0xe3,
  0xfd, 0x04, 0xf2, 0xa4, 0x05, 0xea, 0x00, 0x0a, 0xfc, 0xf0, 0xe1, 0xfd,
  0xa9, 0x01, 0xf9, 0xae, 0x03, 0x0e, 0xfc, 0xce, 0xfe, 0xff, 0x0a, 0x00,
  0x12, 0xfd, 0xf5, 0x04, 0x0b, 0xfa, 0x04, 0x06, 0xfc, 0x02, 0xf1, 0x02,
  0xfd, 0x04, 0xe6, 0x07, 0xff, 0x02, 0x06, 0xfc, 0x1d, 0xe6, 0xfb, 0x07,
  0x0b, 0x05, 0xff, 0x11, 0x00, 0x14, 0xdb, 0x05, 0xff, 0x08, 0xfc, 0x04,
  0xff, 0xfd, 0x01, 0x02, 0x02, 0x09, 0xf8, 0xee, 0xfd, 0xfc, 0x02, 0x04,
  0x05, 0x04, 0xd5, 0xe1, 0x29, 0x07, 0xfa, 0x0d, 0x03, 0x01, 0xf3, 0xfd,
  0xb3, 0x1c, 0xb2, 0x85, 0x3d, 0xc8, 0x0f, 0x41, 0x17, 0xc7, 0xf5, 0xed,
  0xc8, 0xfa, 0x67, 0x62, 0x3f, 0xc8, 0xc1, 0xb1, 0xe7, 0xb0, 0x41, 0xe0,
  0xde, 0xbe, 0x1b, 0x31, 0x0f, 0x23, 0x8b, 0x7d, 0xa4, 0xe8, 0x06, 0xaf,
  0xf5, 0x95, 0x2f, 0xc2, 0xd7, 0xc9, 0x9f, 0x0a, 0xe0, 0xfb, 0x2d, 0x39,
  0xb8, 0x3a, 0x41, 0x19, 0x0d, 0x14, 0xac, 0x4e, 0x86, 0x3c, 0x81, 0x82,
  0x3e, 0xb6, 0x56, 0x81, 0x93, 0xae, 0x7e, 0x6a, 0x41, 0x81, 0xb3, 0xff,
  0xfd, 0x4f, 0x5c, 0xf4, 0xd6, 0x4c, 0x21, 0x40, 0x8a, 0xe8, 0xa0, 0x98,
  0xf4, 0x2b, 0x3b, 0xef, 0xd2, 0xe5, 0x7a, 0x46, 0xf1, 0x3e, 0x16, 0x99,
  0xa1, 0xc6, 0xd0, 0x3a, 0xca, 0xfb, 0x02, 0x21, 0xfb, 0xf7, 0x01, 0xfb,
  0x02, 0x07, 0xfc, 0x00, 0xfb, 0xc9, 0x05, 0xc4, 0xf9, 0x0c, 0xae, 0x81,
  0xfe, 0x03, 0xba, 0x07, 0x04, 0x02, 0x98, 0x00, 0xb0, 0x08, 0x06, 0x8f,
  0x03, 0x0a, 0x03, 0xee, 0x02, 0xe2, 0xff, 0x04, 0xf0, 0x03, 0x09, 0x02,
  0x01, 0xf3, 0xed, 0x03, 0xfd, 0x02, 0xf5, 0x06, 0x05, 0x04, 0xe5, 0xfb,
  0x02, 0x02, 0x00, 0xfe, 0xd7, 0x10, 0x02, 0x11, 0x1b, 0xf9, 0xf9, 0x08,
  0xea, 0x0c, 0x09, 0xfb, 0x08, 0xe0, 0xf7, 0x07, 0x05, 0x04, 0xfa, 0x01,
  0x02, 0x10, 0xa4, 0x01, 0x02, 0xfd, 0xfc, 0x17, 0xfd, 0xfe, 0x0a, 0xc4,
  0xf6, 0x08, 0x1a, 0x11, 0x0a, 0xfe, 0xff, 0x00, 0x4f, 0x0f, 0x07, 0xe9,
  0x0c, 0x0e, 0xfe, 0xfc, 0x04, 0xfb, 0x0d, 0xfd, 0xf3, 0x2b, 0x01, 0x35,
  0xfc, 0xfe, 0x4c, 0x7f, 0xfe, 0xf8, 0xd2, 0xff, 0xfc, 0x12, 0x57, 0x07,
  0xfa, 0xfd, 0x11, 0x60, 0xfd, 0xf4, 0x01, 0x63, 0xf9, 0x01, 0x00, 0xfd,
  0x0b, 0x03, 0x0c, 0xfc, 0x02, 0x1a, 0x17, 0xfa, 0xfb, 0x02, 0x21, 0x00,
  0xfd, 0x03, 0x33, 0xfc, 0x07, 0x01, 0x01, 0x00, 0x16, 0xcb, 0xff, 0xf3,
  0x00, 0xfb, 0xfe, 0xf5, 0x07, 0xfa, 0xea, 0x04, 0xff, 0xd0, 0x05, 0x00,
  0xfe, 0x02, 0xfc, 0x00, 0xff, 0x00, 0x4e, 0x0a, 0x02, 0xfd, 0x03, 0xf9,
  0x06, 0x04, 0x05, 0x47, 0x08, 0x00, 0xf2, 0xff, 0xff, 0xfd, 0x13, 0x05,
  0xbe, 0xd8, 0xd9, 0xa2, 0xa0, 0x2a, 0x86, 0xdd, 0x19, 0xc7, 0xfd, 0xd6,
  0xa6, 0xae, 0x0d, 0x97, 0x69, 0x89, 0x33, 0xbb, 0x48, 0x91, 0x3a, 0x95,
  0x9b, 0xa0, 0xe3, 0xce, 0xc7, 0xdb, 0x94, 0xa1, 0x01, 0xb1, 0x9c, 0xb3,
  0xb2, 0x68, 0xe9, 0x9b, 0x59, 0x35, 0x04, 0x20, 0x85, 0x98, 0xa9, 0xe6,
  0x77, 0xd4, 0xe8, 0x7c, 0x69, 0xbf, 0x29, 0xd9, 0x32, 0x77, 0xed, 0x08,
  0x7f, 0x97, 0x5a, 0xcd, 0x71, 0x33, 0xdc, 0x94, 0x1b, 0xc1, 0xa2, 0x06,
  0x3a, 0x5f, 0x11, 0x09, 0x49, 0xe0, 0x1a, 0x8f, 0x72, 0xbb, 0x0d, 0x3b,
  0x4e, 0x81, 0x84, 0xf6, 0x8a, 0xf2, 0x0b, 0x15, 0x1a, 0x29, 0xd1, 0xde,
  0x61, 0xeb, 0xb3, 0x71, 0x0b, 0x0b, 0x03, 0x0c, 0xed, 0xfd, 0x04, 0x05,
  0x03, 0x34, 0x2a, 0x09, 0x2e, 0x0c, 0xfa, 0x46, 0xfc, 0x08, 0x33, 0xd9,
  0x01, 0x36, 0x13, 0xfe, 0x0a, 0x06, 0xcf, 0x04, 0xba, 0xf9, 0x13, 0xac,
  0xf9, 0x17, 0xfc, 0x54, 0x0a, 0x35, 0x06, 0xfa, 0xe8, 0x06, 0xfe, 0x03,
  0x12, 0x2b, 0xf7, 0x12, 0xfe, 0x01, 0xe7, 0x00, 0x09, 0x05, 0xe9, 0x09,
  0xfa, 0x09, 0x20, 0xf6, 0xe1, 0x87, 0xf6, 0x07, 0xff, 0xfe, 0x02, 0x1d,
  0xe9, 0xf5, 0x81, 0x02, 0xf8, 0x82, 0x1e, 0x0f, 0xf7, 0x01, 0xf7, 0x01,
  0x05, 0xd6, 0xf3, 0xed, 0xf6, 0x03, 0x06, 0x0b, 0x07, 0x00, 0x22, 0x4c,
  0x06, 0x15, 0x06, 0x09, 0x18, 0x09, 0x00, 0x08, 0x2d, 0xed, 0x01, 0x33,
  0x16, 0xf3, 0x03, 0x04, 0x02, 0xe8, 0x16, 0x03, 0xf2, 0x7f, 0xff, 0x03,
  0xfc, 0xfa, 0x02, 0x4c, 0xfd, 0xda, 0xc0, 0x01, 0xfd, 0x0c, 0x3f, 0x02,
  0x01, 0x02, 0xf2, 0x39, 0x02, 0xf8, 0x01, 0x1f, 0x04, 0xfe, 0xf6, 0x02,
  0xe2, 0x03, 0x13, 0x02, 0xff, 0xc7, 0xd3, 0x0b, 0xff, 0xfe, 0x14, 0x00,
  0xfe, 0x02, 0x2b, 0xf7, 0xfd, 0x01, 0x18, 0x03, 0xc8, 0x32, 0xfd, 0x0c,
  0xf6, 0x01, 0xfd, 0xed, 0xe9, 0x00, 0x1a, 0xfc, 0x03, 0xc3, 0xd8, 0x08,
  0x03, 0xfc, 0x04, 0x00, 0x01, 0xfa, 0x2d, 0x22, 0x01, 0xff, 0xfe, 0x0a,
  0xfd, 0xf3, 0x30, 0x00, 0xff, 0xff, 0x10, 0xff, 0xfd, 0x00, 0x12, 0xfd,
  0xff, 0x04, 0x01, 0x0c, 0xfe, 0x02, 0x02, 0x01, 0xff, 0xfa, 0x01, 0x01,
  0xfa, 0xe5, 0x01, 0xfd, 0x01, 0x05, 0xf6, 0xe9, 0x00, 0xff, 0xce, 0x02,
  0x01, 0x03, 0xf0, 0x02, 0x81, 0xfe, 0x02, 0xdf, 0xfd, 0x02, 0x02, 0x1c,
  0x01, 0xf9, 0x01, 0x02, 0xfb, 0xfd, 0x04, 0xfe, 0x01, 0x01, 0xfe, 0x05,
  0x01, 0xfe, 0xfd, 0xff, 0x02, 0x02, 0xfe, 0x01, 0x03, 0x03, 0x05, 0x00,
  0xfb, 0xee, 0xfd, 0x03, 0x04, 0x02, 0x00, 0x03, 0xfb, 0x04, 0xf5, 0x00,
  0xff, 0xdb, 0xfc, 0x06, 0xff, 0x03, 0x00, 0xfe, 0x00, 0x01, 0xfc, 0xfe,
  0xff, 0x03, 0x01, 0x09, 0x02, 0x04, 0xff, 0x08, 0x0f, 0x04, 0x01, 0x03,
  0xff, 0xfe, 0x03, 0xfe, 0xde, 0x07, 0x00, 0xef, 0xf8, 0x05, 0x03, 0xfc,
  0x02, 0xd9, 0xf1, 0x00, 0xd7, 0xa5, 0xfa, 0xe0, 0xfb, 0x0c, 0xcd, 0x81,
  0xff, 0xc9, 0xd6, 0xfd, 0x03, 0xfb, 0x9e, 0xfd, 0x61, 0x05, 0x09, 0x92,
  0xfe, 0x03, 0xfc, 0xf3, 0x02, 0xd2, 0x0c, 0xfc, 0x0b, 0xfe, 0xfb, 0xfd,
  0xff, 0xf7, 0xff, 0xf4, 0xfc, 0x02, 0xfb, 0x06, 0x05, 0x03, 0xfc, 0x07,
  0x04, 0x03, 0xed, 0xfc, 0xe9, 0x28, 0xfd, 0x03, 0x0b, 0xfa, 0x03, 0xe0,
  0x13, 0x09, 0x31, 0x03, 0xfe, 0x4d, 0x03, 0x03, 0x01, 0xfb, 0x04, 0x03,
  0x05, 0x0f, 0xbc, 0xf5, 0x03, 0xfd, 0xff, 0x03, 0x06, 0xfe, 0x87, 0xbf,
  0xe5, 0x03, 0x00, 0x0b, 0x05, 0x02, 0x00, 0x00, 0x0b, 0x05, 0x9f, 0x6f,
  0x36, 0x0e, 0x5b, 0x62, 0x83, 0xd9, 0x6c, 0xbb, 0x2b, 0x66, 0x72, 0xce,
  0xf9, 0x9f, 0xb5, 0xb6, 0x7a, 0xf5, 0xb3, 0xb8, 0xcd, 0x9a, 0xf6, 0x9c,
  0xa1, 0xa7, 0x3e, 0x98, 0x88, 0x84, 0x49, 0xb6, 0xc4, 0x96, 0x18, 0x29,
  0x92, 0xe8, 0x6b, 0x40, 0x6c, 0x72, 0x5e, 0xdf, 0xab, 0x08, 0xa2, 0xc9,
  0x6e, 0x78, 0x84, 0x67, 0x4d, 0xcd, 0xb3, 0x87, 0xcc, 0x8e, 0x83, 0x52,
  0x91, 0xdd, 0x9e, 0x99, 0x8e, 0xc2, 0x0c, 0xb1, 0x7d, 0x50, 0xc3, 0x91,
  0xb1, 0x81, 0xda, 0x50, 0x1d, 0x88, 0xf1, 0x2c, 0x5b, 0xef, 0x08, 0xb9,
  0x17, 0x7e, 0x11, 0x0f, 0xd6, 0x13, 0x31, 0xa4, 0xc1, 0xff, 0x96, 0x57,
  0x34, 0xf3, 0x01, 0x57, 0x1f, 0xff, 0x01, 0xfb, 0xfc, 0xc7, 0x0e, 0xfd,
  0xde, 0x7f, 0x05, 0x00, 0x05, 0x00, 0xe7, 0x47, 0xfd, 0xc8, 0xb3, 0x0d,
  0x02, 0x10, 0x46, 0x05, 0xe1, 0x00, 0xfc, 0x27, 0xfc, 0xf2, 0x03, 0x0a,
  0x00, 0xe8, 0xfb, 0xfe, 0xea, 0xfc, 0x14, 0x00, 0x05, 0xb4, 0xe3, 0x11,
  0x03, 0x04, 0x16, 0x02, 0x03, 0x00, 0x24, 0xf4, 0x03, 0x00, 0x12, 0x00,
  0xc3, 0x49, 0x06, 0x01, 0x05, 0x05, 0xfe, 0xe0, 0xf0, 0xfc, 0x20, 0x03,
  0x05, 0xbb, 0xc7, 0x07, 0x00, 0x04, 0xff, 0xfe, 0x01, 0x02, 0x37, 0x1b,
  0x00, 0xff, 0xfc, 0x13, 0x01, 0x02, 0x24, 0xc9, 0x0f, 0xfc, 0x03, 0xf9,
  0xf9, 0x01, 0x14, 0x00, 0x1c, 0xfb, 0xfe, 0xeb, 0x08, 0x0d, 0x01, 0xfe,
  0xff, 0xf7, 0xf4, 0xff, 0x01, 0x1a, 0x01, 0x15, 0x01, 0x00, 0x2d, 0x4a,
  0xfb, 0xf8, 0x2b, 0x0b, 0x02, 0xf3, 0x2c, 0xff, 0x7f, 0x01, 0x00, 0x45,
  0x02, 0x00, 0xfb, 0xeb, 0xfd, 0x03, 0x01, 0xfb, 0x12, 0x05, 0xf1, 0xfc,
  0x07, 0x0e, 0x0c, 0xfa, 0xfe, 0x03, 0x08, 0x04, 0x05, 0x00, 0x10, 0x06,
  0x01, 0x00, 0xf7, 0xff, 0x23, 0xe8, 0x00, 0xfd, 0xfd, 0x04, 0xff, 0x05,
  0x17, 0xfb, 0xec, 0x02, 0xfe, 0x25, 0xff, 0xfb, 0x01, 0xfd, 0x00, 0xfd,
  0x04, 0x02, 0x2c, 0x00, 0x02, 0xff, 0x04, 0xf4, 0xfb, 0x07, 0x1b, 0x07,
  0x17, 0x04, 0xf8, 0xfe, 0x03, 0x01, 0xf8, 0xfb, 0x0e, 0xf4, 0x00, 0x0d,
  0xfb, 0xf1, 0x04, 0x01, 0xfc, 0x0f, 0x09, 0x01, 0xff, 0x43, 0x02, 0x18,
  0x04, 0xfb, 0x15, 0x31, 0x04, 0x0d, 0xe5, 0xf6, 0x01, 0xf9, 0x10, 0x00,
  0x81, 0xfe, 0xfb, 0x2c, 0x01, 0x05, 0x00, 0x1d, 0x00, 0x06, 0x01, 0xfe,
  0x0c, 0x04, 0xf0, 0x03, 0xff, 0x0d, 0xff, 0x00, 0xfd, 0x03, 0x08, 0x02,
  0x01, 0x02, 0x05, 0x02, 0xff, 0xfc, 0x08, 0xff, 0x08, 0xee, 0x03, 0x09,
  0xf2, 0xfd, 0xfd, 0x0d, 0x03, 0x01, 0xf7, 0x03, 0xfe, 0xff, 0xfd, 0x04,
  0x02, 0xff, 0x02, 0xfe, 0xfc, 0xec, 0x06, 0xfb, 0x03, 0xff, 0x04, 0xef,
  0x00, 0xf3, 0x3b, 0x08, 0x05, 0xfe, 0x07, 0x05, 0x04, 0x02, 0xfc, 0x01,
  0x03, 0x13, 0x05, 0xe8, 0x0d, 0x19, 0x02, 0x05, 0xfe, 0xf6, 0xe3, 0xfc,
  0x04, 0x81, 0x00, 0xf7, 0xfe, 0xff, 0x15, 0xe8, 0x01, 0xf1, 0x3f, 0x1d,
  0x01, 0xf8, 0x10, 0xff, 0x46, 0x00, 0x0d, 0xd1, 0xfb, 0xf9, 0x05, 0xd6,
  0x01, 0x01, 0x06, 0x01, 0x1d, 0xfd, 0x02, 0xfb, 0x01, 0x09, 0x1e, 0xff,
  0x04, 0xfc, 0xf8, 0x03, 0xfe, 0x01, 0xee, 0x0a, 0x03, 0x05, 0xf4, 0x07,
  0x1f, 0xcf, 0xfb, 0xec, 0x14, 0xfe, 0xfa, 0xfb, 0x16, 0xfc, 0xc8, 0x06,
  0xfa, 0x17, 0x0b, 0xf6, 0x06, 0xff, 0x00, 0x05, 0xfd, 0x1d, 0x29, 0xf6,
  0xff, 0x02, 0x02, 0x02, 0x05, 0x1b, 0xc8, 0xfd, 0x22, 0xfd, 0xe7, 0xf9,
  0x01, 0xff, 0x00, 0xfa, 0x0d, 0x8f, 0xfa, 0x62, 0xc6, 0xb5, 0x7f, 0x24,
  0x46, 0xb8, 0xe9, 0x3f, 0x16, 0xee, 0xa0, 0xb9, 0x65, 0x33, 0xd4, 0x33,
  0x76, 0x4e, 0x4c, 0x35, 0xfa, 0x2e, 0xcd, 0xdc, 0xae, 0x64, 0x9f, 0xe6,
  0x18, 0xf6, 0x06, 0x24, 0x76, 0x2b, 0xe6, 0xce, 0x9d, 0xa8, 0x37, 0x27,
  0xb3, 0x53, 0x73, 0x85, 0xb3, 0x78, 0xad, 0xe2, 0x1e, 0xc0, 0x03, 0x12,
  0x29, 0x8f, 0x45, 0x1d, 0xe1, 0x9b, 0x98, 0x24, 0x3e, 0x10, 0xb9, 0x71,
  0x3a, 0xd4, 0xc1, 0xb0, 0xe4, 0xf1, 0x7d, 0x69, 0x47, 0xc5, 0x39, 0x8d,
  0x94, 0xf1, 0xfa, 0xc6, 0x04, 0xb6, 0x9f, 0xa0, 0x41, 0x9f, 0x19, 0x49,
  0xb9, 0x89, 0xca, 0xc8, 0xf9, 0xb2, 0xff, 0xa8, 0xdc, 0x23, 0xf1, 0xeb,
  0x95, 0x81, 0x49, 0x1a, 0x64, 0x04, 0xa1, 0x21, 0xb0, 0xa1, 0xf5, 0xca,
  0xc3, 0x4c, 0x1f, 0x1e, 0x53, 0x31, 0x39, 0x37, 0x9c, 0xd2, 0xc3, 0x5a,
  0xee, 0xb7, 0x4e, 0xff, 0xe9, 0x4e, 0xb4, 0xdf, 0xa2, 0xf2, 0x2f, 0xb5,
  0x0c, 0x40, 0x3e, 0xf2, 0xfe, 0xf9, 0xac, 0xbc, 0x34, 0x52, 0x9c, 0x0e,
  0x2c, 0x20, 0xb9, 0x1f, 0xeb, 0xcb, 0x44, 0x2a, 0x44, 0xa4, 0xc1, 0xb8,
  0xe7, 0x54, 0x57, 0x15, 0xe4, 0x97, 0xc7, 0x26, 0xcc, 0xf5, 0xab, 0xe3,
  0xe2, 0x1a, 0x4f, 0xf3, 0xa4, 0x42, 0x4a, 0x43, 0xb2, 0xd7, 0x0f, 0x04,
  0x3e, 0xb5, 0xe2, 0x2d, 0x20, 0xa9, 0x95, 0xf6, 0xcf, 0xda, 0x47, 0xea,
  0xf0, 0x6d, 0xdb, 0xbf, 0x63, 0xf7, 0x56, 0xa0, 0x68, 0xd6, 0xab, 0x5b,
  0xfd, 0x6c, 0x62, 0x81, 0x1f, 0xae, 0xd4, 0x59, 0x01, 0x1c, 0x65, 0x35,
  0x60, 0x93, 0x8b, 0xab, 0xe2, 0x4f, 0x93, 0x52, 0x4b, 0xb0, 0x8c, 0xc6,
  0x84, 0x05, 0xdf, 0xf1, 0x40, 0x44, 0x49, 0xad, 0x02, 0xd4, 0x66, 0xc2,
  0x63, 0x17, 0xa2, 0x85, 0x5f, 0xae, 0x06, 0x34, 0xbf, 0xf7, 0x2a, 0x4d,
  0x91, 0x0d, 0x76, 0x83, 0x2e, 0x96, 0x71, 0x10, 0x16, 0x0e, 0xd5, 0x4c,
  0xb0, 0x01, 0x1d, 0xad, 0xfc, 0xa7, 0x7c, 0xdc, 0xa3, 0xac, 0x5c, 0xc0,
  0x09, 0xaf, 0x00, 0x13, 0xcc, 0x5c, 0xf1, 0x82, 0x17, 0x8b, 0xee, 0xd1,
  0xa8, 0xd2, 0xcf, 0x34, 0x68, 0x07, 0x6f, 0x7f, 0x03, 0xe7, 0x9a, 0x72,
  0x87, 0x3a, 0x66, 0xc8, 0x64, 0xf2, 0x78, 0x31, 0xfd, 0xc2, 0x56, 0x3f,
  0x9b, 0x72, 0x86, 0xc1, 0xe7, 0xa3, 0xb8, 0x43, 0xa4, 0x9a, 0x71, 0xea,
  0xf0, 0x5a, 0xf2, 0x0f, 0x1a, 0xa8, 0xb0, 0xd6, 0xd6, 0x3c, 0xab, 0x29,
  0xd0, 0x0f, 0xb7, 0x53, 0x81, 0xf7, 0x7f, 0x9f, 0x6a, 0x83, 0xcc, 0xac,
  0x4f, 0xb8, 0x8c, 0xb5, 0xe3, 0xf1, 0xc0, 0x12, 0x03, 0xb0, 0xd1, 0xdb,
  0xf9, 0x38, 0xfa, 0xd8, 0x95, 0x75, 0x97, 0xf3, 0xae, 0x8f, 0x2c, 0x8b,
  0x3d, 0x14, 0x39, 0xbc, 0x5c, 0x1b, 0x04, 0xc2, 0x2b, 0xcd, 0x8b, 0x30,
  0xc6, 0xf3, 0xeb, 0xb0, 0xb3, 0xc8, 0x97, 0x61, 0xf6, 0x1e, 0x02, 0xdd,
  0x05, 0x24, 0x01, 0x03, 0x03, 0xe9, 0xd1, 0x07, 0xfc, 0x81, 0xf8, 0xee,
  0xfb, 0x06, 0x0e, 0xbd, 0xfc, 0x0c, 0x46, 0x1d, 0xfd, 0xfd, 0xfc, 0x07,
  0x2f, 0xfc, 0x19, 0xbe, 0x05, 0xeb, 0x06, 0xb5, 0xff, 0xf3, 0x0d, 0x02,
  0x25, 0xff, 0x09, 0xf8, 0x08, 0xff, 0x18, 0xf9, 0x00, 0x00, 0xf3, 0x00,
  0xf9, 0x03, 0xee, 0x0a, 0xff, 0x05, 0xdc, 0xf8, 0x27, 0xbd, 0x06, 0xe6,
  0x24, 0x03, 0x08, 0xfe, 0x27, 0x07, 0xd1, 0xf8, 0xf9, 0x3b, 0x0e, 0xf9,
  0x05, 0xfb, 0xfd, 0xfb, 0x02, 0x25, 0x21, 0xea, 0x03, 0xfb, 0x04, 0x06,
  0xff, 0x2b, 0xc4, 0xec, 0x10, 0x09, 0xdd, 0xff, 0xfe, 0x08, 0xf8, 0xfe,
  0x60, 0x0c, 0x04, 0xea, 0x07, 0x0d, 0xfd, 0xf9, 0x02, 0xfb, 0xff, 0xfc,
  0x01, 0x17, 0xfb, 0x2f, 0x03, 0x00, 0x57, 0x7c, 0x01, 0xf5, 0xe3, 0x07,
  0xfb, 0x0a, 0x67, 0xfd, 0x29, 0x05, 0x0f, 0x6a, 0xff, 0xf6, 0xfb, 0x7f,
  0x01, 0x07, 0x01, 0x08, 0x12, 0xff, 0x05, 0xfb, 0x02, 0x2c, 0x33, 0xf2,
  0xfe, 0x02, 0x34, 0xfe, 0x01, 0x00, 0x47, 0x0c, 0x04, 0xfb, 0xf4, 0xfa,
  0x17, 0x00, 0xfe, 0x04, 0xf7, 0x03, 0xf9, 0xfb, 0x1b, 0xf5, 0xf0, 0xf8,
  0x09, 0xcf, 0x11, 0xfe, 0xfc, 0x06, 0x00, 0xfd, 0x08, 0xfe, 0x5c, 0x14,
  0xfb, 0x06, 0x03, 0xf9, 0x05, 0x12, 0xe8, 0x69, 0x1a, 0xfb, 0xef, 0xf2,
  0x05, 0x07, 0x03, 0x00, 0xee, 0x0b, 0x04, 0xef, 0xf3, 0x02, 0x02, 0xfd,
  0x01, 0x15, 0xfe, 0x01, 0x07, 0xa8, 0xfd, 0x12, 0x04, 0x0f, 0x0f, 0xc3,
  0x00, 0x13, 0xda, 0x11, 0xfc, 0xf8, 0xd8, 0x01, 0x81, 0x02, 0x0d, 0xbb,
  0x03, 0x10, 0xfd, 0x0e, 0x01, 0x09, 0x0b, 0x03, 0x0d, 0x04, 0xf2, 0x06,
  0x08, 0x1a, 0x0c, 0xfd, 0xfe, 0x05, 0xed, 0x06, 0xff, 0x00, 0xe0, 0x0c,
  0xfb, 0x06, 0xf7, 0x01, 0x07, 0xba, 0xf9, 0xfe, 0x0f, 0x00, 0x01, 0x09,
  0x08, 0x06, 0xca, 0xf9, 0xfa, 0xd2, 0x07, 0x05, 0xff, 0x02, 0x04, 0x07,
  0x04, 0xf6, 0xe8, 0xf1, 0xff, 0xfd, 0xf9, 0x02, 0xf9, 0x00, 0x07, 0x14,
  0x21, 0x0f, 0xf2, 0x0c, 0x02, 0xff, 0xf2, 0xf9, 0x0c, 0x2a, 0xfe, 0xfd,
  0x2f, 0x2c, 0xf6, 0xf6, 0xff, 0xe1, 0x0e, 0x05, 0xfb, 0x81, 0xfd, 0x03,
  0x00, 0xfc, 0x17, 0xd4, 0x08, 0xf0, 0xf5, 0x29, 0x08, 0x0f, 0x0a, 0xf6,
  0xe4, 0xfe, 0x14, 0xab, 0xfe, 0xf7, 0xfb, 0x26, 0x06, 0x17, 0x11, 0xff,
  0x0f, 0xf6, 0x20, 0xf7, 0x12, 0x11, 0x2e, 0xf8, 0x0d, 0xfd, 0x25, 0xff,
  0xf4, 0x01, 0x07, 0xfd, 0xf7, 0x0a, 0xfd, 0x0a, 0x1d, 0xad, 0x00, 0xf0,
  0x26, 0xf6, 0x08, 0xea, 0x1c, 0xf7, 0xb1, 0xf9, 0x0a, 0x03, 0xfc, 0x0c,
  0xfc, 0x09, 0x02, 0xf7, 0x06, 0x1f, 0x29, 0x1d, 0xfa, 0x02, 0x0c, 0x2f,
  0x04, 0x1c, 0xae, 0x2c, 0x38, 0x04, 0xf7, 0xec, 0xfe, 0x0a, 0x14, 0xf5,
  0x45, 0x47, 0xd9, 0x4b, 0xe0, 0x9d, 0x34, 0xa9, 0x60, 0x98, 0xac, 0x25,
  0x26, 0xa3, 0x14, 0xa1, 0x6a, 0xc2, 0x3d, 0xf5, 0xaa, 0xb3, 0x15, 0xa7,
  0x10, 0xd7, 0x58, 0x46, 0xe7, 0xab, 0x8d, 0xf2, 0x9d, 0xab, 0x64, 0xa5,
  0x28, 0x1d, 0x44, 0x75, 0xf5, 0xa8, 0xd3, 0xf7, 0x8c, 0xae, 0x53, 0x5a,
  0x05, 0x0d, 0xc4, 0x29, 0x4f, 0x43, 0x0c, 0x6a, 0x6f, 0x15, 0x01, 0xb1,
  0x7f, 0x47, 0xff, 0xcd, 0xca, 0x4a, 0xbb, 0xd0, 0x36, 0x04, 0x34, 0xf4,
  0x47, 0xac, 0xf1, 0xa4, 0x9b, 0x06, 0x6a, 0xf4, 0xe2, 0xdc, 0xae, 0xda,
  0x8b, 0x6c, 0x19, 0x1c, 0x04, 0xd4, 0xea, 0xb3, 0xc3, 0xc1, 0xe1, 0x3b,
  0xc9, 0xe9, 0x6c, 0x1b, 0xbe, 0xb3, 0x28, 0x76, 0x41, 0xa0, 0xf4, 0x1b,
  0xfc, 0x08, 0x0f, 0x13, 0x64, 0xe5, 0x2a, 0xa0, 0xc2, 0xe2, 0x38, 0x46,
  0xa1, 0x95, 0xc6, 0xfe, 0xef, 0x32, 0xb8, 0xfb, 0x0a, 0xa2, 0xa1, 0xda,
  0xc9, 0x9e, 0x70, 0x46, 0x1d, 0x41, 0xd4, 0xaf, 0x14, 0x0e, 0x7f, 0x23,
  0xce, 0xc0, 0xb8, 0x85, 0x4e, 0x31, 0xf1, 0x24, 0xb9, 0x98, 0x14, 0x98,
  0x05, 0xb1, 0x4a, 0x76, 0xe6, 0x9a, 0x85, 0xf3, 0xe1, 0x78, 0x59, 0xd8,
  0x93, 0x58, 0x11, 0x4a, 0x5f, 0x1d, 0x81, 0x60, 0x1d, 0xff, 0xa6, 0x98,
  0xf7, 0xa8, 0x5f, 0x81, 0x0b, 0x98, 0xcc, 0x97, 0xd9, 0x4d, 0x72, 0x9a,
  0xaa, 0x96, 0xd2, 0xe6, 0x49, 0x5e, 0x52, 0x04, 0xc8, 0xe4, 0x4a, 0x68,
  0xb9, 0x44, 0x09, 0x0d, 0xa7, 0x95, 0xf4, 0xff, 0xd5, 0x1d, 0x61, 0x31,
  0x03, 0xce, 0x38, 0xc0, 0xf2, 0xdc, 0x03, 0xdd, 0x20, 0xda, 0x15, 0xe8,
  0x14, 0x83, 0xf3, 0x58, 0xc4, 0xf5, 0x4d, 0x0f, 0x81, 0xb3, 0x4b, 0xad,
  0x94, 0x25, 0xd0, 0x89, 0xdd, 0xa8, 0x32, 0x0b, 0x56, 0x42, 0x42, 0xdf,
  0x8f, 0x35, 0x99, 0x87, 0x72, 0xb4, 0x8d, 0x20, 0x12, 0x00, 0x3d, 0x0c,
  0x37, 0xc7, 0x47, 0x2e, 0x26, 0xc2, 0x89, 0x53, 0x05, 0xe3, 0x52, 0x10,
  0x28, 0x39, 0x4b, 0x40, 0x32, 0xc3, 0x7c, 0xbe, 0x74, 0x55, 0x3b, 0x4b,
  0x23, 0x8e, 0xec, 0xda, 0x50, 0x1d, 0x79, 0x8c, 0xae, 0x68, 0x62, 0xe7,
  0xfd, 0x00, 0xfb, 0x12, 0x11, 0x0a, 0x03, 0x00, 0x00, 0x03, 0x06, 0xfd,
  0x0d, 0x81, 0xfb, 0xdf, 0x05, 0xfc, 0xe3, 0x95, 0x06, 0xf9, 0x08, 0x0b,
  0xff, 0x02, 0xc0, 0x00, 0x14, 0x06, 0x00, 0x04, 0x01, 0xf6, 0x03, 0xfc,
  0xfc, 0x00, 0x01, 0x04, 0xce, 0x00, 0x0b, 0xfb, 0x09, 0xdc, 0x15, 0x08,
  0x05, 0xff, 0x02, 0x06, 0x01, 0x00, 0xf9, 0xfa, 0x00, 0x03, 0xff, 0x02,
  0xac, 0x03, 0x03, 0xfb, 0x01, 0xfd, 0xfd, 0x00, 0x04, 0xff, 0x0b, 0x01,
  0x09, 0xba, 0xf5, 0x00, 0xfe, 0x02, 0x02, 0x04, 0xfc, 0x0b, 0xf0, 0x14,
  0x00, 0xff, 0xfc, 0x0d, 0x01, 0x0f, 0xea, 0x95, 0x2c, 0xfc, 0xea, 0x00,
  0xf5, 0xfd, 0x0a, 0x04, 0x15, 0xe7, 0x04, 0x46, 0x16, 0xf0, 0xfc, 0x03,
  0xff, 0xe2, 0x1e, 0xff, 0xfe, 0x7f, 0xfb, 0xf6, 0x02, 0xfb, 0xec, 0x14,
  0x01, 0xdb, 0xcf, 0xfe, 0x01, 0x16, 0x2b, 0xfd, 0xde, 0xfe, 0xef, 0x13,
  0xfd, 0xf7, 0x02, 0xce, 0x03, 0x07, 0xf4, 0xfc, 0xd5, 0x03, 0x19, 0xfc,
  0x0b, 0xc0, 0xc6, 0x1a, 0xfe, 0xff, 0x16, 0x04, 0xfd, 0xfe, 0x27, 0xfb,
  0x04, 0xff, 0x1b, 0x05, 0xc4, 0x52, 0xfc, 0x0c, 0xff, 0xff, 0x03, 0xe5,
  0xdd, 0x05, 0x24, 0x00, 0x08, 0xd2, 0xd4, 0x0a, 0x01, 0xff, 0xfc, 0x05,
  0x03, 0x03, 0x21, 0x1e, 0xff, 0xfc, 0xff, 0x15, 0x00, 0xeb, 0x01, 0xdc,
  0x0a, 0xfe, 0x1e, 0xfe, 0xfe, 0x04, 0x12, 0x03, 0x04, 0x0c, 0x01, 0xf6,
  0x17, 0x10, 0xff, 0xf6, 0xf8, 0xe4, 0xec, 0x04, 0xfc, 0x22, 0xff, 0xc1,
  0x08, 0x0c, 0xde, 0xfb, 0xf9, 0xee, 0x35, 0x04, 0xff, 0x03, 0x20, 0x05,
  0x54, 0x00, 0x0d, 0x1c, 0x04, 0xfa, 0x01, 0xa5, 0xfb, 0xef, 0x15, 0x00,
  0x13, 0xf8, 0x18, 0xfc, 0x01, 0xea, 0xf2, 0x00, 0xf7, 0x04, 0x15, 0x07,
  0xfe, 0x00, 0x0f, 0x09, 0x00, 0xf9, 0xf2, 0xfa, 0x24, 0x5d, 0x09, 0x07,
  0x0d, 0xfd, 0xfa, 0xea, 0x1d, 0x14, 0x5c, 0xfd, 0x0c, 0x7f, 0x12, 0x0b,
  0x06, 0xfd, 0xfb, 0x05, 0xff, 0x3c, 0x13, 0x1e, 0xfa, 0x09, 0xfd, 0x12,
  0x02, 0x0b, 0xd8, 0xc9, 0xe5, 0x0e, 0x0a, 0x01, 0x05, 0xf7, 0x0b, 0xfe,
  0xe6, 0x13, 0x04, 0x9e, 0xfc, 0x12, 0x04, 0x03, 0x01, 0xfc, 0xe3, 0xfd,
  0xe8, 0x81, 0xfe, 0x00, 0x03, 0x03, 0x1b, 0xed, 0xfe, 0x00, 0xec, 0x01,
  0xfc, 0xfc, 0xe3, 0xff, 0xd8, 0x03, 0x0a, 0xe4, 0x02, 0xfb, 0x04, 0x09,
  0xff, 0xf2, 0x0d, 0xfd, 0x24, 0x00, 0xf7, 0xfd, 0xf8, 0x1a, 0x1f, 0xed,
  0xff, 0xff, 0xf1, 0xfe, 0x04, 0x03, 0xe3, 0x06, 0xff, 0xfe, 0xdd, 0x01,
  0x33, 0xba, 0x02, 0xf4, 0x06, 0x04, 0x04, 0xff, 0x20, 0x03, 0xf9, 0x02,
  0xfa, 0x2a, 0x15, 0xfb, 0xfd, 0xfc, 0xfd, 0xfd, 0xfe, 0x07, 0xf6, 0xec,
  0x03, 0xfc, 0x00, 0xf5, 0xfd, 0x0b, 0xe2, 0x23, 0xf5, 0x05, 0xe2, 0x03,
  0x01, 0x02, 0xfa, 0x01, 0x63, 0xff, 0xfa, 0xef, 0xfb, 0x0e, 0xf5, 0xfc,
  0xfd, 0xde, 0x06, 0xf8, 0x04, 0x07, 0xf5, 0x28, 0x02, 0xfd, 0x67, 0x7f,
  0xf5, 0xdb, 0x07, 0xfe, 0xf9, 0xf9, 0x6e, 0x0d, 0x2f, 0xfc, 0x02, 0x67,
  0x0a, 0xf4, 0x03, 0x30, 0x00, 0x16, 0x08, 0x0a, 0x01, 0xfe, 0xf7, 0x01,
  0xf7, 0x02, 0x14, 0x08, 0x01, 0x05, 0x27, 0xf3, 0xfa, 0xf3, 0x3e, 0x0e,
  0x08, 0x07, 0x06, 0x09, 0x20, 0x12, 0x0a, 0xfb, 0x00, 0xfa, 0x06, 0x0b,
  0x0c, 0x07, 0x11, 0x06, 0x0a, 0xfb, 0x0d, 0xf5, 0xf7, 0x06, 0xf8, 0xfe,
  0x04, 0x08, 0x63, 0x16, 0xf7, 0x03, 0x09, 0x07, 0x0d, 0x03, 0xe4, 0x40,
  0x14, 0x0a, 0xf8, 0x07, 0x0f, 0xf4, 0xfb, 0xfa, 0x02, 0x08, 0x02, 0xfd,
  0x0d, 0x09, 0x00, 0xff, 0x03, 0x07, 0x03, 0x01, 0x0a, 0xf7, 0xfe, 0x05,
  0xfd, 0x04, 0x09, 0xfd, 0x00, 0x05, 0x1b, 0x0f, 0x02, 0x08, 0x05, 0xfe,
  0x7f, 0x02, 0x0b, 0x04, 0xfe, 0xf9, 0x02, 0xfc, 0x01, 0x09, 0x01, 0x01,
  0xfd, 0xff, 0x08, 0x00, 0x02, 0x08, 0x11, 0xfc, 0xfd, 0xff, 0x07, 0x00,
  0xfd, 0x00, 0x01, 0x00, 0xff, 0x02, 0xfa, 0x01, 0x00, 0xf2, 0xff, 0xf6,
  0x0b, 0xfd, 0xfe, 0xff, 0x04, 0xfd, 0xed, 0x03, 0xff, 0xef, 0x09, 0xfe,
  0xff, 0x02, 0xfe, 0x00, 0xff, 0x07, 0x05, 0x06, 0x02, 0x00, 0xfe, 0x07,
  0x02, 0x0f, 0xee, 0xf9, 0x08, 0xff, 0xf5, 0xfe, 0x02, 0xfe, 0x08, 0x00,
  0xb5, 0xff, 0xfd, 0x0c, 0xf7, 0x09, 0xff, 0xfb, 0x02, 0xd1, 0xdb, 0xfd,
  0xee, 0xd6, 0xff, 0xb7, 0x03, 0x00, 0xa1, 0x93, 0x06, 0xd8, 0xec, 0x03,
  0x04, 0xfa, 0xbf, 0xff, 0xc0, 0xfa, 0x02, 0x91, 0xfc, 0x10, 0xfc, 0x81,
  0x05, 0xe2, 0x09, 0x07, 0xfa, 0xf9, 0x0d, 0xfb, 0xff, 0xcd, 0xcc, 0x0b,
  0x04, 0xfb, 0xd1, 0x04, 0xfc, 0xff, 0xc5, 0xfc, 0xfd, 0x07, 0x09, 0x03,
  0xed, 0x16, 0x00, 0x01, 0x1c, 0xff, 0x05, 0x10, 0xf8, 0x15, 0x15, 0x05,
  0x03, 0x0c, 0xeb, 0x0a, 0xfa, 0x05, 0x04, 0x01, 0xfc, 0x2a, 0xc5, 0xf4,
  0x06, 0xfc, 0xfc, 0x10, 0xf9, 0x09, 0xf3, 0xb0, 0xf7, 0x07, 0x0e, 0x0c,
  0x07, 0xfe, 0xf1, 0x03, 0xfb, 0xff, 0xfe, 0xf7, 0xfe, 0xfd, 0xff, 0x00,
  0x01, 0xfa, 0x00, 0xff, 0xfd, 0xfd, 0x00, 0xfb, 0x01, 0x05, 0xf5, 0xf6,
  0xfe, 0xfb, 0xde, 0x00, 0x01, 0x01, 0xf3, 0xfe, 0x81, 0x00, 0xff, 0xf9,
  0xff, 0x05, 0xff, 0x00, 0xfe, 0xf8, 0x04, 0xfe, 0x00, 0x01, 0x01, 0x02,
  0x05, 0xfc, 0xfb, 0x07, 0x01, 0x02, 0xfa, 0xfe, 0x02, 0xfe, 0xfb, 0xff,
  0x01, 0xfe, 0xfe, 0x00, 0xf8, 0xf2, 0x02, 0x08, 0x05, 0x02, 0x02, 0xff,
  0xfe, 0x08, 0xf9, 0xfe, 0xff, 0xed, 0xff, 0x04, 0xff, 0x00, 0x00, 0x00,
  0x00, 0x03, 0xf4, 0xfc, 0xff, 0xfe, 0x00, 0x01, 0xff, 0xfd, 0x15, 0xf3,
  0x09, 0x04, 0xfe, 0x08, 0x05, 0xfe, 0xfd, 0x00, 0xf8, 0x01, 0xfe, 0xf6,
  0xff, 0xff, 0x01, 0xff, 0x00, 0xfe, 0xfe, 0x03, 0xf9, 0xea, 0x03, 0xfb,
  0x03, 0x00, 0xf7, 0xe3, 0x01, 0x02, 0xd5, 0x05, 0xfd, 0x03, 0xec, 0x03,
  0x81, 0x02, 0x01, 0xe8, 0xfd, 0x04, 0xff, 0x04, 0xff, 0xf7, 0x03, 0x00,
  0xff, 0x00, 0x03, 0xfe, 0x04, 0xfe, 0x00, 0x02, 0x00, 0x00, 0xfd, 0x03,
  0xfe, 0xff, 0xf7, 0xff, 0xff, 0xfe, 0xfd, 0x02, 0xfc, 0xec, 0x01, 0x03,
  0x05, 0x00, 0x01, 0xff, 0xfa, 0x06, 0xf7, 0x01, 0x02, 0xea, 0xfa, 0x04,
  0x00, 0xfd, 0x02, 0xff, 0x01, 0x05, 0xf6, 0xff, 0x01, 0x01, 0x03, 0x02,
  0xfe, 0xfe, 0x02, 0xfb, 0x08, 0x04, 0xff, 0x07, 0x04, 0x00, 0x04, 0x01,
  0xdc, 0x09, 0x01, 0x1d, 0x02, 0x1c, 0xf9, 0x07, 0xfb, 0xf0, 0xde, 0x01,
  0xf2, 0xa6, 0x03, 0xc3, 0xfa, 0x0a, 0xc8, 0xa0, 0x06, 0x02, 0xce, 0x1a,
  0xff, 0xf3, 0xd2, 0x03, 0x8b, 0x00, 0x11, 0x81, 0x00, 0x02, 0x08, 0xb1,
  0xf8, 0xe8, 0x02, 0xfe, 0x04, 0x00, 0x10, 0x07, 0x08, 0xdb, 0xf7, 0x05,
  0x05, 0xfa, 0xe3, 0x04, 0xfc, 0x01, 0xd6, 0xfc, 0xfe, 0xfe, 0xf6, 0xf8,
  0x03, 0xd4, 0xf9, 0xfa, 0x19, 0xf8, 0xf9, 0x00, 0xf9, 0x10, 0xd1, 0xf8,
  0x00, 0xee, 0xe6, 0x0e, 0x03, 0xfa, 0x02, 0xf9, 0xfa, 0x23, 0xe2, 0xf5,
  0x06, 0xfc, 0xff, 0x16, 0xfb, 0x1f, 0xf8, 0xbd, 0x1b, 0x0f, 0xfd, 0x06,
  0x01, 0xfd, 0xfc, 0xfe, 0xfe, 0xff, 0x05, 0xc0, 0xf8, 0x14, 0xff, 0xfe,
  0x05, 0xfa, 0xdf, 0xfb, 0x0e, 0xa6, 0x00, 0x0d, 0x01, 0x02, 0x32, 0x16,
  0xfe, 0xf7, 0x3e, 0x11, 0xfb, 0xf6, 0x26, 0x02, 0x7f, 0xfd, 0x0d, 0x13,
  0xfb, 0xf3, 0xfc, 0xcb, 0xfb, 0x08, 0x0b, 0xfe, 0x29, 0x04, 0xf1, 0xfc,
  0x0c, 0x1c, 0x26, 0xf2, 0xfc, 0xff, 0x00, 0x02, 0xfe, 0x04, 0xf1, 0x09,
  0x02, 0x00, 0xed, 0xff, 0x3e, 0xc8, 0xff, 0xf0, 0x02, 0x00, 0x03, 0x0a,
  0x2c, 0xff, 0xdd, 0xfc, 0x00, 0x4e, 0x0a, 0xf6, 0x04, 0x00, 0x07, 0x06,
  0x05, 0x14, 0x2b, 0xf7, 0x06, 0x03, 0x02, 0xf1, 0x02, 0x0f, 0xe7, 0x04,
  0x27, 0x05, 0xe6, 0x02, 0xfa, 0xfb, 0xee, 0xfc, 0xe1, 0x2b, 0x0e, 0xf1,
  0x30, 0x31, 0x0c, 0x08, 0xf7, 0xe1, 0xdf, 0xf9, 0xf8, 0x8a, 0x0c, 0xa3,
  0xfb, 0x04, 0xbc, 0x92, 0x0d, 0x09, 0x32, 0x2a, 0x05, 0x06, 0xd6, 0x00,
  0xf5, 0xfb, 0x16, 0x81, 0x06, 0xef, 0xf3, 0xa6, 0xf7, 0xf0, 0x09, 0x07,
  0x1d, 0xf6, 0x27, 0xf4, 0x09, 0xe3, 0x18, 0xfd, 0xf7, 0xf9, 0x08, 0x0c,
  0x0a, 0x0e, 0x04, 0x01, 0xf7, 0xf6, 0xf0, 0x0d, 0x26, 0x26, 0x07, 0x00,
  0x44, 0x02, 0x00, 0xf2, 0x2c, 0x10, 0x1f, 0x0b, 0x00, 0x57, 0xff, 0x07,
  0x05, 0x0c, 0xf9, 0xfd, 0x0e, 0x57, 0xfc, 0x0b, 0x04, 0xfc, 0xfe, 0x33,
  0xfd, 0x3d, 0x9b, 0xd5, 0x13, 0xff, 0xef, 0x04, 0xf3, 0xf8, 0x0a, 0xf7,
  0x02, 0xeb, 0x01, 0x32, 0x02, 0xee, 0x02, 0xff, 0xff, 0xf3, 0x0e, 0x02,
  0xf0, 0x7f, 0x00, 0xf3, 0x04, 0xfa, 0xe3, 0x12, 0x00, 0xec, 0xe0, 0xee,
  0xfe, 0x0a, 0x12, 0x00, 0x2a, 0x01, 0xed, 0x13, 0x02, 0xfe, 0xfd, 0xe5,
  0x00, 0xef, 0x02, 0x00, 0xe0, 0x01, 0x0d, 0xfd, 0x05, 0xcd, 0xda, 0x04,
  0xff, 0x01, 0x05, 0xff, 0xff, 0xfd, 0x05, 0xfb, 0xfe, 0x02, 0x12, 0x01,
  0xc9, 0x46, 0x02, 0x10, 0xfb, 0x00, 0x02, 0xf5, 0xf0, 0x06, 0x3e, 0x00,
  0x0a, 0xcc, 0xeb, 0x08, 0xfc, 0xff, 0x01, 0xfd, 0xff, 0x01, 0x03, 0x12,
  0x02, 0x00, 0x00, 0x09, 0x00, 0xe8, 0x3a, 0xf7, 0xeb, 0xfc, 0x1a, 0x05,
  0x05, 0x02, 0x06, 0x01, 0x29, 0x1c, 0x06, 0xe5, 0x1a, 0x1a, 0xfb, 0x0c,
  0xf8, 0xf6, 0x0f, 0x08, 0xf3, 0x7f, 0x02, 0x2d, 0x0b, 0x08, 0x1e, 0x6d,
  0x04, 0x09, 0xe1, 0x04, 0xf5, 0x15, 0x38, 0xfe, 0xc0, 0xf7, 0x1e, 0x40,
  0x09, 0xf0, 0xfb, 0x58, 0x06, 0xf7, 0x0b, 0xfd, 0x10, 0x08, 0x26, 0x09,
  0x02, 0x16, 0x12, 0xf7, 0xfd, 0x02, 0x14, 0x0b, 0x02, 0xff, 0x1d, 0xf2,
  0x09, 0x04, 0xf8, 0xf9, 0x04, 0xb7, 0xfd, 0xec, 0x1b, 0x0a, 0x07, 0xde,
  0xfd, 0xf8, 0xca, 0x03, 0xf5, 0xb7, 0x14, 0x0f, 0x02, 0x0a, 0xf9, 0x04,
  0x05, 0x15, 0x35, 0x12, 0x0b, 0xf8, 0x07, 0x1e, 0x03, 0x1a, 0x28, 0x30,
  0xff, 0x0e, 0xfa, 0xfe, 0x04, 0x0c, 0x1d, 0x09, 0xd1, 0xef, 0x02, 0xeb,
  0xa7, 0xe0, 0x05, 0x00, 0xff, 0x0b, 0x01, 0x01, 0x18, 0xa6, 0x01, 0x0d,
  0x00, 0x07, 0xd4, 0xf8, 0xff, 0x3e, 0x5e, 0xef, 0xfe, 0xec, 0xcf, 0xfb,
  0x13, 0x02, 0xef, 0x1f, 0xfb, 0x18, 0x06, 0xd8, 0x05, 0x19, 0xfa, 0x03,
  0x02, 0x02, 0xe1, 0x06, 0x0a, 0x01, 0x8d, 0x11, 0xff, 0xfc, 0x96, 0x00,
  0xfb, 0x02, 0xa6, 0x04, 0xfe, 0xfe, 0x12, 0x02, 0x02, 0x9a, 0x00, 0x10,
  0xe7, 0xfa, 0xff, 0x23, 0xf1, 0x06, 0x81, 0x03, 0xfb, 0x12, 0xff, 0x05,
  0xff, 0xfb, 0xfc, 0xfb, 0x06, 0xea, 0xd1, 0xae, 0xfc, 0xfa, 0xfd, 0xdf,
  0x05, 0xef, 0x07, 0xd2, 0x0e, 0x08, 0x0c, 0x0f, 0x07, 0xfd, 0xda, 0x00,
  0x0a, 0xf5, 0x04, 0x25, 0xff, 0xef, 0x03, 0x00, 0x01, 0x02, 0x0d, 0x02,
  0xf7, 0x45, 0xfd, 0x05, 0xfc, 0x00, 0xed, 0xff, 0x02, 0xf7, 0xbe, 0xf2,
  0x03, 0x02, 0xf2, 0xff, 0x81, 0xfc, 0xf3, 0xf9, 0x01, 0xff, 0x02, 0x23,
  0x03, 0xfc, 0x01, 0xff, 0xe3, 0x03, 0x09, 0x04, 0xfe, 0xf6, 0xf8, 0x04,
  0x04, 0x02, 0x0b, 0xfc, 0xfc, 0xfc, 0x10, 0x06, 0x04, 0x00, 0x13, 0x00,
  0xd9, 0x2a, 0x03, 0x0c, 0xfb, 0xfd, 0xff, 0xf4, 0xf8, 0x04, 0x1c, 0xfd,
  0x0a, 0xcb, 0x00, 0x07, 0xfc, 0x02, 0xfc, 0xfe, 0x01, 0xf7, 0xf5, 0x0e,
  0xfe, 0xff, 0xfd, 0xff, 0xfe, 0xf1, 0x0e, 0x03, 0xe9, 0x00, 0x13, 0x04,
  0x02, 0x01, 0x0a, 0x03, 0xef, 0x2c, 0x0a, 0x0f, 0x02, 0x23, 0xff, 0xf1,
  0xfb, 0x2d, 0x0d, 0xfe, 0x57, 0xbc, 0xfe, 0x0f, 0x02, 0x08, 0x39, 0xb2,
  0x0c, 0x2b, 0x7f, 0x51, 0xfc, 0xfe, 0xe3, 0x0d, 0xae, 0x0c, 0x16, 0xb3,
  0x04, 0xb0, 0x0f, 0xaa, 0x02, 0x3a, 0xe6, 0x0e, 0x1d, 0x0e, 0x0b, 0x0d,
  0x1d, 0x5b, 0x12, 0xf8, 0x0a, 0xf9, 0xfd, 0xfc, 0xfb, 0x07, 0xfe, 0x05,
  0x02, 0xfe, 0xf5, 0xf2, 0x64, 0xc1, 0x0d, 0xcd, 0x24, 0xfa, 0x03, 0xe8,
  0x02, 0xee, 0xa5, 0x05, 0xed, 0x94, 0x10, 0xe7, 0x07, 0xf9, 0xf5, 0x04,
  0xfe, 0x0b, 0xc5, 0xf0, 0x05, 0xf8, 0xf6, 0x02, 0xf6, 0x32, 0x7d, 0xc8,
  0x20, 0xf8, 0x9e, 0xf1, 0xef, 0x0b, 0x15, 0x06, 0xfe, 0xfa, 0x06, 0x26,
  0xfb, 0xfa, 0xfd, 0xff, 0x03, 0x0a, 0x1c, 0x04, 0x0f, 0x0d, 0xff, 0x0c,
  0x06, 0x09, 0xeb, 0xe3, 0x06, 0x07, 0xbe, 0x05, 0x02, 0x07, 0xe2, 0x00,
  0x81, 0x00, 0xf9, 0xde, 0x00, 0x07, 0x02, 0x75, 0xfd, 0x0b, 0xfd, 0x05,
  0xe7, 0x06, 0x0c, 0x05, 0x0d, 0xfe, 0x02, 0x0f, 0xfe, 0xfd, 0x0d, 0xfa,
  0xfa, 0xfa, 0x07, 0x01, 0xfd, 0xfa, 0x1b, 0x03, 0xde, 0x13, 0xff, 0x07,
  0x04, 0x03, 0xfa, 0x03, 0xea, 0x05, 0xff, 0x02, 0x03, 0xc5, 0x06, 0x08,
  0xfa, 0x01, 0x03, 0x05, 0x00, 0xf4, 0xe4, 0x08, 0x01, 0xfb, 0x04, 0x0f,
  0x02, 0xfc, 0xfb, 0x2c, 0x16, 0xfd, 0x16, 0x08, 0x06, 0xfb, 0x05, 0xfa,
  0x01, 0x15, 0xc4, 0x53, 0xe6, 0xa2, 0x62, 0x31, 0x2f, 0x11, 0xf6, 0xf9,
  0x41, 0x27, 0x0e, 0xf4, 0x43, 0x84, 0x35, 0xf4, 0x95, 0xe0, 0x65, 0xbb,
  0xac, 0x57, 0x5c, 0xcd, 0x26, 0x24, 0xe8, 0x93, 0x1b, 0xbc, 0xa5, 0x48,
  0x4f, 0x8e, 0x08, 0xec, 0x41, 0xd2, 0x4b, 0xf9, 0x26, 0x1e, 0x67, 0xa5,
  0xc3, 0xe4, 0xe0, 0xbf, 0x67, 0x5e, 0x62, 0xd3, 0x2f, 0xc5, 0x24, 0x91,
  0x48, 0x5a, 0x41, 0x3c, 0x84, 0x53, 0x9b, 0xa8, 0x43, 0xad, 0xa3, 0x68,
  0x3d, 0xfd, 0x86, 0x3d, 0xcc, 0xee, 0x04, 0x0f, 0x9a, 0x5e, 0xc3, 0x36,
  0x14, 0x4c, 0xf0, 0xb5, 0x1e, 0x81, 0x71, 0x86, 0xd9, 0xff, 0xe3, 0x36,
  0xd3, 0xc9, 0xa6, 0x02, 0x3b, 0xcf, 0x00, 0x00, 0xf9, 0xe1, 0xff, 0x02,
  0x02, 0x08, 0x05, 0x02, 0x04, 0x4a, 0xfb, 0x32, 0xff, 0xf7, 0x38, 0x7f,
  0x04, 0xd4, 0x04, 0xde, 0x01, 0xed, 0x49, 0x02, 0x5b, 0xfb, 0xe3, 0x7c,
  0xfb, 0xff, 0xfe, 0x68, 0x01, 0x0a, 0xfc, 0x03, 0x11, 0x04, 0xe3, 0x00,
  0xff, 0x10, 0x03, 0xf9, 0xfc, 0xfe, 0x25, 0xfd, 0x04, 0xfc, 0x33, 0x09,
  0xff, 0xfb, 0x05, 0x00, 0x10, 0x0e, 0xfc, 0x0d, 0xcf, 0xff, 0x04, 0x03,
  0x0c, 0xf2, 0x00, 0xfc, 0x08, 0x16, 0x00, 0xf4, 0x00, 0xfd, 0x00, 0x05,
  0x00, 0xe8, 0x42, 0x0f, 0x02, 0x00, 0xfd, 0xe0, 0x01, 0xdc, 0x3c, 0x4d,
  0xfe, 0xf3, 0x0b, 0xf9, 0xff, 0x06, 0xf9, 0x01, 0xf8, 0x02, 0xfe, 0x15,
  0x00, 0xfc, 0xfe, 0x01, 0x03, 0x08, 0x0b, 0xff, 0x01, 0x32, 0xfe, 0xfb,
  0xfe, 0x02, 0xed, 0xf4, 0xff, 0x04, 0xe7, 0x00, 0x02, 0x07, 0xea, 0xfe,
  0x81, 0xfe, 0xfd, 0xf9, 0x01, 0x05, 0x00, 0x17, 0x02, 0xfe, 0x02, 0x02,
  0xee, 0x01, 0x08, 0x00, 0x01, 0xfe, 0xf7, 0x00, 0xff, 0xff, 0xff, 0x03,
  0xfe, 0x02, 0x04, 0xff, 0x00, 0x00, 0x0c, 0x01, 0xe5, 0x16, 0x03, 0x06,
  0x03, 0x00, 0x02, 0xfe, 0xf1, 0x03, 0x0c, 0xff, 0x07, 0xea, 0xfd, 0x02,
  0xfe, 0x01, 0x00, 0x00, 0x00, 0xfe, 0xe3, 0x03, 0xfe, 0xfd, 0x01, 0x06,
  0xff, 0xfa, 0x10, 0xfc, 0xf9, 0xff, 0x12, 0x01, 0x00, 0x01, 0x02, 0x00,
  0xfa, 0xee, 0x01, 0xe1, 0xc3, 0xf3, 0x03, 0x05, 0xfb, 0xf7, 0xcf, 0xf4,
  0xdf, 0x90, 0x06, 0x1d, 0x07, 0x00, 0x22, 0x32, 0x0b, 0xde, 0xdc, 0xf2,
  0x01, 0xc8, 0x17, 0x03, 0x81, 0x08, 0xf8, 0x49, 0xf6, 0x1f, 0x02, 0x26,
  0x05, 0xe8, 0x07, 0x0a, 0x41, 0x02, 0xc7, 0xff, 0x0c, 0x30, 0x0f, 0x04,
  0x00, 0xfe, 0xe0, 0x07, 0x05, 0x01, 0xec, 0x1f, 0xf6, 0x09, 0x01, 0xfb,
  0x53, 0xd6, 0x00, 0x17, 0xdb, 0xf6, 0x03, 0x1b, 0x26, 0x17, 0xeb, 0xfa,
  0xf4, 0x6a, 0x16, 0x10, 0xf8, 0xff, 0xf7, 0x03, 0xf7, 0xec, 0x22, 0xc9,
  0x00, 0xfb, 0x01, 0xc2, 0x07, 0xf9, 0x1e, 0x25, 0xfb, 0x12, 0xf0, 0x1d,
  0x03, 0xf6, 0xcf, 0x00, 0x13, 0xf9, 0xff, 0x16, 0x07, 0xf1, 0x08, 0x06,
  0xf9, 0x10, 0x2d, 0x07, 0x11, 0x11, 0x01, 0x33, 0xfc, 0x03, 0x08, 0x0b,
  0x05, 0x00, 0xa9, 0x06, 0xfe, 0x0b, 0xf0, 0x04, 0x84, 0xfe, 0x02, 0x00,
  0xf9, 0x07, 0x06, 0x7f, 0x07, 0x19, 0xff, 0xf8, 0xfb, 0x05, 0xff, 0xff,
  0x10, 0x14, 0x12, 0x06, 0x07, 0xfd, 0x09, 0xfa, 0x04, 0xfb, 0x0b, 0x07,
  0xf9, 0x01, 0x20, 0x00, 0xef, 0xf3, 0xfe, 0x11, 0xf5, 0xfc, 0x01, 0x05,
  0xf6, 0xf7, 0xe2, 0xfb, 0x09, 0xc4, 0x0d, 0xff, 0xf9, 0xf9, 0x05, 0x00,
  0x03, 0xe2, 0xf8, 0x0d, 0x05, 0x07, 0x04, 0x07, 0x04, 0xfd, 0x0b, 0x40,
  0x24, 0xfc, 0x08, 0x0a, 0x00, 0xf9, 0x05, 0xfc, 0x2e, 0x23, 0x48, 0x26,
  0xc5, 0xe4, 0x77, 0x0b, 0x64, 0xd6, 0x4b, 0xe7, 0xa4, 0xe8, 0x5c, 0x66,
  0x9f, 0xea, 0x08, 0xc1, 0xdb, 0xc1, 0xb3, 0xc8, 0xcd, 0x55, 0xa5, 0xa0,
  0x3d, 0x76, 0x22, 0xfb, 0x45, 0xe1, 0xd4, 0xc2, 0xe1, 0x19, 0x8d, 0x24,
  0x6a, 0x07, 0xfc, 0xc6, 0xe8, 0xe4, 0xea, 0x81, 0x0e, 0x1a, 0xe2, 0x11,
  0x14, 0x06, 0x08, 0x4a, 0xf4, 0x6e, 0xa9, 0x8d, 0x89, 0x74, 0xa0, 0x84,
  0x50, 0xc7, 0x74, 0x0e, 0xc6, 0x34, 0x5b, 0xca, 0xa6, 0xca, 0x46, 0xa2,
  0x71, 0x61, 0x4e, 0x0a, 0x61, 0x5c, 0x4d, 0xbb, 0x99, 0x19, 0xd5, 0xf0,
  0x9c, 0xcc, 0x79, 0xac, 0x59, 0x0a, 0x34, 0xb8, 0x16, 0xd8, 0xd8, 0x9b,
  0x16, 0xf4, 0xfd, 0x05, 0xf9, 0xef, 0x05, 0x03, 0x03, 0x14, 0x1e, 0xfb,
  0x04, 0x7c, 0xfe, 0x35, 0xfc, 0x04, 0x0f, 0x2d, 0xff, 0x14, 0xbc, 0xf6,
  0xff, 0x0a, 0xf7, 0x05, 0x81, 0xfc, 0xf4, 0x2e, 0xfb, 0x03, 0x03, 0x44,
  0x04, 0x10, 0xfb, 0x05, 0xf5, 0x01, 0xfe, 0xfc, 0x08, 0x15, 0xf9, 0x08,
  0xfe, 0x03, 0x10, 0x05, 0x03, 0xfb, 0x19, 0x0a, 0xfd, 0x03, 0x1a, 0x00,
  0xfb, 0xdc, 0x05, 0x0f, 0xed, 0xfb, 0xfe, 0x04, 0xfb, 0xfc, 0xf8, 0xfd,
  0x0d, 0xd6, 0x0c, 0x06, 0x03, 0x02, 0x04, 0xfc, 0xfb, 0xe8, 0xfb, 0x07,
  0x02, 0xfe, 0xfb, 0xf8, 0xfb, 0xec, 0x41, 0x14, 0xf6, 0xfd, 0x19, 0x05,
  0x08, 0x02, 0x08, 0x00, 0xe2, 0xf7, 0x03, 0xa8, 0xe3, 0xf9, 0x07, 0xf4,
  0x02, 0x02, 0xf1, 0x0c, 0x06, 0x32, 0x08, 0x16, 0x04, 0x0f, 0xf1, 0x43,
  0xf5, 0xeb, 0x16, 0xf2, 0x00, 0xee, 0x05, 0xfc, 0x81, 0x00, 0xf0, 0x6b,
  0x04, 0x24, 0xfb, 0xcb, 0x04, 0x00, 0x1c, 0x0c, 0x1b, 0x09, 0xe6, 0xf5,
  0xff, 0x0b, 0xe7, 0xf8, 0x0a, 0x0c, 0xf1, 0xf5, 0x06, 0x01, 0xdb, 0x17,
  0xfd, 0x0b, 0xf8, 0xf5, 0x10, 0x52, 0x03, 0x22, 0xe5, 0x07, 0x05, 0x0a,
  0x07, 0x06, 0x6e, 0xfc, 0x16, 0x69, 0x18, 0x07, 0xfa, 0xf6, 0xf5, 0x04,
  0x04, 0xfb, 0xca, 0xe2, 0xf9, 0xfd, 0xfc, 0xe5, 0x04, 0xe8, 0x57, 0xd9,
  0xca, 0x0c, 0x06, 0x1e, 0x11, 0xf6, 0xe9, 0xf9, 0xf2, 0x14, 0x05, 0x02,
  0x0a, 0x16, 0xf9, 0x04, 0xfa, 0xfe, 0xf2, 0x06, 0x0c, 0x81, 0x04, 0xe7,
  0x06, 0x01, 0x04, 0xc4, 0x06, 0xfe, 0x26, 0x17, 0x05, 0x03, 0xe9, 0xff,
  0x14, 0x04, 0x0f, 0xb5, 0xfb, 0xf9, 0x02, 0xe6, 0x02, 0x05, 0xfe, 0x06,
  0x13, 0x05, 0x03, 0xfa, 0x08, 0xff, 0x19, 0xfc, 0xfc, 0xfe, 0x09, 0xfe,
  0xfb, 0x02, 0xf8, 0x08, 0xfc, 0xf9, 0xf9, 0x01, 0x13, 0xdc, 0x04, 0xee,
  0x12, 0xfa, 0xf9, 0xf8, 0x08, 0x07, 0xce, 0x02, 0x01, 0x17, 0x08, 0x00,
  0xf9, 0xfb, 0xfe, 0x02, 0x06, 0x1d, 0x11, 0xfa, 0x06, 0x01, 0xfc, 0x14,
  0x04, 0x16, 0xc0, 0xff, 0x1f, 0x02, 0xe9, 0x00, 0xfd, 0xff, 0x00, 0x03,
  0xf7, 0x01, 0x01, 0x13, 0x04, 0xfc, 0x00, 0x03, 0xfd, 0x05, 0x08, 0x00,
  0xfe, 0x19, 0x01, 0xf7, 0xfd, 0x03, 0xed, 0xe9, 0xfe, 0x04, 0xdf, 0xfc,
  0xfe, 0x07, 0xdf, 0x00, 0x81, 0x02, 0x00, 0xe7, 0xfd, 0x06, 0x01, 0x1e,
  0xff, 0xfc, 0x01, 0x02, 0xf4, 0x00, 0x0b, 0xff, 0x01, 0xff, 0xfc, 0x05,
  0x01, 0x01, 0x05, 0x02, 0xff, 0x01, 0x03, 0xfe, 0xfe, 0xfd, 0x08, 0x02,
  0xeb, 0x15, 0x01, 0x05, 0x08, 0xfd, 0x01, 0xfa, 0xf4, 0x00, 0x0d, 0x02,
  0x06, 0xf1, 0x00, 0x01, 0x00, 0x00, 0xfe, 0x00, 0xfe, 0xff, 0xe4, 0x05,
  0x00, 0xff, 0x03, 0x08, 0x02, 0xfc, 0x01, 0xff, 0xfb, 0x03, 0x0d, 0x03,
  0x01, 0x01, 0x04, 0x03, 0x33, 0x11, 0xfa, 0xa7, 0x00, 0x22, 0xfe, 0x04,
  0x00, 0x0e, 0xfc, 0x02, 0x0e, 0x81, 0xfa, 0x2d, 0xfe, 0x00, 0x5b, 0x46,
  0x04, 0xff, 0x1a, 0x0c, 0xfa, 0x04, 0x1d, 0x03, 0x45, 0x02, 0x1a, 0x34,
  0x05, 0xf9, 0x00, 0x0e, 0x00, 0x01, 0x05, 0x03, 0x18, 0xfd, 0xf2, 0x02,
  0x01, 0x35, 0x38, 0xf0, 0x01, 0xff, 0x15, 0x03, 0xfd, 0x05, 0x19, 0x10,
  0xfc, 0xff, 0xeb, 0xfc, 0x2e, 0x85, 0xfb, 0xeb, 0x04, 0xfe, 0x04, 0xfa,
  0x27, 0xf2, 0xb8, 0x05, 0xfd, 0xe0, 0x28, 0xf4, 0xfe, 0xfd, 0xff, 0xff,
  0xfa, 0x01, 0x37, 0xf6, 0x01, 0x03, 0x01, 0xf1, 0x02, 0x19, 0xc3, 0x3a,
  0x17, 0x04, 0xdc, 0xf9, 0xff, 0xfe, 0x00, 0xfd, 0x5b, 0xb7, 0x94, 0x14,
  0xe4, 0x0b, 0x71, 0x16, 0x74, 0xc8, 0x69, 0xce, 0x3e, 0xad, 0x5b, 0xfd,
  0x91, 0xc4, 0x66, 0xd4, 0x7d, 0x66, 0xed, 0xff, 0x39, 0xa8, 0x26, 0x1c,
  0xda, 0x49, 0x2f, 0xaa, 0xd8, 0x5a, 0x12, 0xa4, 0x6e, 0x19, 0x89, 0xb5,
  0x79, 0x0c, 0xae, 0x78, 0xe0, 0x78, 0x66, 0x1a, 0xa2, 0xc6, 0x51, 0x6c,
  0x10, 0x1e, 0x4f, 0xcc, 0x08, 0xa3, 0x65, 0x5d, 0x3d, 0xb2, 0x9b, 0x3e,
  0x46, 0xc9, 0xcc, 0x89, 0x46, 0xc1, 0xf6, 0x9e, 0x06, 0xd2, 0xb4, 0x7b,
  0x20, 0x18, 0xfe, 0xf4, 0xf1, 0x3c, 0xdc, 0xe7, 0xb2, 0x6e, 0x8c, 0xef,
  0x16, 0x03, 0x93, 0x4d, 0x8e, 0xaf, 0x5d, 0xcf, 0x4a, 0x83, 0x81, 0x73,
  0x56, 0x28, 0x9d, 0x36, 0xa4, 0xd3, 0x95, 0xa1, 0xbc, 0x7c, 0x04, 0x48,
  0x13, 0xfe, 0x36, 0x6b, 0xf8, 0x23, 0x37, 0x70, 0xbc, 0x28, 0x8d, 0x73,
  0x6a, 0xb1, 0x91, 0x63, 0xd8, 0xed, 0xa4, 0xcc, 0xd1, 0x60, 0x7a, 0x7a,
  0x32, 0x94, 0xbb, 0x12, 0x81, 0x5e, 0xa4, 0x9a, 0x05, 0x5f, 0x89, 0x5e,
  0xa2, 0xd1, 0x8a, 0xaa, 0xba, 0x32, 0xbc, 0xb1, 0xd7, 0xd5, 0x55, 0xde,
  0x46, 0xcf, 0xdf, 0x90, 0x70, 0xbc, 0x54, 0xcc, 0x88, 0xb2, 0x01, 0xcd,
  0xe4, 0x3d, 0x89, 0x07, 0xb3, 0x90, 0x50, 0xd8, 0x2b, 0x87, 0xa6, 0x96,
  0x7a, 0xb2, 0x9e, 0x4a, 0x42, 0x6a, 0xdd, 0xcd, 0x4b, 0x8f, 0xbd, 0xc7,
  0x4e, 0x7f, 0xca, 0xce, 0x25, 0xf3, 0x01, 0x0f, 0x05, 0xee, 0xfe, 0x04,
  0xfc, 0x22, 0x1e, 0xff, 0x0b, 0x65, 0xfc, 0x2f, 0xfd, 0xfe, 0x18, 0x24,
  0x00, 0x22, 0xe6, 0xf8, 0x03, 0x0e, 0xf7, 0xfc, 0x81, 0x02, 0xf4, 0x0c,
  0xfc, 0x01, 0x02, 0x1c, 0xff, 0x1a, 0x01, 0xfd, 0xfc, 0xfd, 0xfc, 0x04,
  0x04, 0x17, 0xf4, 0x02, 0xfe, 0xff, 0x22, 0xff, 0xfd, 0x00, 0x24, 0x08,
  0xff, 0x01, 0x15, 0x00, 0xf5, 0xde, 0xff, 0x0e, 0xf3, 0xfe, 0xfd, 0xfd,
  0xf0, 0xf8, 0xee, 0xfe, 0x11, 0xc4, 0x02, 0x05, 0xfc, 0xfc, 0x03, 0xfc,
  0xfb, 0xe4, 0x06, 0x12, 0xfd, 0xfc, 0x00, 0xf6, 0xfe, 0xf1, 0x33, 0x0d,
  0x01, 0xff, 0x1d, 0xfd, 0x03, 0xfd, 0x08, 0x03, 0xea, 0x30, 0xfd, 0x01,
  0x24, 0x28, 0x0b, 0xfb, 0xf8, 0xd1, 0xe1, 0xf8, 0xed, 0x98, 0xfd, 0xcb,
  0xfd, 0x0c, 0xfd, 0x81, 0xf4, 0x13, 0x0b, 0x20, 0x08, 0x1b, 0xec, 0x03,
  0x0d, 0x04, 0x13, 0x84, 0x04, 0xe2, 0xf5, 0xc3, 0xfe, 0xfe, 0x0a, 0xf8,
  0x1c, 0x0b, 0x20, 0xfe, 0x01, 0xfd, 0x0b, 0xf5, 0x0a, 0xfe, 0x12, 0x0b,
  0x05, 0x05, 0x0f, 0x09, 0xf8, 0xf4, 0xea, 0x07, 0x1f, 0xfb, 0xff, 0xf0,
  0x34, 0xff, 0xf3, 0xe6, 0x10, 0x08, 0x1c, 0xf3, 0x09, 0x4a, 0x00, 0xfe,
  0xf8, 0xfd, 0x09, 0x0d, 0x01, 0x3a, 0x14, 0x20, 0x01, 0x03, 0x00, 0x1f,
  0x00, 0x2d, 0x8d, 0xdc, 0xf7, 0x0a, 0xe9, 0x07, 0xf4, 0xf9, 0x1f, 0xfd,
  0x3b, 0xd5, 0x04, 0x07, 0xf4, 0xe6, 0xff, 0x00, 0x00, 0xfd, 0xf6, 0xff,
  0xef, 0x4d, 0x03, 0x31, 0x02, 0xf0, 0x33, 0x7f, 0xfb, 0xd3, 0xea, 0xdf,
  0x06, 0xee, 0x4a, 0x05, 0x47, 0xff, 0xe0, 0x7b, 0x05, 0x02, 0x03, 0x68,
  0x02, 0x03, 0xfe, 0x05, 0x0f, 0xfd, 0xdb, 0x01, 0xfb, 0x16, 0x06, 0xf5,
  0x05, 0x03, 0x18, 0xfb, 0x05, 0xfd, 0x2d, 0x08, 0x00, 0xfe, 0x08, 0x02,
  0x11, 0x12, 0x03, 0x06, 0xd3, 0xfe, 0x01, 0x09, 0x12, 0xf2, 0x0b, 0x00,
  0xfe, 0x1c, 0xfe, 0xf8, 0xfa, 0xfd, 0x05, 0x05, 0xfb, 0xe5, 0x40, 0x07,
  0xfa, 0x00, 0xfb, 0xdb, 0x00, 0xd7, 0x35, 0x48, 0xfe, 0xf9, 0x07, 0x01,
  0xfe, 0xfe, 0xec, 0xfb, 0xca, 0xe5, 0x9a, 0xe3, 0x17, 0x8a, 0xe7, 0xaa,
  0x3d, 0x11, 0xab, 0x68, 0xf6, 0x56, 0xbd, 0x93, 0x1a, 0xfb, 0xa5, 0x08,
  0xc2, 0x03, 0x55, 0x77, 0xa5, 0x0c, 0x25, 0xf8, 0xc2, 0x8e, 0x8e, 0x83,
  0x0c, 0xfd, 0x72, 0xde, 0x3a, 0xfb, 0xd6, 0x69, 0x70, 0x03, 0xbc, 0xd4,
  0xd1, 0x4d, 0x2b, 0x94, 0x42, 0x49, 0xc6, 0xb5, 0xe5, 0x88, 0xb1, 0x01,
  0xcd, 0xe3, 0x4d, 0xb8, 0x98, 0x6b, 0x78, 0x28, 0x12, 0x44, 0x1f, 0xdc,
  0x62, 0x16, 0x78, 0xa6, 0x83, 0xed, 0x28, 0x56, 0xba, 0x1c, 0x39, 0x27,
  0xf7, 0xbd, 0x69, 0xac, 0xeb, 0x81, 0x15, 0x0e, 0xd5, 0x36, 0x0d, 0x30,
  0xc1, 0xb9, 0x4b, 0x5a, 0xa5, 0x66, 0x0f, 0xe9, 0xb4, 0x0f, 0x0b, 0x0b,
  0x03, 0x15, 0xf7, 0x05, 0xff, 0xf8, 0xe7, 0x0a, 0x06, 0xe3, 0xfd, 0xa8,
  0x09, 0xfc, 0xb7, 0x81, 0x01, 0x0e, 0x11, 0x0e, 0x04, 0x03, 0xcc, 0xf8,
  0xac, 0xf6, 0x10, 0x96, 0xf6, 0x09, 0x02, 0x92, 0xf7, 0xec, 0xfd, 0xf5,
  0x03, 0x0b, 0x18, 0xf7, 0x0c, 0xdb, 0xf4, 0xf7, 0x04, 0xfa, 0xf0, 0x09,
  0xfd, 0xff, 0xd4, 0xfd, 0xfe, 0xf5, 0x00, 0xf6, 0xe7, 0x45, 0x08, 0xfb,
  0x30, 0x00, 0xfd, 0xff, 0x03, 0x1d, 0x27, 0x03, 0x0d, 0x28, 0xfb, 0x0c,
  0x03, 0x09, 0x00, 0xf9, 0xf6, 0x40, 0xc5, 0xfe, 0x00, 0x09, 0x06, 0x26,
  0x0a, 0x1a, 0xdb, 0xc0, 0xfd, 0x0e, 0x0c, 0x0a, 0xfb, 0x06, 0x07, 0xf9,
  0xdf, 0xf0, 0xfe, 0x2a, 0xf1, 0xe5, 0x02, 0x04, 0x03, 0x01, 0x12, 0xfc,
  0xfa, 0x7f, 0x02, 0xed, 0x04, 0x02, 0xc9, 0xe4, 0x01, 0xf1, 0xef, 0xe3,
  0xfc, 0x07, 0xd8, 0xfc, 0xec, 0x05, 0xef, 0xda, 0x01, 0x15, 0xfd, 0xc7,
  0xfb, 0xfe, 0xfe, 0xfd, 0xdd, 0xfc, 0x0c, 0x01, 0x01, 0xd0, 0xc1, 0x0e,
  0xfc, 0x00, 0xe1, 0xff, 0x01, 0x00, 0xea, 0x00, 0xfd, 0xfe, 0x1b, 0x00,
  0xbf, 0x43, 0xff, 0x14, 0xfa, 0xfd, 0x01, 0x04, 0xe7, 0x0a, 0x28, 0x04,
  0x09, 0xc7, 0xfb, 0x10, 0x00, 0x00, 0x02, 0x01, 0xff, 0xfe, 0xce, 0x06,
  0x03, 0xff, 0x04, 0x09, 0xfc, 0xe8, 0x1b, 0xd8, 0xcc, 0x0a, 0x29, 0x0e,
  0x0c, 0xfe, 0x01, 0xfc, 0xea, 0xfe, 0xfb, 0x1f, 0x0e, 0x03, 0x04, 0x04,
  0x04, 0xc7, 0xe4, 0xfe, 0xd5, 0x3a, 0x06, 0xb5, 0xfd, 0xff, 0xbb, 0xd4,
  0x02, 0xd9, 0xb6, 0x0c, 0xfd, 0x07, 0x02, 0xfe, 0xb4, 0xff, 0xfc, 0xda,
  0x06, 0xfb, 0x04, 0x81, 0xff, 0xb6, 0x02, 0x02, 0xf7, 0xfe, 0x18, 0xfc,
  0xff, 0xb9, 0xd3, 0x0d, 0x01, 0xfd, 0xd9, 0xfa, 0x03, 0xfb, 0xf9, 0xe8,
  0x06, 0xfe, 0x04, 0xff, 0xf4, 0x61, 0xfe, 0x0a, 0x10, 0xfd, 0x02, 0xf9,
  0xe1, 0x12, 0x43, 0xfc, 0xf2, 0x0c, 0xbf, 0x0b, 0x05, 0xfd, 0x04, 0x05,
  0xfe, 0x1d, 0xf3, 0xff, 0xfe, 0x01, 0xfa, 0x14, 0x00, 0x02, 0x11, 0xb0,
  0xfd, 0x00, 0x06, 0x06, 0x00, 0x05, 0x02, 0xfa, 0x6d, 0xfa, 0xf7, 0xb9,
  0x25, 0xf2, 0xe9, 0x18, 0xfb, 0x14, 0xf4, 0xea, 0xfa, 0x26, 0x13, 0x3a,
  0x15, 0x11, 0x64, 0x03, 0x08, 0x1b, 0x00, 0x22, 0xf6, 0x14, 0x5b, 0x07,
  0x11, 0x08, 0xfb, 0x5d, 0x06, 0xbf, 0x0b, 0x56, 0x01, 0x20, 0x16, 0xf9,
  0x23, 0x19, 0xda, 0xe5, 0xec, 0x7f, 0x7c, 0xb1, 0x08, 0x16, 0x61, 0xeb,
  0x1d, 0x18, 0x64, 0xff, 0xe6, 0xf5, 0xc4, 0xed, 0x03, 0x47, 0xf8, 0xef,
  0xd9, 0xed, 0xe0, 0x96, 0x30, 0xdd, 0x0d, 0x0c, 0x34, 0x55, 0x3b, 0xe5,
  0x00, 0x0c, 0xe7, 0xf6, 0xfa, 0x01, 0x68, 0x02, 0x08, 0x01, 0xfe, 0xfc,
  0x1d, 0xf5, 0xc9, 0x18, 0x9d, 0xd8, 0xeb, 0xd7, 0xfb, 0xe8, 0x23, 0x1d,
  0x14, 0xec, 0x03, 0xf8, 0x00, 0xe5, 0xfc, 0xfe, 0xfb, 0x14, 0x1c, 0x00,
  0x0e, 0x66, 0xfe, 0x2a, 0x05, 0x05, 0x0c, 0x18, 0x02, 0x0e, 0xd1, 0xf4,
  0xfe, 0x08, 0xf2, 0x04, 0x81, 0xfd, 0xf9, 0x26, 0xfd, 0x06, 0xff, 0x36,
  0x00, 0x11, 0xff, 0xfe, 0xf9, 0x00, 0xfb, 0x02, 0x05, 0x17, 0xf2, 0x04,
  0x04, 0xfc, 0x12, 0x05, 0xfd, 0x04, 0x18, 0x0d, 0x02, 0xfc, 0x11, 0xfb,
  0xf7, 0xe8, 0xff, 0x0b, 0xf0, 0xfe, 0x03, 0xfd, 0xf6, 0xf8, 0x0b, 0xfe,
  0x0f, 0xec, 0x09, 0x06, 0xfd, 0xfb, 0x05, 0x00, 0x01, 0xe2, 0xef, 0x0b,
  0x00, 0xfe, 0x05, 0xf1, 0x03, 0xe2, 0x32, 0x0f, 0xf8, 0x02, 0x17, 0x02,
  0x04, 0x03, 0x02, 0xff, 0xed, 0xfe, 0x02, 0x0e, 0x01, 0xf9, 0xfc, 0x03,
  0xfb, 0x04, 0x00, 0x01, 0xf7, 0xfa, 0x04, 0xf0, 0xfd, 0xff, 0xeb, 0xd3,
  0x02, 0x09, 0xbc, 0x01, 0xff, 0x01, 0xd8, 0xfb, 0x81, 0xfd, 0x06, 0xd4,
  0x02, 0x0b, 0x01, 0x22, 0xfd, 0xf9, 0x06, 0x01, 0xf2, 0x01, 0x0c, 0x03,
  0x02, 0xfc, 0xfe, 0x07, 0x01, 0x01, 0xfa, 0xfc, 0x01, 0xfc, 0xfa, 0xfb,
  0xfc, 0x02, 0x07, 0xfc, 0xee, 0xfe, 0x00, 0x0b, 0x0d, 0x02, 0x03, 0x02,
  0xf7, 0x08, 0xfc, 0xfe, 0x04, 0xde, 0xfa, 0x08, 0x02, 0xfe, 0xfd, 0x01,
  0xff, 0xfe, 0xde, 0xff, 0x03, 0x00, 0x03, 0x09, 0x00, 0xfc, 0xfd, 0x02,
  0x00, 0x03, 0x0b, 0x05, 0x03, 0xfc, 0x05, 0xfc, 0x07, 0x02, 0x03, 0xf9,
  0xf6, 0x13, 0xfb, 0x04, 0xff, 0xf0, 0xe6, 0x01, 0x0d, 0x81, 0xfb, 0xf5,
  0x03, 0x04, 0x14, 0xc9, 0xff, 0xe8, 0x1d, 0x18, 0xfb, 0xf2, 0xf8, 0xfc,
  0xf5, 0x00, 0x07, 0xbe, 0x03, 0xfb, 0x03, 0xe4, 0x01, 0x07, 0xff, 0xfd,
  0x14, 0x03, 0xf2, 0x03, 0x0a, 0x0a, 0x1e, 0x03, 0x04, 0x05, 0xfd, 0xfe,
  0xfb, 0xfc, 0x01, 0x04, 0x03, 0xfe, 0xf7, 0x03, 0x18, 0xc3, 0x04, 0xf4,
  0x0b, 0x03, 0xfc, 0x02, 0x0b, 0x06, 0xab, 0xfb, 0xfb, 0x0a, 0x03, 0xfe,
  0xfd, 0xfc, 0x01, 0xfc, 0x00, 0x0c, 0x15, 0xf1, 0xff, 0xfd, 0x02, 0xfe,
  0x01, 0x0e, 0xca, 0xfa, 0x21, 0x08, 0xed, 0xfa, 0xfe, 0x01, 0xf2, 0xfe,
  0x4f, 0xf7, 0xfe, 0xe6, 0x02, 0xfa, 0xfe, 0x00, 0xfd, 0xe8, 0xfb, 0x03,
  0xfd, 0x0c, 0xfb, 0x34, 0xfb, 0xfb, 0x49, 0x6b, 0xfd, 0xad, 0xbe, 0xfe,
  0x06, 0xfa, 0x4f, 0x03, 0x19, 0x03, 0x02, 0x62, 0xfd, 0x02, 0x04, 0x7f,
  0xfb, 0xfc, 0x04, 0xfa, 0x18, 0xff, 0xf7, 0xfb, 0x04, 0x28, 0x30, 0xfb,
  0x04, 0xfa, 0x2d, 0x06, 0xfa, 0x07, 0x37, 0x07, 0xfe, 0xfe, 0xfe, 0xfc,
  0x25, 0xec, 0xfc, 0x07, 0xef, 0x06, 0x00, 0x00, 0x19, 0xf2, 0xec, 0x06,
  0x09, 0xd2, 0x13, 0x01, 0x03, 0xfd, 0xff, 0x02, 0x02, 0xf1, 0x47, 0x11,
  0x00, 0x06, 0xfc, 0xea, 0x01, 0xf7, 0xf8, 0x55, 0xff, 0xff, 0x01, 0x00,
  0xff, 0xff, 0xfd, 0xfa, 0x47, 0xdd, 0x02, 0xf7, 0xfa, 0xe2, 0xfc, 0x01,
  0x02, 0xfe, 0x00, 0x03, 0xff, 0x4e, 0x03, 0x2d, 0xff, 0xfb, 0x34, 0x7f,
  0xfc, 0xcd, 0xe4, 0xe5, 0x04, 0xf5, 0x4b, 0xfa, 0x35, 0xfc, 0xe6, 0x73,
  0xfe, 0xfc, 0xfb, 0x70, 0xfe, 0x0d, 0x00, 0xfe, 0x0f, 0x03, 0xf9, 0xfc,
  0xfa, 0x14, 0xfd, 0xf7, 0x00, 0x02, 0x21, 0x06, 0xfd, 0x02, 0x33, 0x09,
  0xfb, 0x01, 0x06, 0x00, 0x05, 0x02, 0x00, 0x05, 0xe1, 0x03, 0xfd, 0x07,
  0x09, 0xf1, 0x01, 0xfc, 0x0f, 0xf8, 0xfd, 0xf3, 0xff, 0xff, 0x06, 0x00,
  0x05, 0xf2, 0x35, 0x17, 0x04, 0x04, 0x06, 0xe7, 0x04, 0xd6, 0x2b, 0x4b,
  0x02, 0xfb, 0x0e, 0xfa, 0xfb, 0x02, 0xf8, 0x02, 0x22, 0x98, 0x6b, 0xf7,
  0x75, 0xa6, 0x64, 0x8d, 0x15, 0x1e, 0x6f, 0x74, 0xb3, 0xf5, 0x68, 0xe3,
  0x05, 0x97, 0xb3, 0x30, 0xfc, 0x94, 0x97, 0x93, 0xff, 0xfc, 0xd2, 0xb7,
  0x98, 0xfe, 0x6b, 0xc1, 0x5c, 0x82, 0x12, 0xc3, 0xd6, 0x94, 0x2c, 0xa7,
  0x0e, 0xa5, 0xb4, 0xb1, 0x66, 0x27, 0x0e, 0xb9, 0xeb, 0x33, 0x3d, 0x94,
  0x48, 0xdd, 0x20, 0x5e, 0x9b, 0x0a, 0x28, 0x75, 0x3a, 0x40, 0x38, 0x1a,
  0xac, 0x7f, 0x9c, 0x2d, 0x1e, 0x9d, 0x7f, 0xf1, 0x07, 0xb0, 0xca, 0xfc,
  0x9e, 0x06, 0x21, 0x07, 0x47, 0x96, 0xf1, 0xb5, 0x86, 0x91, 0x0f, 0x3f,
  0xfc, 0x33, 0xfc, 0x19, 0x37, 0xd5, 0x48, 0x0a, 0x66, 0xb7, 0x92, 0xca,
  0xfb, 0xec, 0xfb, 0xe8, 0xc3, 0xff, 0x01, 0x01, 0x03, 0xd0, 0xbe, 0xfb,
  0xd8, 0x97, 0xfa, 0xfc, 0x04, 0x06, 0x0b, 0x25, 0x07, 0x81, 0x05, 0xf9,
  0x03, 0xc9, 0x13, 0x00, 0x1e, 0x06, 0xf6, 0x33, 0xfd, 0x0b, 0x02, 0xff,
  0x05, 0xea, 0x03, 0x02, 0x35, 0x05, 0xc2, 0x02, 0x03, 0x20, 0x13, 0xf5,
  0xfa, 0xf9, 0xe0, 0xf9, 0xfc, 0x07, 0xed, 0x05, 0x06, 0x06, 0xf2, 0xff,
  0x4e, 0xd4, 0xf9, 0x00, 0xf4, 0x05, 0x04, 0x18, 0x18, 0x0c, 0xe6, 0xfd,
  0xf6, 0x64, 0x08, 0x00, 0xff, 0x02, 0xfd, 0xfc, 0xfc, 0xf7, 0x13, 0xbf,
  0xfa, 0x03, 0xfd, 0xd4, 0xfe, 0xef, 0xf3, 0x10, 0x03, 0x0c, 0xfc, 0x0c,
  0xfb, 0xfd, 0xc9, 0xf9, 0x1e, 0x0a, 0xfd, 0x81, 0xf5, 0x21, 0x04, 0xf7,
  0x07, 0xea, 0xcf, 0x09, 0xfd, 0x88, 0x01, 0x17, 0xfb, 0x02, 0x4b, 0x54,
  0xf5, 0xca, 0x0e, 0x0c, 0x03, 0xe0, 0x0c, 0xfb, 0x32, 0x08, 0x04, 0x45,
  0xf8, 0x10, 0xfc, 0xec, 0x0b, 0xf4, 0x13, 0xf9, 0x41, 0x0a, 0xd9, 0xfb,
  0x00, 0x34, 0x26, 0x01, 0x04, 0xf7, 0x05, 0xf8, 0xfa, 0x02, 0x01, 0x16,
  0xfc, 0x0b, 0xda, 0x05, 0x54, 0x8a, 0x06, 0x07, 0xfd, 0x00, 0x00, 0x12,
  0x44, 0x10, 0xea, 0x04, 0x04, 0x5d, 0x04, 0xfb, 0x0a, 0xff, 0x05, 0xfa,
  0x0a, 0x0e, 0x33, 0xe8, 0xfe, 0x08, 0xfe, 0xe9, 0xf9, 0x13, 0x1b, 0x27,
  0x19, 0x0c, 0xe2, 0x01, 0xf3, 0x06, 0xec, 0x07, 0x18, 0xdc, 0x00, 0xfc,
  0xed, 0xd2, 0xfb, 0xfd, 0x01, 0x1f, 0x27, 0xfc, 0x13, 0x7f, 0xfd, 0x33,
  0x04, 0xf9, 0x0f, 0x40, 0xff, 0xf9, 0x09, 0xda, 0xfb, 0x0a, 0xff, 0xfe,
  0xcf, 0x00, 0xee, 0x33, 0xfb, 0x0b, 0x00, 0x3f, 0xff, 0x27, 0x02, 0x00,
  0xf2, 0x02, 0xf5, 0x05, 0x07, 0x0e, 0xe4, 0x0d, 0x06, 0xfb, 0x06, 0xfe,
  0xfc, 0x00, 0x14, 0x06, 0xfa, 0x05, 0x1c, 0xfa, 0xe4, 0xf0, 0xfc, 0x1a,
  0xd4, 0x00, 0x00, 0x0e, 0xee, 0xf9, 0x11, 0xfc, 0x0b, 0xc6, 0x02, 0x04,
  0x02, 0x06, 0xfd, 0xfd, 0xfb, 0xda, 0xf7, 0x02, 0x01, 0xff, 0xff, 0xe9,
  0xff, 0xcd, 0x45, 0x21, 0xe2, 0xfd, 0x1c, 0x02, 0x0b, 0x01, 0x00, 0x00,
  0x1d, 0x11, 0xf9, 0x2b, 0x02, 0x0a, 0x04, 0xfc, 0x01, 0x0e, 0x25, 0xfb,
  0x15, 0x16, 0xfa, 0x2e, 0xfd, 0x0b, 0x1e, 0x26, 0xfe, 0x04, 0xdf, 0x11,
  0x03, 0x07, 0x0a, 0xf9, 0xdd, 0xfc, 0x04, 0x08, 0xfa, 0x05, 0x05, 0x7f,
  0xfa, 0x1f, 0x01, 0x05, 0xe6, 0x00, 0x11, 0x06, 0x0d, 0x0e, 0x13, 0x0d,
  0xfa, 0xff, 0x09, 0x03, 0x04, 0x00, 0x07, 0x0d, 0x05, 0xf9, 0x20, 0xff,
  0xe9, 0xdc, 0xf9, 0xfe, 0x0b, 0xf8, 0xf9, 0x04, 0xe9, 0xfc, 0xcf, 0x01,
  0x05, 0x9e, 0x0a, 0x06, 0xfb, 0xfc, 0xfb, 0x05, 0xfb, 0xf3, 0x04, 0x0e,
  0x02, 0x02, 0x03, 0x12, 0xf9, 0x13, 0x10, 0x38, 0x29, 0x01, 0x03, 0xf9,
  0x01, 0x00, 0x10, 0xfd, 0xd0, 0xa6, 0xcf, 0xc4, 0x83, 0x94, 0x72, 0x5d,
  0xc6, 0x96, 0x81, 0x46, 0x07, 0x15, 0x9d, 0x0e, 0xf9, 0x00, 0x9f, 0xbb,
  0x30, 0x4b, 0x38, 0x0c, 0x3d, 0x28, 0xf9, 0xce, 0x59, 0xb8, 0xa8, 0x40,
  0xb7, 0x6f, 0x6b, 0xbb, 0x04, 0x8b, 0x1b, 0x31, 0xd4, 0x5d, 0x20, 0x06,
  0x65, 0x67, 0xfb, 0x01, 0x7c, 0xbd, 0x37, 0x8c, 0x76, 0x3d, 0xb0, 0x35,
  0xc9, 0xf0, 0xc0, 0x23, 0xde, 0xf8, 0x3e, 0xac, 0x05, 0xff, 0x4a, 0x6b,
  0xf7, 0xc1, 0x2f, 0xe3, 0x87, 0xea, 0x67, 0x34, 0xa8, 0x47, 0xd4, 0x0d,
  0x56, 0xaa, 0x94, 0x54, 0x86, 0x2c, 0xde, 0x57, 0xb6, 0xea, 0x25, 0x18,
  0x39, 0xd7, 0x9b, 0x98, 0xc3, 0x75, 0xbb, 0x55, 0x1a, 0xf8, 0xfd, 0x0f,
  0x15, 0xfe, 0xfe, 0xfd, 0x02, 0x0f, 0x08, 0xfe, 0x1a, 0xd7, 0xff, 0x09,
  0xfd, 0xf8, 0x22, 0x11, 0x00, 0x03, 0x18, 0x0f, 0xff, 0x06, 0x1e, 0x01,
  0x7f, 0xfd, 0xf5, 0x18, 0x01, 0xea, 0x00, 0x13, 0x00, 0x19, 0xfc, 0xfd,
  0x01, 0xfd, 0x05, 0xfe, 0x04, 0x03, 0x1e, 0xfb, 0x04, 0x01, 0x28, 0x04,
  0xfe, 0x00, 0x13, 0x07, 0x04, 0x05, 0x04, 0xff, 0x03, 0x39, 0xfd, 0xf5,
  0xf8, 0x05, 0xfe, 0xf4, 0x0e, 0xf9, 0x18, 0x05, 0x11, 0x19, 0x08, 0xf9,
  0xfd, 0x00, 0x03, 0x03, 0xfe, 0x03, 0x23, 0x1b, 0xff, 0x04, 0x03, 0x05,
  0xfd, 0x07, 0xe5, 0x24, 0x1e, 0xf7, 0xe9, 0xf9, 0xf3, 0x02, 0x0c, 0x00,
  0xdd, 0xc0, 0x04, 0xa8, 0xc2, 0x81, 0x9e, 0xe6, 0xa7, 0x3d, 0x2c, 0x18,
  0xe0, 0x5c, 0x50, 0xf6, 0x28, 0xfc, 0x5c, 0x42, 0x62, 0xc3, 0x4c, 0x37,
  0x49, 0xec, 0xdb, 0x0d, 0xfb, 0xd8, 0x56, 0x02, 0x58, 0xfe, 0x96, 0x5c,
  0xa7, 0x96, 0x44, 0xc3, 0xa2, 0x32, 0xd6, 0x74, 0x63, 0x8e, 0x8e, 0x8a,
  0x4a, 0x22, 0xb0, 0x3e, 0xe6, 0x28, 0x89, 0x99, 0x12, 0x0e, 0xec, 0xd0,
  0x29, 0x95, 0x11, 0x33, 0xc9, 0xa5, 0xff, 0xff, 0x56, 0x13, 0x3d, 0xa5,
  0x1c, 0x05, 0x6c, 0xd2, 0x50, 0x3b, 0x43, 0x57, 0x0c, 0xe4, 0xe5, 0x48,
  0xcd, 0x64, 0x42, 0xd6, 0x26, 0x18, 0x27, 0xd3, 0xd3, 0x35, 0x0a, 0x97,
  0xfd, 0x40, 0xb8, 0x4f, 0x2d, 0x73, 0x6a, 0x85, 0x9d, 0x2c, 0x0e, 0xaa,
  0x1d, 0xf7, 0xc0, 0xe8, 0x53, 0x82, 0xd7, 0xad, 0x3d, 0x2f, 0xd8, 0x59,
  0x36, 0xe9, 0x13, 0xec, 0xfb, 0xa4, 0x11, 0x35, 0x82, 0x25, 0x98, 0x82,
  0x47, 0x91, 0x28, 0xf6, 0x89, 0xa0, 0xc3, 0x9f, 0xb1, 0xf4, 0x20, 0xa8,
  0xa1, 0x81, 0x99, 0x41, 0x22, 0x26, 0xa3, 0x3a, 0x59, 0xb6, 0xb0, 0x68,
  0xb9, 0x4a, 0xd0, 0xd5, 0x16, 0xe6, 0x3c, 0x56, 0x60, 0xc9, 0xf0, 0xc9,
  0x5e, 0x73, 0x20, 0xe0, 0x39, 0xb5, 0x3b, 0x94, 0x06, 0xc8, 0x92, 0x54,
  0x82, 0x9f, 0x65, 0xa8, 0xfd, 0x1e, 0x91, 0x8f, 0x18, 0xfb, 0x85, 0xcc,
  0x96, 0xfb, 0x14, 0xc7, 0x69, 0x70, 0xbc, 0x96, 0xfa, 0xef, 0xfe, 0xff,
  0xeb, 0xe9, 0xff, 0x04, 0x03, 0x04, 0x08, 0xfd, 0xea, 0x67, 0xfe, 0x08,
  0xfc, 0x03, 0xef, 0x01, 0xfe, 0xfc, 0xa4, 0xde, 0x03, 0x03, 0xe8, 0xff,
  0x81, 0xfc, 0xf5, 0xfd, 0xfe, 0x0e, 0x05, 0x20, 0x02, 0xf6, 0x03, 0xfd,
  0xf5, 0x01, 0x01, 0x03, 0xfb, 0x03, 0xf5, 0xff, 0xff, 0x03, 0xfd, 0x01,
  0x05, 0x00, 0x05, 0x08, 0x00, 0xfe, 0x0d, 0x00, 0xde, 0x12, 0xfd, 0x0f,
  0xfa, 0x04, 0x02, 0xfe, 0xf9, 0x05, 0x14, 0x01, 0x0b, 0xe6, 0x07, 0x09,
  0x03, 0xfe, 0xff, 0x04, 0xff, 0xf6, 0xdf, 0x02, 0x00, 0x03, 0x00, 0xf8,
  0xfe, 0xe4, 0x25, 0x00, 0xd4, 0x04, 0x1f, 0x09, 0x0a, 0x00, 0x03, 0x02,
  0x38, 0xe8, 0x04, 0x31, 0x1e, 0xee, 0xfb, 0x05, 0x03, 0xfb, 0x25, 0xfb,
  0x04, 0x7d, 0xfc, 0x15, 0x00, 0xf6, 0xfb, 0x7f, 0x04, 0xf1, 0xe5, 0x03,
  0xfc, 0x12, 0x54, 0x02, 0x34, 0xfb, 0xf4, 0x6a, 0xfe, 0xf5, 0xfd, 0x24,
  0xfb, 0x0e, 0xf7, 0x01, 0xf2, 0x00, 0x0e, 0x02, 0x0a, 0xc7, 0xc8, 0x13,
  0xfc, 0xff, 0x13, 0xfc, 0x05, 0xfe, 0x2f, 0xf9, 0x00, 0xfb, 0x18, 0x03,
  0xea, 0xfd, 0x01, 0x0e, 0xea, 0xff, 0xfd, 0xef, 0xee, 0xfe, 0xe9, 0x01,
  0x0b, 0xc6, 0xda, 0x01, 0x04, 0xfc, 0x05, 0x04, 0x05, 0xf5, 0x32, 0x26,
  0xfc, 0xfb, 0xfe, 0x00, 0xfb, 0xf6, 0x49, 0xfa, 0xfd, 0xf8, 0x1a, 0xfc,
  0xfb, 0x04, 0x11, 0xff, 0x1f, 0xef, 0x03, 0xfa, 0xfa, 0xf0, 0x03, 0xfc,
  0x03, 0xea, 0xf7, 0x03, 0xee, 0x1d, 0x04, 0x16, 0x02, 0xf7, 0x23, 0x4c,
  0x02, 0xe8, 0x16, 0xf3, 0xfd, 0xf2, 0x2b, 0x00, 0x7f, 0x01, 0xf2, 0x4e,
  0x00, 0x03, 0xfe, 0x45, 0x04, 0xfb, 0xfd, 0x01, 0x0f, 0x02, 0xf2, 0xfe,
  0x01, 0x0b, 0x0d, 0xf8, 0xfe, 0x00, 0x13, 0xfe, 0x02, 0x01, 0x19, 0x00,
  0xfd, 0x02, 0xfe, 0xfe, 0x13, 0x1f, 0x00, 0x08, 0xea, 0x03, 0xfc, 0x06,
  0x0e, 0xfa, 0x1e, 0xfc, 0x05, 0x27, 0x02, 0xf7, 0xfe, 0x04, 0xfe, 0xfc,
  0x01, 0xf3, 0x21, 0x05, 0xff, 0x02, 0x01, 0xe9, 0x04, 0xf0, 0x1e, 0x30,
  0x01, 0xf9, 0x00, 0xfc, 0xfa, 0x00, 0xf5, 0x03, 0xf9, 0x0d, 0x06, 0x0d,
  0x16, 0x1b, 0xfc, 0xfa, 0x05, 0xec, 0xe4, 0x00, 0x08, 0x81, 0xf9, 0xde,
  0x08, 0xfc, 0xf7, 0xb2, 0x01, 0x04, 0x16, 0x1e, 0xfd, 0xf6, 0xe7, 0x02,
  0xf3, 0x00, 0x12, 0x9d, 0xfe, 0xf5, 0x02, 0xd2, 0xfc, 0x06, 0x01, 0xfa,
  0x0b, 0x00, 0x10, 0x04, 0x0c, 0xf8, 0x16, 0x04, 0xfb, 0xfa, 0x0f, 0x05,
  0xf9, 0x06, 0xfc, 0x0b, 0x01, 0xfb, 0xf9, 0x07, 0x09, 0xdc, 0xff, 0xef,
  0x22, 0x02, 0x03, 0xf9, 0x13, 0x08, 0xc8, 0xfd, 0x02, 0x0d, 0xfb, 0xfe,
  0x08, 0x07, 0x06, 0xff, 0x06, 0x21, 0x07, 0x0c, 0xf8, 0xff, 0x02, 0x16,
  0x06, 0x15, 0xb8, 0xef, 0x2e, 0x05, 0xef, 0xf7, 0xfe, 0x02, 0x09, 0x08,
  0x12, 0x01, 0xfd, 0x02, 0x0a, 0x0d, 0xff, 0x01, 0x00, 0xe3, 0xe6, 0x02,
  0xae, 0xd9, 0x02, 0xe4, 0x02, 0xff, 0xeb, 0x19, 0xff, 0xd6, 0xff, 0x08,
  0x03, 0xfb, 0x13, 0xfe, 0x7f, 0x00, 0x00, 0x2e, 0x01, 0xef, 0xfd, 0xee,
  0x00, 0xa4, 0x05, 0x03, 0x0e, 0x00, 0x02, 0xfe, 0xff, 0xf6, 0x0d, 0xee,
  0xfd, 0x00, 0x0b, 0x02, 0xfd, 0x02, 0x0e, 0xfd, 0x00, 0xfe, 0xef, 0xff,
  0x13, 0x28, 0x01, 0xfe, 0xfd, 0xfc, 0xfd, 0xe9, 0x13, 0xfe, 0x1a, 0x03,
  0xfb, 0x2a, 0xf3, 0xff, 0x02, 0x04, 0xfd, 0x00, 0xff, 0x08, 0x15, 0x07,
  0xfd, 0x02, 0xfe, 0xf9, 0xfd, 0x05, 0xdb, 0xe9, 0xe3, 0xfd, 0xf0, 0x00,
  0xfb, 0x00, 0xff, 0xfd, 0xba, 0xeb, 0x02, 0x25, 0xe4, 0xed, 0xff, 0x04,
  0x00, 0xfc, 0xfa, 0xfd, 0xfd, 0x2f, 0xfe, 0xe0, 0xfc, 0x00, 0xa7, 0xd8,
  0x00, 0xfa, 0x17, 0xf1, 0x04, 0xf5, 0xd0, 0xfd, 0xf7, 0xfe, 0xf4, 0xeb,
  0x03, 0x13, 0xfe, 0x81, 0xfe, 0x05, 0x04, 0x02, 0xf6, 0x04, 0xff, 0xfe,
  0x04, 0xd3, 0xcc, 0x14, 0xfd, 0x00, 0xbf, 0x03, 0xfd, 0x05, 0xb6, 0xfc,
  0xfd, 0xfc, 0x13, 0x03, 0xdf, 0xf2, 0xff, 0x13, 0xff, 0xfe, 0xfd, 0x12,
  0xe7, 0x0b, 0xf7, 0x05, 0x01, 0xe9, 0xef, 0x0e, 0xff, 0x01, 0xfd, 0xff,
  0x04, 0x02, 0xc5, 0xdd, 0x01, 0xff, 0xfc, 0xfd, 0xfd, 0xea, 0x31, 0xb1,
  0xfa, 0x04, 0x12, 0x10, 0x03, 0x00, 0xed, 0x03, 0x51, 0xe9, 0x01, 0xea,
  0x19, 0xfa, 0xfc, 0x01, 0x07, 0xec, 0xfb, 0x04, 0xee, 0x0b, 0xfc, 0x2c,
  0x07, 0xf7, 0x37, 0x7f, 0xfe, 0xa9, 0xad, 0xf4, 0x00, 0xfb, 0x4e, 0x04,
  0x26, 0xfb, 0xf2, 0x7b, 0x05, 0xfa, 0x00, 0x7c, 0x02, 0x03, 0x01, 0x01,
  0x10, 0x07, 0x03, 0x02, 0x00, 0x14, 0x1b, 0xed, 0x03, 0xfa, 0x33, 0xfb,
  0x03, 0xfd, 0x46, 0x09, 0x04, 0x04, 0xfa, 0xfa, 0x15, 0x24, 0xfd, 0x0b,
  0xe0, 0x05, 0xfd, 0xf3, 0x1d, 0xf8, 0x0e, 0x07, 0x10, 0xed, 0x04, 0xf7,
  0x06, 0xf9, 0xf9, 0xfd, 0x08, 0xfe, 0x47, 0x28, 0xff, 0x07, 0xfe, 0xf8,
  0x07, 0xf2, 0x08, 0x50, 0x05, 0xf9, 0xfd, 0xf3, 0x00, 0x07, 0x09, 0x00,
  0x12, 0xec, 0x01, 0xe4, 0xf0, 0xde, 0xfe, 0x00, 0x01, 0x22, 0x1e, 0x04,
  0x0d, 0x4f, 0x01, 0x2e, 0xfc, 0xfe, 0x1b, 0x48, 0xfd, 0x0b, 0xf8, 0xe0,
  0x05, 0x0b, 0x12, 0x01, 0x81, 0xfe, 0xef, 0x31, 0xff, 0x07, 0x01, 0x50,
  0xff, 0x1e, 0x04, 0x05, 0xfe, 0xfe, 0xf7, 0xfc, 0x01, 0x1f, 0xf9, 0xfc,
  0x00, 0x05, 0x11, 0xfe, 0xfc, 0xfe, 0x14, 0x07, 0xfc, 0xfe, 0x0b, 0x04,
  0xed, 0x13, 0x03, 0x12, 0xdf, 0x02, 0x04, 0xfd, 0xf6, 0xfa, 0x1a, 0xff,
  0x07, 0xf9, 0x12, 0x04, 0x02, 0x01, 0x05, 0xfb, 0xfd, 0xda, 0xfc, 0x0a,
  0x04, 0x00, 0x02, 0xe7, 0xfb, 0xdf, 0x33, 0x30, 0xe2, 0xfe, 0x16, 0x06,
  0x06, 0x00, 0x05, 0xfd, 0x10, 0xf0, 0x01, 0x28, 0x14, 0xf4, 0xfe, 0x02,
  0xfb, 0x11, 0x0e, 0x02, 0x1e, 0xae, 0x04, 0x04, 0xfa, 0xf6, 0x12, 0xfd,
  0x03, 0x00, 0x17, 0x12, 0xfc, 0x03, 0xfd, 0x05, 0x7f, 0xfa, 0xf2, 0xfd,
  0x02, 0xf7, 0x02, 0x2d, 0x00, 0x22, 0xf5, 0x05, 0xf1, 0x01, 0x0a, 0x01,
  0x0f, 0xf7, 0x0f, 0x0f, 0xfc, 0xfb, 0x1a, 0x00, 0x03, 0xfe, 0x16, 0xff,
  0xfd, 0xfc, 0x0d, 0xfe, 0xe7, 0x20, 0x06, 0xfa, 0xf5, 0x00, 0x03, 0x0d,
  0xf8, 0xf7, 0x02, 0x00, 0x13, 0xb0, 0xf7, 0xfe, 0x00, 0xfe, 0xfd, 0x03,
  0x06, 0xfd, 0x26, 0x1f, 0xfb, 0x05, 0xff, 0x03, 0xfb, 0xf7, 0xe3, 0x30,
  0x2b, 0xf5, 0x02, 0xfb, 0xf7, 0x01, 0x09, 0x00, 0xeb, 0x0a, 0xfc, 0x2c,
  0xf6, 0x06, 0x06, 0x02, 0xfb, 0x02, 0xf5, 0x04, 0x02, 0xca, 0x05, 0xee,
  0x04, 0x08, 0xdd, 0x96, 0x02, 0xff, 0xd1, 0x11, 0xfd, 0xf8, 0xc0, 0xfa,
  0x84, 0x05, 0x0a, 0x81, 0x06, 0x06, 0x07, 0xe8, 0x00, 0xfb, 0x0a, 0xff,
  0xf0, 0xfc, 0x02, 0x02, 0x05, 0xf5, 0x00, 0x0c, 0x03, 0xf8, 0xe3, 0x00,
  0x00, 0x07, 0xe8, 0x00, 0xff, 0x01, 0x11, 0x05, 0xed, 0xc0, 0x04, 0x08,
  0x13, 0xfe, 0x02, 0x06, 0xf1, 0x0f, 0xb5, 0xf8, 0xfe, 0xe3, 0xfe, 0x0d,
  0xfe, 0x02, 0x02, 0xf9, 0xfb, 0x04, 0xe6, 0xf2, 0xf9, 0x07, 0x05, 0x0f,
  0x08, 0x09, 0xe6, 0xe9, 0x1b, 0x0b, 0x05, 0x05, 0xfd, 0x08, 0xfa, 0x04,
  0x3a, 0x82, 0x5c, 0x98, 0x9a, 0x09, 0x06, 0xa3, 0x97, 0x93, 0x10, 0xa4,
  0xea, 0x94, 0x59, 0x94, 0x02, 0xc5, 0x2e, 0xa0, 0xe7, 0xe7, 0xa8, 0x48,
  0x21, 0x25, 0x17, 0x97, 0xef, 0x17, 0x47, 0xdb, 0x4c, 0x06, 0xbf, 0x16,
  0x92, 0x54, 0x88, 0x22, 0xb8, 0x6b, 0x17, 0xe0, 0xb4, 0xe9, 0xf5, 0x20,
  0x7f, 0x7d, 0x2d, 0x0a, 0x9b, 0xc3, 0xea, 0x85, 0xa3, 0x9d, 0xa5, 0x92,
  0x74, 0xb7, 0x6a, 0x23, 0xa3, 0x81, 0xb4, 0xe5, 0x05, 0x90, 0xbd, 0x9d,
  0x29, 0xad, 0xa3, 0x94, 0xcf, 0x14, 0x1d, 0x2a, 0x11, 0x9a, 0x25, 0x27,
  0xc3, 0x2a, 0x1c, 0xc8, 0x11, 0x9f, 0x02, 0x94, 0xd1, 0xf9, 0xe3, 0x31,
  0x45, 0x86, 0x64, 0xf5, 0x04, 0xc3, 0x1a, 0x3b, 0x66, 0x81, 0x79, 0xc5,
  0x0a, 0x4b, 0x05, 0xdf, 0xfe, 0x46, 0xfd, 0xc1, 0x5f, 0xd8, 0xc2, 0x66,
  0xac, 0xc2, 0xf2, 0xe8, 0x74, 0x79, 0xea, 0x50, 0x6e, 0x61, 0x1c, 0x8a,
  0xfb, 0xe3, 0x06, 0x6f, 0xf6, 0x50, 0x18, 0x82, 0xf3, 0x3d, 0xa2, 0xdb,
  0xa8, 0x46, 0xba, 0xd1, 0xbf, 0x03, 0x4d, 0xe8, 0x95, 0xf7, 0xaa, 0x94,
  0x89, 0xa6, 0xb8, 0x9d, 0x86, 0x94, 0x1e, 0xcd, 0x8f, 0xe8, 0x46, 0x08,
  0xe7, 0x4b, 0xcc, 0x47, 0xa2, 0x06, 0x4a, 0xe7, 0x9c, 0x20, 0x47, 0x86,
  0x6d, 0x4d, 0x61, 0x77, 0x12, 0x2c, 0x50, 0xc7, 0x83, 0xdc, 0xcf, 0x3a,
  0x24, 0x90, 0x90, 0x71, 0xd7, 0xd4, 0x91, 0xd7, 0x4d, 0xc3, 0xd9, 0xf7,
  0xe6, 0xe8, 0xf6, 0x23, 0xe0, 0xe4, 0xc2, 0xbb, 0xdb, 0xe3, 0xa3, 0xee,
  0x2c, 0x5a, 0xfb, 0xc3, 0x00, 0xf7, 0xb9, 0x8d, 0x59, 0xed, 0x49, 0xca,
  0x48, 0x6c, 0x21, 0xa8, 0x13, 0x26, 0x12, 0xa5, 0xb4, 0x96, 0x81, 0xc3,
  0x55, 0xf9, 0xe0, 0x63, 0xe1, 0x92, 0xe8, 0xa6, 0x4e, 0x64, 0x0f, 0xdb,
  0xcc, 0x5d, 0xf5, 0x23, 0xfd, 0x47, 0x38, 0x6a, 0xba, 0xa4, 0xbf, 0x0f,
  0x38, 0x97, 0x9c, 0x54, 0x33, 0xb1, 0x95, 0x52, 0x3b, 0x2c, 0xc3, 0x4c,
  0x1f, 0xff, 0xe9, 0x46, 0x27, 0xe8, 0x09, 0x05, 0x66, 0xd6, 0xea, 0x9d,
  0xaa, 0xfc, 0x4d, 0xb9, 0x51, 0xda, 0xee, 0x47, 0x10, 0x18, 0xb0, 0x48,
  0x05, 0xf8, 0x02, 0xe2, 0xf7, 0xfa, 0x00, 0xfc, 0xff, 0x03, 0x03, 0x05,
  0x0d, 0xf6, 0x04, 0x11, 0xfe, 0x02, 0x09, 0x2a, 0x02, 0xee, 0xfd, 0x07,
  0xfc, 0xfb, 0x0e, 0x04, 0x81, 0xfc, 0xff, 0x2f, 0x03, 0x06, 0xfd, 0x06,
  0x01, 0x0d, 0x01, 0x04, 0x0f, 0xfe, 0xf1, 0xfd, 0x0a, 0x07, 0xfe, 0x08,
  0x02, 0x04, 0xf8, 0xfe, 0xfb, 0xfb, 0xf9, 0x0a, 0xff, 0x03, 0x01, 0x00,
  0x14, 0xf4, 0x02, 0x04, 0xf4, 0x03, 0xfd, 0x03, 0x02, 0x04, 0x00, 0xfe,
  0x04, 0x00, 0xfe, 0x08, 0x00, 0x02, 0x01, 0x05, 0xff, 0xf3, 0x07, 0xf2,
  0x02, 0x01, 0x04, 0xf4, 0xfc, 0xfa, 0x1f, 0x05, 0x11, 0x08, 0x01, 0x09,
  0x08, 0xfe, 0xf7, 0x00, 0x00, 0x0f, 0x08, 0xb3, 0x0d, 0x2e, 0xfa, 0xfd,
  0x05, 0xec, 0xd1, 0xff, 0xf0, 0x81, 0x02, 0x00, 0xfe, 0x06, 0x2b, 0x07,
  0xfa, 0xfc, 0x3d, 0x0e, 0xfb, 0xf0, 0x2b, 0x01, 0x73, 0x05, 0x18, 0x08,
  0x03, 0xeb, 0xfa, 0xae, 0x06, 0xf3, 0x0e, 0x00, 0x3c, 0xfb, 0xf4, 0x00,
  0x04, 0x18, 0x2d, 0xf0, 0xf7, 0xf9, 0x02, 0x03, 0x02, 0x07, 0xef, 0x07,
  0xfe, 0x04, 0xe0, 0x06, 0x49, 0xc5, 0x05, 0xeb, 0x0d, 0x08, 0xfc, 0xfb,
  0x38, 0x0a, 0xf3, 0xfd, 0xfc, 0x5d, 0x0e, 0xf3, 0xf7, 0x04, 0xfa, 0xfd,
  0x08, 0x29, 0x35, 0xf3, 0xf8, 0xfc, 0x07, 0xfa, 0x08, 0x1d, 0xd9, 0xfc,
  0x16, 0x02, 0xd7, 0x06, 0x01, 0x04, 0xfc, 0x01, 0x12, 0xe5, 0x05, 0x01,
  0xe9, 0xe8, 0x05, 0xfc, 0xfd, 0x05, 0xeb, 0x03, 0xe1, 0x05, 0xfb, 0x19,
  0x00, 0x01, 0x1e, 0x35, 0x02, 0x0a, 0xa8, 0xee, 0xfb, 0xea, 0x16, 0xfe,
  0x81, 0xff, 0xf5, 0x37, 0x01, 0x0b, 0x01, 0x34, 0x04, 0xe9, 0x04, 0xff,
  0x21, 0x05, 0xe2, 0x05, 0x04, 0x15, 0x07, 0xf6, 0x06, 0xfd, 0x05, 0xfb,
  0x01, 0x03, 0x0e, 0x0a, 0x04, 0x01, 0x00, 0xfb, 0x2e, 0x05, 0x06, 0x10,
  0xe2, 0x00, 0x00, 0x14, 0x10, 0x01, 0x13, 0x04, 0x00, 0x3c, 0x03, 0xfc,
  0x02, 0x00, 0x00, 0xfd, 0xfd, 0xe6, 0x17, 0xf5, 0x05, 0xfb, 0xfa, 0xdb,
  0xfa, 0xe0, 0x25, 0x26, 0xeb, 0xfc, 0x04, 0x0f, 0xff, 0x03, 0xe7, 0xfd,
  0xf8, 0xf8, 0x01, 0xf3, 0xf5, 0xf8, 0x03, 0x00, 0xfd, 0x04, 0xfc, 0x04,
  0xf6, 0xf0, 0xfe, 0x03, 0xfe, 0x05, 0xf2, 0xfe, 0x03, 0x02, 0xe0, 0xf5,
  0xff, 0xfd, 0xf0, 0xfe, 0x81, 0x01, 0xfe, 0x0b, 0x02, 0x0a, 0x02, 0x0c,
  0x01, 0xfc, 0x06, 0xff, 0x08, 0x01, 0xf4, 0x00, 0x00, 0x06, 0xfc, 0x00,
  0xff, 0x01, 0xfa, 0xfe, 0xfd, 0xfe, 0xf8, 0x05, 0x03, 0xff, 0x05, 0x03,
  0x02, 0x06, 0x00, 0x0d, 0xf6, 0x00, 0x00, 0x01, 0x01, 0x07, 0x13, 0x02,
  0x04, 0x04, 0x07, 0x04, 0x01, 0x01, 0x03, 0xfd, 0x01, 0xfe, 0xe8, 0xfa,
  0xfe, 0x01, 0xff, 0xf6, 0x04, 0xf6, 0x15, 0xf7, 0xe4, 0x05, 0x0b, 0x07,
  0x02, 0x00, 0xfd, 0x03, 0xf4, 0xfc, 0xff, 0x0f, 0xff, 0xf7, 0x01, 0x03,
  0x03, 0xff, 0x04, 0x03, 0x0b, 0xf4, 0x02, 0xf2, 0x03, 0x00, 0xf7, 0xd5,
  0xfc, 0x02, 0xf0, 0x00, 0xfe, 0xfe, 0xf0, 0xff, 0x81, 0x02, 0xff, 0xe3,
  0xfd, 0x07, 0xfe, 0x17, 0x00, 0x06, 0xfc, 0xfc, 0xf2, 0xff, 0x00, 0xff,
  0x05, 0xf9, 0xff, 0x04, 0x03, 0xfd, 0xfc, 0x01, 0x02, 0xfd, 0xff, 0x06,
  0xff, 0x02, 0x06, 0x04, 0xf3, 0x10, 0xff, 0x05, 0xff, 0x04, 0x00, 0x06,
  0xf6, 0x06, 0x01, 0x02, 0x08, 0xe4, 0x05, 0x01, 0x03, 0x01, 0x00, 0xff,
  0x03, 0xfe, 0xee, 0x05, 0xfc, 0x04, 0xfe, 0x01, 0xfd, 0xfd, 0xf0, 0x00,
  0x05, 0x04, 0x0a, 0x09, 0x05, 0xfe, 0xfd, 0xfd, 0xa6, 0xf9, 0xff, 0xff,
  0x04, 0x00, 0x00, 0x00, 0x90, 0x01, 0x00, 0x00, 0x74, 0xfc, 0xff, 0xff,
  0x22, 0x02, 0x00, 0x00, 0x2a, 0xfa, 0xff, 0xff, 0x00, 0x00, 0x00, 0x00,
  0xc6, 0x18, 0x00, 0x00, 0x00, 0x00, 0x00, 0x00, 0xfb, 0x0c, 0x00, 0x00,
  0x7c, 0xf8, 0xff, 0xff, 0x00, 0x00, 0x00, 0x00, 0x6b, 0xf4, 0xff, 0xff,
  0xa8, 0x02, 0x00, 0x00, 0x81, 0x04, 0x00, 0x00, 0x4f, 0x11, 0x00, 0x00,
  0x00, 0x00, 0x00, 0x00, 0x6c, 0x03, 0x00, 0x00, 0xe7, 0x07, 0x00, 0x00,
  0xb1, 0x03, 0x00, 0x00, 0x2e, 0x07, 0x00, 0x00, 0x00, 0x00, 0x00, 0x00,
  0xcb, 0xdf, 0xff, 0xff, 0x00, 0x00, 0x00, 0x00, 0x00, 0x00, 0x00, 0x00,
  0x41, 0x0a, 0x00, 0x00, 0xeb, 0x00, 0x00, 0x00, 0xc3, 0x0a, 0x00, 0x00,
  0x44, 0xff, 0xff, 0xff, 0x00, 0x00, 0x00, 0x00, 0x00, 0x00, 0x00, 0x00,
  0x00, 0x00, 0x00, 0x00, 0x6b, 0x0d, 0x00, 0x00, 0xa8, 0x05, 0x00, 0x00,
  0x08, 0x1f, 0x00, 0x00, 0x04, 0x06, 0x00, 0x00, 0xa1, 0xff, 0xff, 0xff,
  0x90, 0xfb, 0xff, 0xff, 0xf9, 0x14, 0x00, 0x00, 0xea, 0x09, 0x00, 0x00,
  0x3a, 0x05, 0x00, 0x00, 0x79, 0x11, 0x00, 0x00, 0xcb, 0x0a, 0x00, 0x00,
  0x6f, 0x1b, 0x00, 0x00, 0x91, 0x07, 0x00, 0x00, 0xa0, 0xf4, 0xff, 0xff,
  0xc1, 0x09, 0x00, 0x00, 0xbf, 0x01, 0x00, 0x00, 0xcf, 0xda, 0xff, 0xff,
  0x85, 0xfd, 0xff, 0xff, 0x46, 0xdf, 0xff, 0xff, 0x78, 0xf9, 0xff, 0xff,
  0x87, 0xff, 0xff, 0xff, 0x56, 0x28, 0x00, 0x00, 0x62, 0xfd, 0xff, 0xff,
  0xcb, 0xf3, 0xff, 0xff, 0x57, 0xf8, 0xff, 0xff, 0xc9, 0x23, 0x00, 0x00,
  0x2b, 0x01, 0x00, 0x00, 0x8d, 0xfe, 0xff, 0xff, 0x63, 0xfb, 0xff, 0xff,
  0xda, 0xfe, 0xff, 0xff, 0x00, 0x00, 0x00, 0x00, 0x34, 0xf8, 0xff, 0xff,
  0xf4, 0x10, 0x00, 0x00, 0xd9, 0xfb, 0xff, 0xff, 0x34, 0xfc, 0xff, 0xff,
  0x17, 0x15, 0x00, 0x00, 0x73, 0x0a, 0x00, 0x00, 0x38, 0x0a, 0x00, 0x00,
  0x03, 0x0a, 0x00, 0x00, 0x53, 0xff, 0xff, 0xff, 0x52, 0x01, 0x00, 0x00,
  0x14, 0x08, 0x00, 0x00, 0x17, 0x05, 0x00, 0x00, 0x8b, 0xfc, 0xff, 0xff,
  0x45, 0xef, 0xff, 0xff, 0xec, 0x13, 0x00, 0x00, 0x4e, 0x1d, 0x00, 0x00,
  0x00, 0xfe, 0xff, 0xff, 0x85, 0xf7, 0xff, 0xff, 0x00, 0x00, 0x00, 0x00,
  0xfa, 0x02, 0x00, 0x00, 0xa6, 0xf4, 0xff, 0xff, 0x00, 0x00, 0x00, 0x00,
  0xa0, 0x03, 0x00, 0x00, 0xa6, 0xfc, 0xff, 0xff, 0x36, 0x00, 0x00, 0x00,
  0x07, 0x04, 0x00, 0x00, 0xba, 0x07, 0x00, 0x00, 0xa7, 0x11, 0x00, 0x00,
  0x26, 0x00, 0x00, 0x00, 0x70, 0xf8, 0xff, 0xff, 0x54, 0x03, 0x00, 0x00,
  0x81, 0x0a, 0x00, 0x00, 0x00, 0x00, 0x00, 0x00, 0x00, 0x00, 0x00, 0x00,
  0xa8, 0xe0, 0xff, 0xff, 0xc5, 0x0c, 0x00, 0x00, 0xdc, 0x14, 0x00, 0x00,
  0x6a, 0x0b, 0x00, 0x00, 0xb9, 0x08, 0x00, 0x00, 0xe1, 0x05, 0x00, 0x00,
  0x42, 0xfb, 0xff, 0xff, 0x04, 0x00, 0x00, 0x00, 0xe8, 0x03, 0x00, 0x00,
  0xf8, 0xf1, 0xf5, 0x02, 0xec, 0x06, 0x00, 0x08, 0xfb, 0x01, 0x49, 0xf7,
  0xff, 0x03, 0x04, 0x0e, 0x12, 0xdd, 0x01, 0xff, 0x01, 0x05, 0xd7, 0x0d,
  0xf7, 0xe6, 0x05, 0x05, 0x06, 0x43, 0x0c, 0xf0, 0xe1, 0x0b, 0x03, 0xa3,
  0xfd, 0xf8, 0xb2, 0xf9, 0xd2, 0x03, 0xfe, 0x27, 0x18, 0x28, 0x03, 0xfa,
  0x65, 0x15, 0x13, 0x12, 0x04, 0x0b, 0x11, 0xd1, 0x12, 0xfa, 0xff, 0xfa,
  0x0d, 0xd5, 0x73, 0x01, 0xd0, 0xd6, 0x81, 0xf1, 0x0d, 0xfe, 0xbd, 0x16,
  0x2b, 0x01, 0x0e, 0x09, 0x26, 0x09, 0xfc, 0xd1, 0x01, 0x01, 0x09, 0x36,
  0x5c, 0xca, 0x1e, 0xc0, 0x1b, 0x19, 0xdc, 0xd3, 0x01, 0xff, 0x02, 0x13,
  0xef, 0x1c, 0x09, 0xfd, 0x04, 0xee, 0xf8, 0xfc, 0xde, 0x03, 0xe3, 0x09,
  0xfe, 0x1e, 0x49, 0xe2, 0x2b, 0xfd, 0x1f, 0x17, 0xea, 0x0d, 0x00, 0xff,
  0xfd, 0x03, 0x0d, 0x08, 0xee, 0x04, 0xfc, 0xff, 0x04, 0xe1, 0x2a, 0x0c,
  0x1f, 0x06, 0x08, 0x02, 0xda, 0xdd, 0xe5, 0x12, 0x08, 0x42, 0x09, 0x97,
  0xf5, 0x01, 0xed, 0xfe, 0xfd, 0xe9, 0xd1, 0xee, 0x00, 0xf3, 0xf7, 0x08,
  0xea, 0x11, 0xff, 0x03, 0xe8, 0x08, 0xed, 0x01, 0xfc, 0x1d, 0x12, 0xff,
  0xea, 0xe8, 0x15, 0x00, 0xe8, 0x00, 0xbb, 0x05, 0x3b, 0xfe, 0x02, 0x08,
  0x00, 0x02, 0xea, 0x23, 0x42, 0x03, 0x7f, 0xc6, 0x04, 0xe5, 0xf0, 0xf0,
  0x02, 0x00, 0x01, 0xef, 0x10, 0xc5, 0xe3, 0xe6, 0xfb, 0x0b, 0x2e, 0xfb,
  0x02, 0x04, 0x0a, 0x0a, 0xfd, 0x13, 0x57, 0x10, 0x81, 0xfc, 0x28, 0xff,
  0x11, 0xfd, 0x02, 0x03, 0x02, 0xfb, 0xfc, 0x08, 0x0c, 0xfc, 0x01, 0x05,
  0x02, 0xfe, 0x02, 0xea, 0xf0, 0xfa, 0x11, 0xfd, 0x06, 0x0d, 0x19, 0xf0,
  0xf3, 0x26, 0x07, 0xe3, 0x01, 0xe8, 0x02, 0xfe, 0x0b, 0x02, 0xfd, 0x05,
  0xfa, 0x16, 0xf0, 0xfc, 0x00, 0x28, 0x00, 0x05, 0x12, 0xf4, 0xe9, 0x00,
  0xf9, 0x0e, 0x2a, 0xfd, 0x04, 0x07, 0xff, 0x00, 0x10, 0x03, 0xe4, 0xf1,
  0xda, 0x08, 0x06, 0xd5, 0xff, 0x03, 0xff, 0x11, 0xc3, 0xfb, 0xcb, 0x0a,
  0xf6, 0xc9, 0xe6, 0x13, 0x06, 0xfb, 0xfc, 0xfa, 0xf2, 0xf5, 0xfa, 0xfe,
  0xf6, 0xfd, 0x18, 0x04, 0x1b, 0xfd, 0xe4, 0x0e, 0xfb, 0x00, 0x86, 0x02,
  0xc0, 0xfb, 0xd9, 0x0e, 0xff, 0x12, 0x00, 0x04, 0x03, 0xff, 0x11, 0x08,
  0x09, 0x03, 0x00, 0xff, 0x04, 0x07, 0xf6, 0xf7, 0x4b, 0x0b, 0x07, 0xf4,
  0xfd, 0x04, 0x00, 0x16, 0xfc, 0x98, 0xff, 0xe8, 0xbe, 0xc8, 0xf8, 0x01,
  0x99, 0xd7, 0x0e, 0x04, 0xfb, 0xf2, 0xfa, 0x0d, 0xdd, 0x1e, 0x03, 0x03,
  0xf2, 0x02, 0xa3, 0x00, 0xec, 0x81, 0x9d, 0xfb, 0xf1, 0xf5, 0x29, 0x05,
  0xd8, 0x02, 0x2d, 0x10, 0xbb, 0xfe, 0xfb, 0x15, 0x00, 0x05, 0xa9, 0xea,
  0xee, 0x0a, 0xc0, 0xb0, 0xf5, 0xd3, 0x1d, 0xfe, 0xff, 0xff, 0x00, 0x08,
  0x13, 0x05, 0xf8, 0xfe, 0x05, 0x0f, 0xea, 0x08, 0xf8, 0x04, 0x0c, 0xf4,
  0xfa, 0x09, 0x6f, 0x06, 0x32, 0xfb, 0x3f, 0xde, 0x0a, 0xdd, 0x05, 0x04,
  0x02, 0xff, 0xe6, 0xf9, 0x07, 0xf7, 0x08, 0x07, 0xfd, 0xd8, 0x35, 0xfa,
  0x39, 0xf5, 0xfe, 0x0b, 0x04, 0x0d, 0xf6, 0xde, 0xeb, 0x2c, 0x00, 0x5d,
  0x2a, 0x2b, 0x1a, 0x06, 0x81, 0x1e, 0xfa, 0x1e, 0x04, 0x2b, 0x04, 0xf2,
  0x21, 0xa2, 0xf9, 0xfd, 0x09, 0xf4, 0x0d, 0x00, 0xfd, 0x1d, 0xde, 0x24,
  0x21, 0x11, 0xde, 0xe7, 0xbe, 0xfd, 0x03, 0xe4, 0x2d, 0x07, 0xfa, 0xd8,
  0x09, 0xff, 0x2c, 0x21, 0x01, 0xef, 0xd9, 0x0d, 0xe5, 0xf8, 0xcb, 0x08,
  0x03, 0xfc, 0xff, 0x02, 0xd6, 0xf6, 0x0b, 0x14, 0x06, 0x04, 0x00, 0x01,
  0x05, 0xff, 0x0a, 0x02, 0xfb, 0xff, 0xc1, 0x0c, 0xfa, 0xfd, 0x0e, 0xf8,
  0xfb, 0xfd, 0x00, 0x01, 0x05, 0xfd, 0xfa, 0xfe, 0x00, 0x05, 0xfd, 0xff,
  0x01, 0x06, 0xcc, 0xf8, 0x04, 0xfb, 0x04, 0xf7, 0x01, 0x09, 0x07, 0xf8,
  0x02, 0x81, 0x03, 0xd0, 0xfe, 0xfb, 0x0a, 0x04, 0x22, 0x04, 0xfd, 0x0b,
  0xfc, 0xfe, 0xf9, 0x05, 0x0d, 0xf7, 0x02, 0x02, 0xff, 0x01, 0x10, 0xfb,
  0xf9, 0xda, 0xe4, 0xfe, 0xf8, 0x08, 0xfb, 0x03, 0x18, 0x04, 0xfb, 0x08,
  0x0d, 0x05, 0x04, 0xfe, 0x03, 0x02, 0x0e, 0xf1, 0xfe, 0x03, 0x94, 0xea,
  0x00, 0x0f, 0x13, 0x07, 0xff, 0xfe, 0x04, 0xfc, 0xfa, 0x04, 0x00, 0xfe,
  0xf9, 0xfe, 0xff, 0x00, 0x07, 0xfd, 0x03, 0xec, 0x00, 0xfa, 0x96, 0xfd,
  0x0f, 0x00, 0xc3, 0x01, 0x03, 0x04, 0xfd, 0xfe, 0x02, 0x00, 0x06, 0xe5,
  0x06, 0xfc, 0xfe, 0x01, 0x00, 0x06, 0x81, 0x02, 0x01, 0xf9, 0x03, 0x0b,
  0x01, 0x03, 0x09, 0x07, 0x04, 0xe8, 0xfa, 0x16, 0xe7, 0x00, 0xf5, 0x01,
  0xa6, 0xfe, 0x04, 0xf2, 0xfe, 0xfa, 0x05, 0x04, 0xfa, 0xe6, 0xfe, 0xff,
  0x03, 0xff, 0xbc, 0x01, 0x08, 0xfd, 0xfd, 0xf8, 0xfd, 0xff, 0x00, 0xda,
  0xd4, 0x01, 0x0f, 0x05, 0x09, 0xf4, 0x00, 0x1a, 0xff, 0x00, 0xf5, 0xe0,
  0xda, 0x01, 0x03, 0x15, 0xe7, 0x15, 0x0d, 0x00, 0x03, 0x00, 0xfe, 0x04,
  0x06, 0x02, 0x02, 0x00, 0x04, 0x0f, 0x04, 0x01, 0x13, 0xfd, 0x04, 0xe1,
  0xfb, 0x0b, 0xb5, 0x00, 0xd2, 0xfa, 0xee, 0xe5, 0xe2, 0x04, 0x06, 0xfb,
  0xfc, 0xfa, 0xfa, 0x03, 0xfe, 0xfa, 0x05, 0x03, 0x00, 0x0f, 0x0f, 0xfb,
  0x96, 0x01, 0x01, 0x0b, 0xf6, 0xf6, 0x06, 0xf9, 0x06, 0x39, 0xf3, 0x27,
  0x2b, 0x09, 0x0d, 0xfd, 0x01, 0x09, 0xed, 0x04, 0x02, 0xc6, 0xf7, 0x06,
  0x09, 0x05, 0xfc, 0x02, 0xb1, 0xfa, 0xe0, 0x00, 0x0a, 0x17, 0x0e, 0xe7,
  0xd0, 0x01, 0x14, 0xf1, 0x0f, 0x05, 0xe3, 0xdf, 0x16, 0x06, 0xfb, 0x1c,
  0x02, 0x06, 0x08, 0x81, 0xbe, 0x08, 0xaa, 0x19, 0x24, 0x47, 0x17, 0x0c,
  0x06, 0x00, 0x00, 0xfb, 0xef, 0xe6, 0x02, 0x10, 0x1d, 0xe4, 0xca, 0xf8,
  0xd6, 0xf9, 0xed, 0x1c, 0xfc, 0xaf, 0x7f, 0x06, 0xbb, 0x03, 0x38, 0x09,
  0x0d, 0xfd, 0xfd, 0x08, 0xf7, 0x04, 0xff, 0x15, 0xe8, 0x00, 0x00, 0x00,
  0xfa, 0xf9, 0x7e, 0x17, 0xdf, 0x12, 0xc2, 0xdb, 0x07, 0x0e, 0xd9, 0x01,
  0x0b, 0xee, 0x12, 0xfc, 0x14, 0x1c, 0xf8, 0x06, 0x44, 0xf9, 0xdf, 0xf3,
  0xfd, 0x15, 0x08, 0xf6, 0xf3, 0x13, 0x09, 0x08, 0xec, 0x03, 0x32, 0xfe,
  0x07, 0xe3, 0x1c, 0x01, 0x0a, 0x00, 0xe8, 0x19, 0x1e, 0xf8, 0xda, 0x01,
  0xfb, 0xf7, 0x03, 0xca, 0x02, 0x04, 0x26, 0x15, 0x05, 0xfc, 0xd2, 0xcf,
  0x26, 0x0a, 0xa0, 0xca, 0xff, 0xff, 0x02, 0x0b, 0x0c, 0xef, 0x01, 0x01,
  0xfe, 0xfc, 0xdd, 0xff, 0x05, 0x02, 0x0b, 0xed, 0x02, 0xf1, 0x84, 0x02,
  0x24, 0x01, 0x81, 0xfb, 0x00, 0xf6, 0xfe, 0xff, 0x00, 0x03, 0x01, 0xe8,
  0xf7, 0xf6, 0x04, 0x02, 0x00, 0xfa, 0x0b, 0x0a, 0xf0, 0xfd, 0xed, 0x0f,
  0x02, 0x04, 0x04, 0xf5, 0x0a, 0x1b, 0xf6, 0xd6, 0x14, 0x2a, 0xfc, 0x03,
  0xc1, 0x08, 0x01, 0xee, 0x03, 0x12, 0x02, 0xfc, 0x0a, 0xd7, 0x04, 0x03,
  0x2f, 0x05, 0xbe, 0xfd, 0x0b, 0x12, 0x1c, 0xf7, 0x17, 0x06, 0xf3, 0xed,
  0xe2, 0xfc, 0xf6, 0xfa, 0x0a, 0xee, 0x02, 0xf5, 0xff, 0x00, 0x16, 0xf8,
  0xd1, 0x00, 0x0e, 0x06, 0xd7, 0x1c, 0x01, 0xff, 0x00, 0xfd, 0xff, 0xfa,
  0xfc, 0x01, 0x06, 0x05, 0x36, 0xff, 0xff, 0xff, 0x04, 0x00, 0x00, 0x00,
  0x28, 0x00, 0x00, 0x00, 0xce, 0xff, 0xff, 0xff, 0x7d, 0x00, 0x00, 0x00,
  0x2e, 0xfe, 0xff, 0xff, 0xea, 0xff, 0xff, 0xff, 0xbd, 0x00, 0x00, 0x00,
  0xc0, 0xfe, 0xff, 0xff, 0x42, 0x00, 0x00, 0x00, 0xc2, 0xff, 0xff, 0xff,
  0xc0, 0x02, 0x00, 0x00, 0x61, 0x00, 0x00, 0x00, 0x38, 0xff, 0xff, 0xff,
  0x3c, 0xff, 0xff, 0xff, 0x0f, 0x00, 0x00, 0x00, 0x4d, 0x4c, 0x49, 0x52,
  0x20, 0x43, 0x6f, 0x6e, 0x76, 0x65, 0x72, 0x74, 0x65, 0x64, 0x2e, 0x00,
  0x01, 0x00, 0x00, 0x00, 0x14, 0x00, 0x00, 0x00, 0x00, 0x00, 0x0e, 0x00,
  0x18, 0x00, 0x14, 0x00, 0x10, 0x00, 0x0c, 0x00, 0x08, 0x00, 0x04, 0x00,
  0x0e, 0x00, 0x00, 0x00, 0x14, 0x00, 0x00, 0x00, 0x1c, 0x00, 0x00, 0x00,
  0x38, 0x01, 0x00, 0x00, 0x3c, 0x01, 0x00, 0x00, 0x40, 0x01, 0x00, 0x00,
  0x04, 0x00, 0x00, 0x00, 0x6d, 0x61, 0x69, 0x6e, 0x00, 0x00, 0x00, 0x00,
  0x04, 0x00, 0x00, 0x00, 0xe0, 0x00, 0x00, 0x00, 0x98, 0x00, 0x00, 0x00,
  0x50, 0x00, 0x00, 0x00, 0x14, 0x00, 0x00, 0x00, 0x00, 0x00, 0x0e, 0x00,
  0x1a, 0x00, 0x14, 0x00, 0x10, 0x00, 0x0c, 0x00, 0x0b, 0x00, 0x04, 0x00,
  0x0e, 0x00, 0x00, 0x00, 0x1c, 0x00, 0x00, 0x00, 0x00, 0x00, 0x00, 0x09,
  0x1c, 0x00, 0x00, 0x00, 0x20, 0x00, 0x00, 0x00, 0x01, 0x00, 0x00, 0x00,
  0x00, 0x00, 0x06, 0x00, 0x08, 0x00, 0x04, 0x00, 0x06, 0x00, 0x00, 0x00,
  0x00, 0x00, 0x80, 0x3f, 0x01, 0x00, 0x00, 0x00, 0x0a, 0x00, 0x00, 0x00,
  0x01, 0x00, 0x00, 0x00, 0x09, 0x00, 0x00, 0x00, 0xca, 0xff, 0xff, 0xff,
  0x14, 0x00, 0x00, 0x00, 0x00, 0x00, 0x00, 0x08, 0x10, 0x00, 0x00, 0x00,
  0x14, 0x00, 0x00, 0x00, 0x04, 0x00, 0x04, 0x00, 0x04, 0x00, 0x00, 0x00,
  0x01, 0x00, 0x00, 0x00, 0x09, 0x00, 0x00, 0x00, 0x03, 0x00, 0x00, 0x00,
  0x08, 0x00, 0x00, 0x00, 0x02, 0x00, 0x00, 0x00, 0x01, 0x00, 0x00, 0x00,
  0x00, 0x00, 0x0e, 0x00, 0x14, 0x00, 0x00, 0x00, 0x10, 0x00, 0x0c, 0x00,
  0x0b, 0x00, 0x04, 0x00, 0x0e, 0x00, 0x00, 0x00, 0x10, 0x00, 0x00, 0x00,
  0x00, 0x00, 0x00, 0x08, 0x10, 0x00, 0x00, 0x00, 0x14, 0x00, 0x00, 0x00,
  0xba, 0xff, 0xff, 0xff, 0x00, 0x00, 0x00, 0x01, 0x01, 0x00, 0x00, 0x00,
  0x08, 0x00, 0x00, 0x00, 0x03, 0x00, 0x00, 0x00, 0x07, 0x00, 0x00, 0x00,
  0x04, 0x00, 0x00, 0x00, 0x03, 0x00, 0x00, 0x00, 0x00, 0x00, 0x0e, 0x00,
  0x16, 0x00, 0x00, 0x00, 0x10, 0x00, 0x0c, 0x00, 0x0b, 0x00, 0x04, 0x00,
  0x0e, 0x00, 0x00, 0x00, 0x18, 0x00, 0x00, 0x00, 0x00, 0x00, 0x00, 0x08,
  0x18, 0x00, 0x00, 0x00, 0x1c, 0x00, 0x00, 0x00, 0x00, 0x00, 0x06, 0x00,
  0x08, 0x00, 0x07, 0x00, 0x06, 0x00, 0x00, 0x00, 0x00, 0x00, 0x00, 0x01,
  0x01, 0x00, 0x00, 0x00, 0x07, 0x00, 0x00, 0x00, 0x03, 0x00, 0x00, 0x00,
  0x00, 0x00, 0x00, 0x00, 0x06, 0x00, 0x00, 0x00, 0x05, 0x00, 0x00, 0x00,
  0x01, 0x00, 0x00, 0x00, 0x0a, 0x00, 0x00, 0x00, 0x01, 0x00, 0x00, 0x00,
  0x00, 0x00, 0x00, 0x00, 0x0b, 0x00, 0x00, 0x00, 0x88, 0x18, 0x00, 0x00,
  0xa0, 0x17, 0x00, 0x00, 0xb4, 0x16, 0x00, 0x00, 0xb0, 0x11, 0x00, 0x00,
  0xa4, 0x0c, 0x00, 0x00, 0xa0, 0x07, 0x00, 0x00, 0x94, 0x02, 0x00, 0x00,
  0xe0, 0x01, 0x00, 0x00, 0x24, 0x01, 0x00, 0x00, 0x80, 0x00, 0x00, 0x00,
  0x04, 0x00, 0x00, 0x00, 0xba, 0xe7, 0xff, 0xff, 0x00, 0x00, 0x00, 0x01,
  0x18, 0x00, 0x00, 0x00, 0x20, 0x00, 0x00, 0x00, 0x3c, 0x00, 0x00, 0x00,
  0x0b, 0x00, 0x00, 0x00, 0x00, 0x00, 0x00, 0x09, 0x50, 0x00, 0x00, 0x00,
  0x02, 0x00, 0x00, 0x00, 0xff, 0xff, 0xff, 0xff, 0x0a, 0x00, 0x00, 0x00,
  0xa4, 0xe7, 0xff, 0xff, 0x08, 0x00, 0x00, 0x00, 0x10, 0x00, 0x00, 0x00,
  0x01, 0x00, 0x00, 0x00, 0x80, 0xff, 0xff, 0xff, 0xff, 0xff, 0xff, 0xff,
  0x01, 0x00, 0x00, 0x00, 0x00, 0x00, 0x80, 0x3b, 0x1b, 0x00, 0x00, 0x00,
  0x53, 0x74, 0x61, 0x74, 0x65, 0x66, 0x75, 0x6c, 0x50, 0x61, 0x72, 0x74,
  0x69, 0x74, 0x69, 0x6f, 0x6e, 0x65, 0x64, 0x43, 0x61, 0x6c, 0x6c, 0x5f,
  0x31, 0x3a, 0x30, 0x00, 0x02, 0x00, 0x00, 0x00, 0x01, 0x00, 0x00, 0x00,
  0x0a, 0x00, 0x00, 0x00, 0x32, 0xe8, 0xff, 0xff, 0x00, 0x00, 0x00, 0x01,
  0x18, 0x00, 0x00, 0x00, 0x20, 0x00, 0x00, 0x00, 0x40, 0x00, 0x00, 0x00,
  0x0a, 0x00, 0x00, 0x00, 0x00, 0x00, 0x00, 0x09, 0x78, 0x00, 0x00, 0x00,
  0x02, 0x00, 0x00, 0x00, 0xff, 0xff, 0xff, 0xff, 0x0a, 0x00, 0x00, 0x00,
  0x1c, 0xe8, 0xff, 0xff, 0x08, 0x00, 0x00, 0x00, 0x14, 0x00, 0x00, 0x00,
  0x01, 0x00, 0x00, 0x00, 0x30, 0x00, 0x00, 0x00, 0x00, 0x00, 0x00, 0x00,
  0x00, 0x00, 0x00, 0x00, 0x01, 0x00, 0x00, 0x00, 0x97, 0xbc, 0x15, 0x3e,
  0x3c, 0x00, 0x00, 0x00, 0x73, 0x65, 0x71, 0x75, 0x65, 0x6e, 0x74, 0x69,
  0x61, 0x6c, 0x5f, 0x31, 0x2f, 0x64, 0x65, 0x6e, 0x73, 0x65, 0x5f, 0x32,
  0x5f, 0x31, 0x2f, 0x4d, 0x61, 0x74, 0x4d, 0x75, 0x6c, 0x3b, 0x73, 0x65,
  0x71, 0x75, 0x65, 0x6e, 0x74, 0x69, 0x61, 0x6c, 0x5f, 0x31, 0x2f, 0x64,
  0x65, 0x6e, 0x73, 0x65, 0x5f, 0x32, 0x5f, 0x31, 0x2f, 0x42, 0x69, 0x61,
  0x73, 0x41, 0x64, 0x64, 0x00, 0x00, 0x00, 0x00, 0x02, 0x00, 0x00, 0x00,
  0x01, 0x00, 0x00, 0x00, 0x0a, 0x00, 0x00, 0x00, 0xd2, 0xe8, 0xff, 0xff,
  0x00, 0x00, 0x00, 0x01, 0x18, 0x00, 0x00, 0x00, 0x20, 0x00, 0x00, 0x00,
  0x3c, 0x00, 0x00, 0x00, 0x09, 0x00, 0x00, 0x00, 0x00, 0x00, 0x00, 0x09,
  0x90, 0x00, 0x00, 0x00, 0x02, 0x00, 0x00, 0x00, 0xff, 0xff, 0xff, 0xff,
  0x64, 0x00, 0x00, 0x00, 0xbc, 0xe8, 0xff, 0xff, 0x08, 0x00, 0x00, 0x00,
  0x10, 0x00, 0x00, 0x00, 0x01, 0x00, 0x00, 0x00, 0x80, 0xff, 0xff, 0xff,
  0xff, 0xff, 0xff, 0xff, 0x01, 0x00, 0x00, 0x00, 0xe5, 0x5c, 0x4c, 0x3c,
  0x58, 0x00, 0x00, 0x00, 0x73, 0x65, 0x71, 0x75, 0x65, 0x6e, 0x74, 0x69,
  0x61, 0x6c, 0x5f, 0x31, 0x2f, 0x64, 0x65, 0x6e, 0x73, 0x65, 0x5f, 0x31,
  0x5f, 0x32, 0x2f, 0x4d, 0x61, 0x74, 0x4d, 0x75, 0x6c, 0x3b, 0x73, 0x65,
  0x71, 0x75, 0x65, 0x6e, 0x74, 0x69, 0x61, 0x6c, 0x5f, 0x31, 0x2f, 0x64,
  0x65, 0x6e, 0x73, 0x65, 0x5f, 0x31, 0x5f, 0x32, 0x2f, 0x52, 0x65, 0x6c,
  0x75, 0x3b, 0x73, 0x65, 0x71, 0x75, 0x65, 0x6e, 0x74, 0x69, 0x61, 0x6c,
  0x5f, 0x31, 0x2f, 0x64, 0x65, 0x6e, 0x73, 0x65, 0x5f, 0x31, 0x5f, 0x32,
  0x2f, 0x42, 0x69, 0x61, 0x73, 0x41, 0x64, 0x64, 0x00, 0x00, 0x00, 0x00,
  0x02, 0x00, 0x00, 0x00, 0x01, 0x00, 0x00, 0x00, 0x64, 0x00, 0x00, 0x00,
  0x8a, 0xe9, 0xff, 0xff, 0x00, 0x00, 0x00, 0x01, 0x18, 0x00, 0x00, 0x00,
  0x20, 0x00, 0x00, 0x00, 0x3c, 0x00, 0x00, 0x00, 0x08, 0x00, 0x00, 0x00,
  0x00, 0x00, 0x00, 0x09, 0x88, 0x00, 0x00, 0x00, 0x02, 0x00, 0x00, 0x00,
  0xff, 0xff, 0xff, 0xff, 0x64, 0x00, 0x00, 0x00, 0x74, 0xe9, 0xff, 0xff,
  0x08, 0x00, 0x00, 0x00, 0x10, 0x00, 0x00, 0x00, 0x01, 0x00, 0x00, 0x00,
  0x80, 0xff, 0xff, 0xff, 0xff, 0xff, 0xff, 0xff, 0x01, 0x00, 0x00, 0x00,
  0xc0, 0xc7, 0xf9, 0x3a, 0x52, 0x00, 0x00, 0x00, 0x73, 0x65, 0x71, 0x75,
  0x65, 0x6e, 0x74, 0x69, 0x61, 0x6c, 0x5f, 0x31, 0x2f, 0x64, 0x65, 0x6e,
  0x73, 0x65, 0x5f, 0x31, 0x2f, 0x4d, 0x61, 0x74, 0x4d, 0x75, 0x6c, 0x3b,
  0x73, 0x65, 0x71, 0x75, 0x65, 0x6e, 0x74, 0x69, 0x61, 0x6c, 0x5f, 0x31,
  0x2f, 0x64, 0x65, 0x6e, 0x73, 0x65, 0x5f, 0x31, 0x2f, 0x52, 0x65, 0x6c,
  0x75, 0x3b, 0x73, 0x65, 0x71, 0x75, 0x65, 0x6e, 0x74, 0x69, 0x61, 0x6c,
  0x5f, 0x31, 0x2f, 0x64, 0x65, 0x6e, 0x73, 0x65, 0x5f, 0x31, 0x2f, 0x42,
  0x69, 0x61, 0x73, 0x41, 0x64, 0x64, 0x00, 0x00, 0x02, 0x00, 0x00, 0x00,
  0x01, 0x00, 0x00, 0x00, 0x64, 0x00, 0x00, 0x00, 0x1e, 0xeb, 0xff, 0xff,
  0x00, 0x00, 0x00, 0x01, 0x14, 0x00, 0x00, 0x00, 0xd8, 0x04, 0x00, 0x00,
  0x07, 0x00, 0x00, 0x00, 0x00, 0x00, 0x00, 0x09, 0xe4, 0x04, 0x00, 0x00,
  0x14, 0xea, 0xff, 0xff, 0x08, 0x00, 0x00, 0x00, 0x2c, 0x03, 0x00, 0x00,
  0x64, 0x00, 0x00, 0x00, 0x00, 0x00, 0x00, 0x00, 0x00, 0x00, 0x00, 0x00,
  0x00, 0x00, 0x00, 0x00, 0x00, 0x00, 0x00, 0x00, 0x00, 0x00, 0x00, 0x00,
  0x00, 0x00, 0x00, 0x00, 0x00, 0x00, 0x00, 0x00, 0x00, 0x00, 0x00, 0x00,
  0x00, 0x00, 0x00, 0x00, 0x00, 0x00, 0x00, 0x00, 0x00, 0x00, 0x00, 0x00,
  0x00, 0x00, 0x00, 0x00, 0x00, 0x00, 0x00, 0x00, 0x00, 0x00, 0x00, 0x00,
  0x00, 0x00, 0x00, 0x00, 0x00, 0x00, 0x00, 0x00, 0x00, 0x00, 0x00, 0x00,
  0x00, 0x00, 0x00, 0x00, 0x00, 0x00, 0x00, 0x00, 0x00, 0x00, 0x00, 0x00,
  0x00, 0x00, 0x00, 0x00, 0x00, 0x00, 0x00, 0x00, 0x00, 0x00, 0x00, 0x00,
  0x00, 0x00, 0x00, 0x00, 0x00, 0x00, 0x00, 0x00, 0x00, 0x00, 0x00, 0x00,
  0x00, 0x00, 0x00, 0x00, 0x00, 0x00, 0x00, 0x00, 0x00, 0x00, 0x00, 0x00,
  0x00, 0x00, 0x00, 0x00, 0x00, 0x00, 0x00, 0x00, 0x00, 0x00, 0x00, 0x00,
  0x00, 0x00, 0x00, 0x00, 0x00, 0x00, 0x00, 0x00, 0x00, 0x00, 0x00, 0x00,
  0x00, 0x00, 0x00, 0x00, 0x00, 0x00, 0x00, 0x00, 0x00, 0x00, 0x00, 0x00,
  0x00, 0x00, 0x00, 0x00, 0x00, 0x00, 0x00, 0x00, 0x00, 0x00, 0x00, 0x00,
  0x00, 0x00, 0x00, 0x00, 0x00, 0x00, 0x00, 0x00, 0x00, 0x00, 0x00, 0x00,
  0x00, 0x00, 0x00, 0x00, 0x00, 0x00, 0x00, 0x00, 0x00, 0x00, 0x00, 0x00,
  0x00, 0x00, 0x00, 0x00, 0x00, 0x00, 0x00, 0x00, 0x00, 0x00, 0x00, 0x00,
  0x00, 0x00, 0x00, 0x00, 0x00, 0x00, 0x00, 0x00, 0x00, 0x00, 0x00, 0x00,
  0x00, 0x00, 0x00, 0x00, 0x00, 0x00, 0x00, 0x00, 0x00, 0x00, 0x00, 0x00,
  0x00, 0x00, 0x00, 0x00, 0x00, 0x00, 0x00, 0x00, 0x00, 0x00, 0x00, 0x00,
  0x00, 0x00, 0x00, 0x00, 0x00, 0x00, 0x00, 0x00, 0x00, 0x00, 0x00, 0x00,
  0x00, 0x00, 0x00, 0x00, 0x00, 0x00, 0x00, 0x00, 0x00, 0x00, 0x00, 0x00,
  0x00, 0x00, 0x00, 0x00, 0x00, 0x00, 0x00, 0x00, 0x00, 0x00, 0x00, 0x00,
  0x00, 0x00, 0x00, 0x00, 0x00, 0x00, 0x00, 0x00, 0x00, 0x00, 0x00, 0x00,
  0x00, 0x00, 0x00, 0x00, 0x00, 0x00, 0x00, 0x00, 0x00, 0x00, 0x00, 0x00,
  0x00, 0x00, 0x00, 0x00, 0x00, 0x00, 0x00, 0x00, 0x00, 0x00, 0x00, 0x00,
  0x00, 0x00, 0x00, 0x00, 0x00, 0x00, 0x00, 0x00, 0x00, 0x00, 0x00, 0x00,
  0x00, 0x00, 0x00, 0x00, 0x00, 0x00, 0x00, 0x00, 0x00, 0x00, 0x00, 0x00,
  0x00, 0x00, 0x00, 0x00, 0x00, 0x00, 0x00, 0x00, 0x00, 0x00, 0x00, 0x00,
  0x00, 0x00, 0x00, 0x00, 0x00, 0x00, 0x00, 0x00, 0x00, 0x00, 0x00, 0x00,
  0x00, 0x00, 0x00, 0x00, 0x00, 0x00, 0x00, 0x00, 0x00, 0x00, 0x00, 0x00,
  0x00, 0x00, 0x00, 0x00, 0x00, 0x00, 0x00, 0x00, 0x00, 0x00, 0x00, 0x00,
  0x00, 0x00, 0x00, 0x00, 0x00, 0x00, 0x00, 0x00, 0x00, 0x00, 0x00, 0x00,
  0x00, 0x00, 0x00, 0x00, 0x00, 0x00, 0x00, 0x00, 0x00, 0x00, 0x00, 0x00,
  0x00, 0x00, 0x00, 0x00, 0x00, 0x00, 0x00, 0x00, 0x00, 0x00, 0x00, 0x00,
  0x00, 0x00, 0x00, 0x00, 0x00, 0x00, 0x00, 0x00, 0x00, 0x00, 0x00, 0x00,
  0x00, 0x00, 0x00, 0x00, 0x00, 0x00, 0x00, 0x00, 0x00, 0x00, 0x00, 0x00,
  0x00, 0x00, 0x00, 0x00, 0x00, 0x00, 0x00, 0x00, 0x00, 0x00, 0x00, 0x00,
  0x00, 0x00, 0x00, 0x00, 0x00, 0x00, 0x00, 0x00, 0x00, 0x00, 0x00, 0x00,
  0x00, 0x00, 0x00, 0x00, 0x00, 0x00, 0x00, 0x00, 0x00, 0x00, 0x00, 0x00,
  0x00, 0x00, 0x00, 0x00, 0x00, 0x00, 0x00, 0x00, 0x00, 0x00, 0x00, 0x00,
  0x00, 0x00, 0x00, 0x00, 0x00, 0x00, 0x00, 0x00, 0x00, 0x00, 0x00, 0x00,
  0x00, 0x00, 0x00, 0x00, 0x00, 0x00, 0x00, 0x00, 0x00, 0x00, 0x00, 0x00,
  0x00, 0x00, 0x00, 0x00, 0x00, 0x00, 0x00, 0x00, 0x00, 0x00, 0x00, 0x00,
  0x00, 0x00, 0x00, 0x00, 0x00, 0x00, 0x00, 0x00, 0x00, 0x00, 0x00, 0x00,
  0x00, 0x00, 0x00, 0x00, 0x00, 0x00, 0x00, 0x00, 0x00, 0x00, 0x00, 0x00,
  0x00, 0x00, 0x00, 0x00, 0x00, 0x00, 0x00, 0x00, 0x00, 0x00, 0x00, 0x00,
  0x00, 0x00, 0x00, 0x00, 0x00, 0x00, 0x00, 0x00, 0x00, 0x00, 0x00, 0x00,
  0x00, 0x00, 0x00, 0x00, 0x00, 0x00, 0x00, 0x00, 0x00, 0x00, 0x00, 0x00,
  0x00, 0x00, 0x00, 0x00, 0x00, 0x00, 0x00, 0x00, 0x00, 0x00, 0x00, 0x00,
  0x00, 0x00, 0x00, 0x00, 0x00, 0x00, 0x00, 0x00, 0x00, 0x00, 0x00, 0x00,
  0x00, 0x00, 0x00, 0x00, 0x00, 0x00, 0x00, 0x00, 0x00, 0x00, 0x00, 0x00,
  0x00, 0x00, 0x00, 0x00, 0x00, 0x00, 0x00, 0x00, 0x00, 0x00, 0x00, 0x00,
  0x00, 0x00, 0x00, 0x00, 0x00, 0x00, 0x00, 0x00, 0x00, 0x00, 0x00, 0x00,
  0x00, 0x00, 0x00, 0x00, 0x00, 0x00, 0x00, 0x00, 0x00, 0x00, 0x00, 0x00,
  0x00, 0x00, 0x00, 0x00, 0x00, 0x00, 0x00, 0x00, 0x00, 0x00, 0x00, 0x00,
  0x00, 0x00, 0x00, 0x00, 0x00, 0x00, 0x00, 0x00, 0x00, 0x00, 0x00, 0x00,
  0x00, 0x00, 0x00, 0x00, 0x00, 0x00, 0x00, 0x00, 0x00, 0x00, 0x00, 0x00,
  0x00, 0x00, 0x00, 0x00, 0x00, 0x00, 0x00, 0x00, 0x00, 0x00, 0x00, 0x00,
  0x00, 0x00, 0x00, 0x00, 0x00, 0x00, 0x00, 0x00, 0x00, 0x00, 0x00, 0x00,
  0x00, 0x00, 0x00, 0x00, 0x00, 0x00, 0x00, 0x00, 0x00, 0x00, 0x00, 0x00,
  0x00, 0x00, 0x00, 0x00, 0x00, 0x00, 0x00, 0x00, 0x00, 0x00, 0x00, 0x00,
  0x00, 0x00, 0x00, 0x00, 0x00, 0x00, 0x00, 0x00, 0x00, 0x00, 0x00, 0x00,
  0x00, 0x00, 0x00, 0x00, 0x00, 0x00, 0x00, 0x00, 0x00, 0x00, 0x00, 0x00,
  0x00, 0x00, 0x00, 0x00, 0x00, 0x00, 0x00, 0x00, 0x00, 0x00, 0x00, 0x00,
  0x00, 0x00, 0x00, 0x00, 0x00, 0x00, 0x00, 0x00, 0x00, 0x00, 0x00, 0x00,
  0x00, 0x00, 0x00, 0x00, 0x00, 0x00, 0x00, 0x00, 0x00, 0x00, 0x00, 0x00,
  0x00, 0x00, 0x00, 0x00, 0x64, 0x00, 0x00, 0x00, 0x3a, 0x7b, 0x8c, 0x3e,
  0xf5, 0x04, 0xef, 0x3d, 0xc8, 0x0d, 0xed, 0x3a, 0x4a, 0xc1, 0x77, 0x3d,
  0xd0, 0xcc, 0x8c, 0x3d, 0x5f, 0x0b, 0xe5, 0x3d, 0x88, 0xd4, 0xc5, 0x3a,
  0x43, 0x3d, 0xed, 0x3a, 0x69, 0x60, 0xe9, 0x3a, 0x88, 0x03, 0xb5, 0x3c,
  0xd2, 0x73, 0x13, 0x3e, 0xde, 0x65, 0xea, 0x3a, 0xbf, 0xb9, 0x96, 0x3d,
  0x12, 0xec, 0x50, 0x3e, 0x9d, 0x21, 0xc0, 0x3a, 0xe0, 0xd7, 0x9c, 0x3e,
  0xa8, 0x79, 0xed, 0x3a, 0x92, 0x11, 0x1f, 0x3d, 0xd1, 0x82, 0x2f, 0x3e,
  0x08, 0x99, 0x5a, 0x3e, 0x18, 0x5c, 0xc3, 0x3a, 0x83, 0x12, 0xd6, 0x3c,
  0x62, 0xfb, 0x0e, 0x3e, 0xf1, 0xc6, 0x22, 0x3e, 0x54, 0xc1, 0xe5, 0x3a,
  0x5a, 0x0d, 0x29, 0x3e, 0xb7, 0xef, 0x61, 0x3e, 0x00, 0xa1, 0xd8, 0x3a,
  0x51, 0xd0, 0x4b, 0x3d, 0xb1, 0x86, 0xa6, 0x3a, 0x1a, 0x50, 0xd0, 0x3d,
  0x13, 0x58, 0x2b, 0x3e, 0xc4, 0x7c, 0xdd, 0x3a, 0x85, 0x2c, 0xbb, 0x3d,
  0x71, 0x05, 0xec, 0x3a, 0x28, 0xdd, 0xe7, 0x3d, 0x98, 0x63, 0xee, 0x3a,
  0xab, 0x73, 0x1b, 0x3d, 0x7b, 0x52, 0x99, 0x3d, 0x26, 0xed, 0xe6, 0x3a,
  0x45, 0x73, 0x69, 0x3e, 0xb9, 0x11, 0xe7, 0x3a, 0x89, 0x68, 0x47, 0x3d,
  0xc2, 0xa9, 0xce, 0x3a, 0xa5, 0xaf, 0x5e, 0x3d, 0x5e, 0x71, 0xe7, 0x3d,
  0xd8, 0x70, 0xb8, 0x3d, 0xf4, 0x0a, 0x49, 0x3d, 0xee, 0x1c, 0xdc, 0x3a,
  0x26, 0xc7, 0xe9, 0x3a, 0x98, 0xc5, 0x0d, 0x3e, 0x9b, 0x2f, 0xf1, 0x3a,
  0x95, 0x63, 0xe0, 0x3a, 0xaf, 0x05, 0xb8, 0x3a, 0xdd, 0x7b, 0x59, 0x3e,
  0x32, 0xd8, 0xb5, 0x3d, 0x9b, 0x4a, 0xf0, 0x3a, 0x96, 0x67, 0xcd, 0x3a,
  0x92, 0xf4, 0xcb, 0x3d, 0x0b, 0x1e, 0xea, 0x3a, 0xb6, 0xf6, 0x90, 0x3e,
  0xee, 0xbf, 0x66, 0x3d, 0xa7, 0x38, 0xea, 0x3a, 0x86, 0x3b, 0x5d, 0x3e,
  0x55, 0x66, 0x17, 0x3e, 0xaa, 0xa2, 0xea, 0x3a, 0x99, 0xd2, 0xe6, 0x3a,
  0xa6, 0x31, 0x0c, 0x3e, 0x10, 0x0e, 0xbe, 0x3d, 0x36, 0xb4, 0xbd, 0x3d,
  0xff, 0x69, 0x9e, 0x3d, 0xb7, 0x5d, 0xe3, 0x3a, 0x22, 0xc0, 0x5f, 0x3d,
  0x65, 0xbf, 0xe6, 0x3d, 0x68, 0xb5, 0x96, 0x3d, 0xee, 0x8b, 0x96, 0x3d,
  0xf2, 0x99, 0xf1, 0x3a, 0x74, 0x07, 0xc9, 0x3a, 0xdf, 0x34, 0xe9, 0x3a,
  0x41, 0x0d, 0xf2, 0x3a, 0xbf, 0x62, 0xd1, 0x3a, 0x00, 0x22, 0x43, 0x3e,
  0x6b, 0x79, 0x2e, 0x3e, 0x57, 0xbf, 0xcf, 0x3d, 0x00, 0x72, 0x8e, 0x3a,
  0x44, 0x2f, 0xef, 0x3a, 0x5b, 0x57, 0xeb, 0x3a, 0x06, 0x8a, 0xa6, 0x3d,
  0xc4, 0xdc, 0xd3, 0x3a, 0xa5, 0xba, 0x12, 0x3e, 0x41, 0x5c, 0xc5, 0x3e,
  0x8a, 0xfe, 0xfa, 0x3d, 0xe7, 0x10, 0xf8, 0x3d, 0x73, 0xe0, 0x34, 0x3d,
  0x8a, 0x5a, 0x5d, 0x3e, 0x09, 0xaf, 0x92, 0x3d, 0x96, 0x85, 0xc9, 0x3d,
  0x92, 0xf1, 0xec, 0x3a, 0x29, 0x61, 0x01, 0x3e, 0x07, 0x89, 0xf1, 0x3a,
  0x12, 0x00, 0x00, 0x00, 0x74, 0x66, 0x6c, 0x2e, 0x70, 0x73, 0x65, 0x75,
  0x64, 0x6f, 0x5f, 0x71, 0x63, 0x6f, 0x6e, 0x73, 0x74, 0x35, 0x00, 0x00,
  0x02, 0x00, 0x00, 0x00, 0x64, 0x00, 0x00, 0x00, 0x07, 0x00, 0x00, 0x00,
  0x26, 0xf0, 0xff, 0xff, 0x00, 0x00, 0x00, 0x01, 0x14, 0x00, 0x00, 0x00,
  0xd4, 0x04, 0x00, 0x00, 0x06, 0x00, 0x00, 0x00, 0x00, 0x00, 0x00, 0x02,
  0xe0, 0x04, 0x00, 0x00, 0x1c, 0xef, 0xff, 0xff, 0x08, 0x00, 0x00, 0x00,
  0x28, 0x03, 0x00, 0x00, 0x64, 0x00, 0x00, 0x00, 0x00, 0x00, 0x00, 0x00,
  0x00, 0x00, 0x00, 0x00, 0x00, 0x00, 0x00, 0x00, 0x00, 0x00, 0x00, 0x00,
  0x00, 0x00, 0x00, 0x00, 0x00, 0x00, 0x00, 0x00, 0x00, 0x00, 0x00, 0x00,
  0x00, 0x00, 0x00, 0x00, 0x00, 0x00, 0x00, 0x00, 0x00, 0x00, 0x00, 0x00,
  0x00, 0x00, 0x00, 0x00, 0x00, 0x00, 0x00, 0x00, 0x00, 0x00, 0x00, 0x00,
  0x00, 0x00, 0x00, 0x00, 0x00, 0x00, 0x00, 0x00, 0x00, 0x00, 0x00, 0x00,
  0x00, 0x00, 0x00, 0x00, 0x00, 0x00, 0x00, 0x00, 0x00, 0x00, 0x00, 0x00,
  0x00, 0x00, 0x00, 0x00, 0x00, 0x00, 0x00, 0x00, 0x00, 0x00, 0x00, 0x00,
  0x00, 0x00, 0x00, 0x00, 0x00, 0x00, 0x00, 0x00, 0x00, 0x00, 0x00, 0x00,
  0x00, 0x00, 0x00, 0x00, 0x00, 0x00, 0x00, 0x00, 0x00, 0x00, 0x00, 0x00,
  0x00, 0x00, 0x00, 0x00, 0x00, 0x00, 0x00, 0x00, 0x00, 0x00, 0x00, 0x00,
  0x00, 0x00, 0x00, 0x00, 0x00, 0x00, 0x00, 0x00, 0x00, 0x00, 0x00, 0x00,
  0x00, 0x00, 0x00, 0x00, 0x00, 0x00, 0x00, 0x00, 0x00, 0x00, 0x00, 0x00,
  0x00, 0x00, 0x00, 0x00, 0x00, 0x00, 0x00, 0x00, 0x00, 0x00, 0x00, 0x00,
  0x00, 0x00, 0x00, 0x00, 0x00, 0x00, 0x00, 0x00, 0x00, 0x00, 0x00, 0x00,
  0x00, 0x00, 0x00, 0x00, 0x00, 0x00, 0x00, 0x00, 0x00, 0x00, 0x00, 0x00,
  0x00, 0x00, 0x00, 0x00, 0x00, 0x00, 0x00, 0x00, 0x00, 0x00, 0x00, 0x00,
  0x00, 0x00, 0x00, 0x00, 0x00, 0x00, 0x00, 0x00, 0x00, 0x00, 0x00, 0x00,
  0x00, 0x00, 0x00, 0x00, 0x00, 0x00, 0x00, 0x00, 0x00, 0x00, 0x00, 0x00,
  0x00, 0x00, 0x00, 0x00, 0x00, 0x00, 0x00, 0x00, 0x00, 0x00, 0x00, 0x00,
  0x00, 0x00, 0x00, 0x00, 0x00, 0x00, 0x00, 0x00, 0x00, 0x00, 0x00, 0x00,
  0x00, 0x00, 0x00, 0x00, 0x00, 0x00, 0x00, 0x00, 0x00, 0x00, 0x00, 0x00,
  0x00, 0x00, 0x00, 0x00, 0x00, 0x00, 0x00, 0x00, 0x00, 0x00, 0x00, 0x00,
  0x00, 0x00, 0x00, 0x00, 0x00, 0x00, 0x00, 0x00, 0x00, 0x00, 0x00, 0x00,
  0x00, 0x00, 0x00, 0x00, 0x00, 0x00, 0x00, 0x00, 0x00, 0x00, 0x00, 0x00,
  0x00, 0x00, 0x00, 0x00, 0x00, 0x00, 0x00, 0x00, 0x00, 0x00, 0x00, 0x00,
  0x00, 0x00, 0x00, 0x00, 0x00, 0x00, 0x00, 0x00, 0x00, 0x00, 0x00, 0x00,
  0x00, 0x00, 0x00, 0x00, 0x00, 0x00, 0x00, 0x00, 0x00, 0x00, 0x00, 0x00,
  0x00, 0x00, 0x00, 0x00, 0x00, 0x00, 0x00, 0x00, 0x00, 0x00, 0x00, 0x00,
  0x00, 0x00, 0x00, 0x00, 0x00, 0x00, 0x00, 0x00, 0x00, 0x00, 0x00, 0x00,
  0x00, 0x00, 0x00, 0x00, 0x00, 0x00, 0x00, 0x00, 0x00, 0x00, 0x00, 0x00,
  0x00, 0x00, 0x00, 0x00, 0x00, 0x00, 0x00, 0x00, 0x00, 0x00, 0x00, 0x00,
  0x00, 0x00, 0x00, 0x00, 0x00, 0x00, 0x00, 0x00, 0x00, 0x00, 0x00, 0x00,
  0x00, 0x00, 0x00, 0x00, 0x00, 0x00, 0x00, 0x00, 0x00, 0x00, 0x00, 0x00,
  0x00, 0x00, 0x00, 0x00, 0x00, 0x00, 0x00, 0x00, 0x00, 0x00, 0x00, 0x00,
  0x00, 0x00, 0x00, 0x00, 0x00, 0x00, 0x00, 0x00, 0x00, 0x00, 0x00, 0x00,
  0x00, 0x00, 0x00, 0x00, 0x00, 0x00, 0x00, 0x00, 0x00, 0x00, 0x00, 0x00,
  0x00, 0x00, 0x00, 0x00, 0x00, 0x00, 0x00, 0x00, 0x00, 0x00, 0x00, 0x00,
  0x00, 0x00, 0x00, 0x00, 0x00, 0x00, 0x00, 0x00, 0x00, 0x00, 0x00, 0x00,
  0x00, 0x00, 0x00, 0x00, 0x00, 0x00, 0x00, 0x00, 0x00, 0x00, 0x00, 0x00,
  0x00, 0x00, 0x00, 0x00, 0x00, 0x00, 0x00, 0x00, 0x00, 0x00, 0x00, 0x00,
  0x00, 0x00, 0x00, 0x00, 0x00, 0x00, 0x00, 0x00, 0x00, 0x00, 0x00, 0x00,
  0x00, 0x00, 0x00, 0x00, 0x00, 0x00, 0x00, 0x00, 0x00, 0x00, 0x00, 0x00,
  0x00, 0x00, 0x00, 0x00, 0x00, 0x00, 0x00, 0x00, 0x00, 0x00, 0x00, 0x00,
  0x00, 0x00, 0x00, 0x00, 0x00, 0x00, 0x00, 0x00, 0x00, 0x00, 0x00, 0x00,
  0x00, 0x00, 0x00, 0x00, 0x00, 0x00, 0x00, 0x00, 0x00, 0x00, 0x00, 0x00,
  0x00, 0x00, 0x00, 0x00, 0x00, 0x00, 0x00, 0x00, 0x00, 0x00, 0x00, 0x00,
  0x00, 0x00, 0x00, 0x00, 0x00, 0x00, 0x00, 0x00, 0x00, 0x00, 0x00, 0x00,
  0x00, 0x00, 0x00, 0x00, 0x00, 0x00, 0x00, 0x00, 0x00, 0x00, 0x00, 0x00,
  0x00, 0x00, 0x00, 0x00, 0x00, 0x00, 0x00, 0x00, 0x00, 0x00, 0x00, 0x00,
  0x00, 0x00, 0x00, 0x00, 0x00, 0x00, 0x00, 0x00, 0x00, 0x00, 0x00, 0x00,
  0x00, 0x00, 0x00, 0x00, 0x00, 0x00, 0x00, 0x00, 0x00, 0x00, 0x00, 0x00,
  0x00, 0x00, 0x00, 0x00, 0x00, 0x00, 0x00, 0x00, 0x00, 0x00, 0x00, 0x00,
  0x00, 0x00, 0x00, 0x00, 0x00, 0x00, 0x00, 0x00, 0x00, 0x00, 0x00, 0x00,
  0x00, 0x00, 0x00, 0x00, 0x00, 0x00, 0x00, 0x00, 0x00, 0x00, 0x00, 0x00,
  0x00, 0x00, 0x00, 0x00, 0x00, 0x00, 0x00, 0x00, 0x00, 0x00, 0x00, 0x00,
  0x00, 0x00, 0x00, 0x00, 0x00, 0x00, 0x00, 0x00, 0x00, 0x00, 0x00, 0x00,
  0x00, 0x00, 0x00, 0x00, 0x00, 0x00, 0x00, 0x00, 0x00, 0x00, 0x00, 0x00,
